{
  "version": "1.0",
  "truncation": null,
  "padding": null,
  "added_tokens": [
    {
      "id": 0,
      "content": "[PAD]",
      "single_word": false,
      "lstrip": false,
      "rstrip": false,
      "normalized": false,
      "special": true
    },
    {
      "id": 1,
      "content": "[CLS]",
      "single_word": false,
      "lstrip": false,
      "rstrip": false,
      "normalized": false,
      "special": true
    },
    {
      "id": 2,
      "content": "[SEP]",
      "single_word": false,
      "lstrip": false,
      "rstrip": false,
      "normalized": false,
      "special": true
    },
    {
      "id": 3,
      "content": "[UNK]",
      "single_word": false,
      "lstrip": false,
      "rstrip": false,
      "normalized": false,
      "special": true
    },
    {
      "id": 4,
      "content": "[MASK]",
      "single_word": false,
      "lstrip": false,
      "rstrip": false,
      "normalized": false,
      "special": true
    }
  ],
  "normalizer": {
    "type": "Sequence",
    "normalizers": [
      {
        "type": "Replace",
        "pattern": {
          "Regex": "\\p{Z}"
        },
        "content": " "
      },
      {
        "type": "Replace",
        "pattern": {
          "Regex": "[\\x00-\\x08\\x0b\\x0c\\x0e-\\x1f\\x7f-\\x9f]|\\p{Cf}|\\p{Co}|\\p{Cs}|[\\uFE0F]"
        },
        "content": ""
      }
    ]
  },
  "pre_tokenizer": {
    "type": "Sequence",
    "pretokenizers": [
      {
        "type": "Split",
        "pattern": {
          "Regex": "[ ]{1,4}"
        },
        "behavior": "Isolated",
        "invert": false
      },
      {
        "type": "Split",
        "pattern": {
          "Regex": "^ $"
        },
        "behavior": "Removed",
        "invert": false
      },
      {
        "type": "Split",
        "pattern": {
          "Regex": "(?i:\\b[cmnjstdl]|qu|puisqu|lorsqu|quelqu|presqu|quoiqu|jusqu)['´’]|['´’](?i:[sdmt]|ll|ve|re)\\b|\\p{P}{1,4}|[^\\p{L}\\p{N}\\p{Z}]"
        },
        "behavior": "Isolated",
        "invert": false
      },
      {
        "type": "Split",
        "pattern": {
          "Regex": "[🍆🥖🌪⚗🕰🍭🕎🦈🦵🤍🍯🧦🥙🔖🥛⚰📿📌🇦🏓👫👦🐴🎄🍁🦡🤽🏫🔛🪔🥮🐷⚾🆘🥴🍦🪲🥼🍠🎍🐚⤴🦹🚰🍓💜🍾⏹📳📗👕🎴🗼🇧🤮🥂⏩🎓🔁🐔🤜🕠🎙⛺🫄➰♏🧧🕢👑📚🤷🏳⚜🔠🍴😆🏺🧜👸♀💋🐧🥵🤩🥿🖐🥡🇹📊🌯➿🤞🌚🏔🤳🌾🧒🔘🔊🤘🫕🧼🏪🌒😋🎞🔺🍌🍋🎛😅👹🔯♠🫵👰🖇🌌🐻😊🚭🔄⛷🐗🐘🍮🩻🪰😞🛢🐶☎🖲💉👳👐🌽🥘🦾🪝😽🈳🥥☺🍟💦🥧🔌📩💅💿🐌🍔👾♓🏵👥😂🐀🚉📎🎩🥅🏰😬🍕🎫🛁💛🐐🐑🧁🐽🖋🧊🌝✈🗽🍬🚵🌗😼🎆🛠🪑🐾🤕♋🧖🔳🫔💆🕐♥💙🧀🧫↔🗄📼🚳⚒〽✖🤨🌴📄👭👖♉🏜🥈🤟🧇🎸⛅🇨♦🧻🥻🈹🏦🕍⏫🍎🐝🍜🕝🎷🕯🥏📅💥☘😹🎎🪜♎🗾🇻📦🎉💊🧕🙌🛝💹🧴🏡🗒☃⏱🪬♂🐎🐿🛖🐩🫁⚽😢🥨😨💚🚃👝🇾🧉🇫🌨🦘🉐🥐🀄🐲🚟🧃🎤🦻🚅🏟🔐🈲🇽🌠😿➕😩💈🦠👈🚑🛹🏍🧩🫙🛀👞🐳🥦🛡🧓🎂✂⛲🎬🈷🧞🫠☂🃏😾🍣📮🤼🫦🦞🤰🐼😯🦇😲🟨🍅💷😄😭🧲🗿🏥🤌🛋👉🩴🫒🦺⛑✌👺🤫🏖🪛🅾👊💱☹🦯👛👣🌈📆💀🟢🪨▫🍼🏢📃😖🦝🎽🐥🪣🌭🚄ℹ☑🔨🇰🪐🚓🌜📑🐞🤓📥⚕🚽⌚🦱❕🥹🌻🎥🚫🚜🟫🇸🛼🔸🏹🔃✨🕖↪🚻🎠😉🪖🇲🍪🧿🗨🌍😜🫱🕑🐉🇱㊗✍↙✋🪧😟🐏🈯😤🐋🏅🧰🥢☪🦳🈴🐦😔👧🛳↕😁👆🇯🏛📧🚏🔡🪥🍸💐🥃🤐🛵👷✴📐📏⬅😥🏆🪟🦌👗🦤🏩📱🍿🛩🍫🌖👶😵📍🐹🌓💸🏚🚦⚫🦷🚔🍏🛑🏕🕌⭕🔞🍶🚛🦀🥑🖼💴👌🎰😚🐊🔬⌛📡💑🌤⛹🧛🖱🦗🤡🗓🐬🛤🌶🛍🍨🎳🚨🪩🎟🚌🟣🩼🫑🧈▶👔🐓⛴🧅🥓🦮⛎🦲➡🥫⛄🍘🐃🌋🪠😠🎑🤣💍🎇👍🔣🕜💫🌂🧎🥋🌐⏺🔇🔒🔂📵✊🦋🚪🎧😮🏉🏁↖🥤🈚🫗🚗🈵🏃🏞🆎⃣💗⚙🌦🫧🛗❔🍃☝🦖🔀🏝🏣🔓😝🍍☯🏾➗⏮💰😏🖤🩸💎🇵🛻🥇🌀🔮😍🧟🥁🦧🈺😻↗📣🤯🪁®👤🔱📀💯◀🐫🇳🤗🍚🕵🥗🥒🥕🔦🖖🕗🌃🫅🤑🚖🌫🎼🧵⚡🪫🇶👇⏳⛰👜⤵🪢💞🌟🕞☄📘🇷😪👿💂😡🥀🚠☮🦶🥠🦃🕕🌔🟩🤾😳✳😷⛽🎯🕳🪡💃😘🇴🪄🕺🗃🍈🤺⛳🟪🙁🍒🐍🐁🥾⏰🚎😕✝🛞📔🧔🕡👋🏮🥞🚕♑🟤🌆❣🛄😰🩳🔆🐄👘😒🦴♾🚇😱🎾🍥🛕🔝🌿🔙🪸🤖⏸❤🦏👓😑🚺🪕🥄📖🥝🇩🚚🐇🧤😺‼🗳🍱🛒⛵🥰💓⏏🛌🌇♻🇭🧢🫤⚧🇼🦅😫📺🩹🏂🤎👃🦩🏏🧪📛⏯🤦🏯🌧📝🩺💩👱🎮📂✉😀🕟🪤📞💨◾🕤🧚🎲💤🈂📋©🏐🙀🧥⛏🐣◼🛃🦊📙🪷☣🐠😈🌺🔋🗣📲📫🚷🕔🤹🦭🕙🏼🔽🎐⚖🫐🛰🙈⛱🍺🌰🧂👢🥟🏸🧯🍢🏷🧺🚾💬🏴🍧🔎🖕🚬😶🪅🐅🥍🗞🧋🥊🧙🧱🦂🦥🌁💮🟧🫖🎃🍑💺🚝🧮🧬🙋🦽🔢💝☀🏎🍰🌲🔍Ⓜ🛥📰🕣🙎🤱🚹🚱💵💧🚈🫂👡🛬➖🫃❄🎹⬛🗡🔧🍀🥣🍇🚼🧭🏘🌳🥎🚢👮📤🕊🦦⌨🐖🈶🕒👬↩♿🍛🥳🟠🌼🧘🥔🛺🈸✒🫓🔻⚔🐕🚋🪹🆑🚣🏀🖌🚁🥶🤧💶🆙🧑🍻🇿🏙🍳🔟🧗🌉🎁🦎🛣✏💘📨🚘🤭🌎🐟🚮🧣🟰👽🧡🦿🐒🍙🚂🧠🫀🧆❓🚶🏧👂🩲⬇🤢🤤🕘🍲🔅🗻☁♍🫳🌡🦉🦁🏋🍐👒🆒📶💟↘🖍🐂🔰◻🎭💁🥌💼🐈🦰🏗🌛♣🌵🐱🧷🟥🐪🥸🦟🐆🔥🌞🎈🌱👙🌏⏬🆗🚙♟🕉☢🤴🎶🗯🤶👲🫡🔲🤥🔕🎅🚩◽✅🚞🦍🔈🍄🚒🔴🎣🦔🪗🧝♨🎏🎪🖊🪘🫢🙆🩱⬜🍩⛔🦢🇺🐡⚠🐨🖥🙍🦬🏻🙏♐🇪🍤🐭🪪😴🌮💭⚱📁🥱🤵💕🥜🫲👅😓💠🙃📒🤙🌙♈😛🪴🛂🐰🕶🆖🏇❗😸🕚🔉🤚🦓🪞🙅🛏🚐💡🏊🔶🛅🥚🕹👪🪶🦑🦆💔🔹🌬🧌📓🫣🗺😣🔗🫥🏤🪵🚸🚧🎊💳🥷⁉🈁☦⬆📜📬🤿❎👄✡🔚🎿♌🐵👎🎦☔🌑🎖💄👨🌕♊🧾⚓🥭🌩💲📈🐢🐸🕛🪦😙♒🪓🪆🗝🦄🍞🆓🪚🥩🚡🕥🎵🦪🌸🙄🉑🎻🧐🔑🫘🚊📽❌🕴🐺🚿🍂📯🥪🧄🎗📭💾😦🥯🔭🎒🫶🦕🤬🆚💣⛓😃🧳🧨🍡🚲📪▪🧍🚀🦙🏈💏🏑🌅☠🔼🔪🌥🤪🌘🛎😌🎀🚤🕓🛸👴🧹🟡📸🔤🦒㊙📟🅱🗂🦫🔵👵🏭🐛📕😎🧏📇⚛🤸🐜🪳🍽🌄🏌👁🤝✔🧶🏨🏬⏭🎱🙇🌹💒🛐🙊🤏〰🛫🚥🦣🍖🦨⭐🔏😐📉🍷🤠🥲🦛🔩🔫🤲🏽⏪🐮🪒💻😗🤛🆕🙉🕦🧽⛈⛪🌊🌷👻🕸🗑🎺💪👟🍹👯🕧🦜🐙🗜🛷🍝🎋🥉🅿🚍📻📢🛶🆔🪙🍉💢🦸💇🛴🍵🧸🥬👚🏄🏠🕋🇬🦼™🔷☕😧🏿👠⛸📹⛩🚆🛟😇📠🍗🇮⚪🪃🎢🎨💌🙂🩰📷👼🕷🥽❇🪂🎡🔜🦚🐯☸🅰🫴🎌💽🖨🤔📴🚯💖🤒🫰👀🥺🪱🐤🔔🪺⏲🚴🪀👏🍊👩🟦🏒🦐🎚]"
        },
        "behavior": "Isolated",
        "invert": false
      }
    ]
  },
  "post_processor": {
    "type": "RobertaProcessing",
    "sep": [
      "[SEP]",
      2
    ],
    "cls": [
      "[CLS]",
      1
    ],
    "trim_offsets": true,
    "add_prefix_space": true
  },
  "decoder": {
    "type": "WordPiece",
    "prefix": "##",
    "cleanup": true
  },
  "model": {
    "type": "WordPiece",
    "unk_token": "[UNK]",
    "continuing_subword_prefix": "##",
    "max_input_chars_per_word": 16,
    "vocab": {
      "[PAD]": 0,
      "[CLS]": 1,
      "[SEP]": 2,
      "[UNK]": 3,
      "[MASK]": 4,
      "\t": 5,
      "\n": 6,
      " ": 7,
      "!": 8,
      "\"": 9,
      "#": 10,
      "$": 11,
      "%": 12,
      "&": 13,
      "'": 14,
      "(": 15,
      ")": 16,
      "*": 17,
      "+": 18,
      ",": 19,
      "-": 20,
      ".": 21,
      "/": 22,
      "0": 23,
      "1": 24,
      "2": 25,
      "3": 26,
      "4": 27,
      "5": 28,
      "6": 29,
      "7": 30,
      "8": 31,
      "9": 32,
      ":": 33,
      ";": 34,
      "<": 35,
      "=": 36,
      ">": 37,
      "?": 38,
      "@": 39,
      "A": 40,
      "B": 41,
      "C": 42,
      "D": 43,
      "E": 44,
      "F": 45,
      "G": 46,
      "H": 47,
      "I": 48,
      "J": 49,
      "K": 50,
      "L": 51,
      "M": 52,
      "N": 53,
      "O": 54,
      "P": 55,
      "Q": 56,
      "R": 57,
      "S": 58,
      "T": 59,
      "U": 60,
      "V": 61,
      "W": 62,
      "X": 63,
      "Y": 64,
      "Z": 65,
      "[": 66,
      "\\": 67,
      "]": 68,
      "^": 69,
      "_": 70,
      "`": 71,
      "a": 72,
      "b": 73,
      "c": 74,
      "d": 75,
      "e": 76,
      "f": 77,
      "g": 78,
      "h": 79,
      "i": 80,
      "j": 81,
      "k": 82,
      "l": 83,
      "m": 84,
      "n": 85,
      "o": 86,
      "p": 87,
      "q": 88,
      "r": 89,
      "s": 90,
      "t": 91,
      "u": 92,
      "v": 93,
      "w": 94,
      "x": 95,
      "y": 96,
      "z": 97,
      "{": 98,
      "|": 99,
      "}": 100,
      "~": 101,
      "": 102,
      "": 103,
      "": 104,
      "": 105,
      "": 106,
      "": 107,
      "": 108,
      "": 109,
      "": 110,
      "": 111,
      "": 112,
      "": 113,
      "": 114,
      "¡": 115,
      "¢": 116,
      "£": 117,
      "¤": 118,
      "¥": 119,
      "¦": 120,
      "§": 121,
      "¨": 122,
      "©": 123,
      "ª": 124,
      "«": 125,
      "¬": 126,
      "®": 127,
      "¯": 128,
      "°": 129,
      "±": 130,
      "²": 131,
      "³": 132,
      "´": 133,
      "µ": 134,
      "¶": 135,
      "·": 136,
      "¸": 137,
      "¹": 138,
      "º": 139,
      "»": 140,
      "¼": 141,
      "½": 142,
      "¾": 143,
      "¿": 144,
      "À": 145,
      "Á": 146,
      "Â": 147,
      "Ã": 148,
      "Ä": 149,
      "Å": 150,
      "Æ": 151,
      "Ç": 152,
      "È": 153,
      "É": 154,
      "Ê": 155,
      "Ë": 156,
      "Ì": 157,
      "Í": 158,
      "Î": 159,
      "Ï": 160,
      "Ð": 161,
      "Ñ": 162,
      "Ò": 163,
      "Ó": 164,
      "Ô": 165,
      "Õ": 166,
      "Ö": 167,
      "×": 168,
      "Ø": 169,
      "Ù": 170,
      "Ú": 171,
      "Û": 172,
      "Ü": 173,
      "Ý": 174,
      "Þ": 175,
      "ß": 176,
      "à": 177,
      "á": 178,
      "â": 179,
      "ã": 180,
      "ä": 181,
      "å": 182,
      "æ": 183,
      "ç": 184,
      "è": 185,
      "é": 186,
      "ê": 187,
      "ë": 188,
      "ì": 189,
      "í": 190,
      "î": 191,
      "ï": 192,
      "ð": 193,
      "ñ": 194,
      "ò": 195,
      "ó": 196,
      "ô": 197,
      "õ": 198,
      "ö": 199,
      "÷": 200,
      "ø": 201,
      "ù": 202,
      "ú": 203,
      "û": 204,
      "ü": 205,
      "ý": 206,
      "þ": 207,
      "ÿ": 208,
      "Ā": 209,
      "ā": 210,
      "Ă": 211,
      "ă": 212,
      "Ą": 213,
      "ą": 214,
      "Ć": 215,
      "ć": 216,
      "ĉ": 217,
      "Č": 218,
      "č": 219,
      "ď": 220,
      "Đ": 221,
      "đ": 222,
      "Ē": 223,
      "ē": 224,
      "ĕ": 225,
      "ė": 226,
      "ę": 227,
      "Ě": 228,
      "ě": 229,
      "ĝ": 230,
      "Ğ": 231,
      "ğ": 232,
      "Ġ": 233,
      "ġ": 234,
      "Ĥ": 235,
      "ħ": 236,
      "Ĩ": 237,
      "ĩ": 238,
      "Ī": 239,
      "ī": 240,
      "ĭ": 241,
      "İ": 242,
      "ı": 243,
      "ĺ": 244,
      "ļ": 245,
      "Ľ": 246,
      "ľ": 247,
      "Ł": 248,
      "ł": 249,
      "ń": 250,
      "ņ": 251,
      "ň": 252,
      "ŋ": 253,
      "Ō": 254,
      "ō": 255,
      "ŏ": 256,
      "Ő": 257,
      "ő": 258,
      "Œ": 259,
      "œ": 260,
      "Ŕ": 261,
      "ŕ": 262,
      "Ř": 263,
      "ř": 264,
      "Ś": 265,
      "ś": 266,
      "Ŝ": 267,
      "ŝ": 268,
      "Ş": 269,
      "ş": 270,
      "Š": 271,
      "š": 272,
      "ţ": 273,
      "ť": 274,
      "ũ": 275,
      "ū": 276,
      "ŭ": 277,
      "ů": 278,
      "ű": 279,
      "ų": 280,
      "ŵ": 281,
      "Ŷ": 282,
      "ŷ": 283,
      "Ÿ": 284,
      "ź": 285,
      "Ż": 286,
      "ż": 287,
      "Ž": 288,
      "ž": 289,
      "ſ": 290,
      "Ɖ": 291,
      "Ƌ": 292,
      "ƌ": 293,
      "Ɛ": 294,
      "ƒ": 295,
      "ƚ": 296,
      "ơ": 297,
      "ư": 298,
      "Ƶ": 299,
      "ǀ": 300,
      "ǎ": 301,
      "ǐ": 302,
      "ǒ": 303,
      "ǔ": 304,
      "ǝ": 305,
      "Ǧ": 306,
      "ǧ": 307,
      "ǫ": 308,
      "ǵ": 309,
      "Ș": 310,
      "ș": 311,
      "Ț": 312,
      "ț": 313,
      "ȝ": 314,
      "ɐ": 315,
      "ɑ": 316,
      "ɓ": 317,
      "ɔ": 318,
      "ɕ": 319,
      "ə": 320,
      "ɛ": 321,
      "ɡ": 322,
      "ɣ": 323,
      "ɦ": 324,
      "ɨ": 325,
      "ɪ": 326,
      "ɯ": 327,
      "ɲ": 328,
      "ɹ": 329,
      "ɾ": 330,
      "ʀ": 331,
      "ʁ": 332,
      "ʂ": 333,
      "ʃ": 334,
      "ʊ": 335,
      "ʌ": 336,
      "ʒ": 337,
      "ʔ": 338,
      "ʰ": 339,
      "ʲ": 340,
      "ʳ": 341,
      "ʷ": 342,
      "ʹ": 343,
      "ʺ": 344,
      "ʻ": 345,
      "ʼ": 346,
      "ʾ": 347,
      "ʿ": 348,
      "ˁ": 349,
      "ˆ": 350,
      "ˇ": 351,
      "ˈ": 352,
      "ˉ": 353,
      "ː": 354,
      "˘": 355,
      "˙": 356,
      "˚": 357,
      "˜": 358,
      "˝": 359,
      "ˮ": 360,
      "̀": 361,
      "́": 362,
      "̂": 363,
      "̃": 364,
      "̄": 365,
      "̅": 366,
      "̇": 367,
      "̈": 368,
      "̣": 369,
      "̧": 370,
      "̩": 371,
      "̯": 372,
      "̲": 373,
      "̶": 374,
      "̸": 375,
      "͏": 376,
      "͕": 377,
      "͘": 378,
      "͛": 379,
      "͡": 380,
      "Ͳ": 381,
      "Α": 382,
      "Β": 383,
      "Γ": 384,
      "Δ": 385,
      "Ε": 386,
      "Ζ": 387,
      "Η": 388,
      "Θ": 389,
      "Ι": 390,
      "Κ": 391,
      "Λ": 392,
      "Μ": 393,
      "Ν": 394,
      "Ξ": 395,
      "Ο": 396,
      "Π": 397,
      "Ρ": 398,
      "Σ": 399,
      "Τ": 400,
      "Υ": 401,
      "Φ": 402,
      "Χ": 403,
      "Ψ": 404,
      "Ω": 405,
      "Ϊ": 406,
      "Ϋ": 407,
      "ά": 408,
      "έ": 409,
      "ή": 410,
      "ί": 411,
      "ΰ": 412,
      "α": 413,
      "β": 414,
      "γ": 415,
      "δ": 416,
      "ε": 417,
      "ζ": 418,
      "η": 419,
      "θ": 420,
      "ι": 421,
      "κ": 422,
      "λ": 423,
      "μ": 424,
      "ν": 425,
      "ξ": 426,
      "ο": 427,
      "π": 428,
      "ρ": 429,
      "ς": 430,
      "σ": 431,
      "τ": 432,
      "υ": 433,
      "φ": 434,
      "χ": 435,
      "ψ": 436,
      "ω": 437,
      "ό": 438,
      "ύ": 439,
      "ώ": 440,
      "ϐ": 441,
      "ϑ": 442,
      "ϕ": 443,
      "Ϟ": 444,
      "ϟ": 445,
      "Ϭ": 446,
      "ϭ": 447,
      "Ϯ": 448,
      "ϯ": 449,
      "ϰ": 450,
      "ϱ": 451,
      "ϵ": 452,
      "Ё": 453,
      "Ђ": 454,
      "Є": 455,
      "Ѕ": 456,
      "І": 457,
      "А": 458,
      "Б": 459,
      "В": 460,
      "Г": 461,
      "Д": 462,
      "Е": 463,
      "Ж": 464,
      "З": 465,
      "И": 466,
      "Й": 467,
      "К": 468,
      "Л": 469,
      "М": 470,
      "Н": 471,
      "О": 472,
      "П": 473,
      "Р": 474,
      "С": 475,
      "Т": 476,
      "У": 477,
      "Ф": 478,
      "Х": 479,
      "Ц": 480,
      "Ч": 481,
      "Ш": 482,
      "Э": 483,
      "Ю": 484,
      "Я": 485,
      "а": 486,
      "б": 487,
      "в": 488,
      "г": 489,
      "д": 490,
      "е": 491,
      "ж": 492,
      "з": 493,
      "и": 494,
      "й": 495,
      "к": 496,
      "л": 497,
      "м": 498,
      "н": 499,
      "о": 500,
      "п": 501,
      "р": 502,
      "с": 503,
      "т": 504,
      "у": 505,
      "ф": 506,
      "х": 507,
      "ц": 508,
      "ч": 509,
      "ш": 510,
      "щ": 511,
      "ъ": 512,
      "ы": 513,
      "ь": 514,
      "э": 515,
      "ю": 516,
      "я": 517,
      "ё": 518,
      "ђ": 519,
      "є": 520,
      "ѕ": 521,
      "і": 522,
      "ї": 523,
      "ј": 524,
      "њ": 525,
      "ћ": 526,
      "Ҩ": 527,
      "ү": 528,
      "ә": 529,
      "ՙ": 530,
      "ա": 531,
      "ե": 532,
      "ի": 533,
      "կ": 534,
      "մ": 535,
      "յ": 536,
      "ն": 537,
      "ո": 538,
      "ս": 539,
      "տ": 540,
      "ր": 541,
      "ւ": 542,
      "֖": 543,
      "֣": 544,
      "֥": 545,
      "ְ": 546,
      "ֲ": 547,
      "ֳ": 548,
      "ִ": 549,
      "ֵ": 550,
      "ֶ": 551,
      "ַ": 552,
      "ָ": 553,
      "ֹ": 554,
      "ּ": 555,
      "ֽ": 556,
      "־": 557,
      "ׁ": 558,
      "ׂ": 559,
      "א": 560,
      "ב": 561,
      "ג": 562,
      "ד": 563,
      "ה": 564,
      "ו": 565,
      "ז": 566,
      "ח": 567,
      "ט": 568,
      "י": 569,
      "ך": 570,
      "כ": 571,
      "ל": 572,
      "ם": 573,
      "מ": 574,
      "ן": 575,
      "נ": 576,
      "ס": 577,
      "ע": 578,
      "פ": 579,
      "צ": 580,
      "ק": 581,
      "ר": 582,
      "ש": 583,
      "ת": 584,
      "،": 585,
      "؟": 586,
      "ء": 587,
      "آ": 588,
      "أ": 589,
      "ؤ": 590,
      "إ": 591,
      "ئ": 592,
      "ا": 593,
      "ب": 594,
      "ة": 595,
      "ت": 596,
      "ث": 597,
      "ج": 598,
      "ح": 599,
      "خ": 600,
      "د": 601,
      "ذ": 602,
      "ر": 603,
      "ز": 604,
      "س": 605,
      "ش": 606,
      "ص": 607,
      "ض": 608,
      "ط": 609,
      "ظ": 610,
      "ع": 611,
      "غ": 612,
      "ـ": 613,
      "ف": 614,
      "ق": 615,
      "ك": 616,
      "ل": 617,
      "م": 618,
      "ن": 619,
      "ه": 620,
      "و": 621,
      "ى": 622,
      "ي": 623,
      "ً": 624,
      "ٌ": 625,
      "ٍ": 626,
      "َ": 627,
      "ُ": 628,
      "ِ": 629,
      "ّ": 630,
      "ْ": 631,
      "ٰ": 632,
      "ٱ": 633,
      "پ": 634,
      "ک": 635,
      "گ": 636,
      "ی": 637,
      "ۡ": 638,
      "ं": 639,
      "क": 640,
      "ग": 641,
      "ज": 642,
      "त": 643,
      "द": 644,
      "न": 645,
      "प": 646,
      "ब": 647,
      "भ": 648,
      "म": 649,
      "य": 650,
      "र": 651,
      "ल": 652,
      "व": 653,
      "श": 654,
      "स": 655,
      "ह": 656,
      "ा": 657,
      "ि": 658,
      "ी": 659,
      "ु": 660,
      "े": 661,
      "ो": 662,
      "्": 663,
      "ন": 664,
      "ব": 665,
      "র": 666,
      "ল": 667,
      "া": 668,
      "ি": 669,
      "্": 670,
      "த": 671,
      "ம": 672,
      "ி": 673,
      "்": 674,
      "ก": 675,
      "ข": 676,
      "ค": 677,
      "ง": 678,
      "จ": 679,
      "ช": 680,
      "ญ": 681,
      "ณ": 682,
      "ด": 683,
      "ต": 684,
      "ถ": 685,
      "ท": 686,
      "ธ": 687,
      "น": 688,
      "บ": 689,
      "ป": 690,
      "ผ": 691,
      "ฝ": 692,
      "พ": 693,
      "ภ": 694,
      "ม": 695,
      "ย": 696,
      "ร": 697,
      "ล": 698,
      "ว": 699,
      "ศ": 700,
      "ษ": 701,
      "ส": 702,
      "ห": 703,
      "อ": 704,
      "ะ": 705,
      "ั": 706,
      "า": 707,
      "ำ": 708,
      "ิ": 709,
      "ี": 710,
      "ื": 711,
      "ุ": 712,
      "ู": 713,
      "เ": 714,
      "แ": 715,
      "โ": 716,
      "ใ": 717,
      "ไ": 718,
      "็": 719,
      "่": 720,
      "้": 721,
      "์": 722,
      "་": 723,
      "ာ": 724,
      "်": 725,
      "ა": 726,
      "ბ": 727,
      "დ": 728,
      "ე": 729,
      "ვ": 730,
      "თ": 731,
      "ი": 732,
      "ლ": 733,
      "მ": 734,
      "ნ": 735,
      "ო": 736,
      "რ": 737,
      "ს": 738,
      "უ": 739,
      "ღ": 740,
      "፡": 741,
      "ᐅ": 742,
      "ក": 743,
      "ន": 744,
      "ប": 745,
      "ម": 746,
      "រ": 747,
      "ស": 748,
      "ា": 749,
      "្": 750,
      "ᴰ": 751,
      "ᴹ": 752,
      "ᵉ": 753,
      "ḍ": 754,
      "ḏ": 755,
      "Ḥ": 756,
      "ḥ": 757,
      "Ḫ": 758,
      "ḫ": 759,
      "ḳ": 760,
      "ḿ": 761,
      "ṁ": 762,
      "ṃ": 763,
      "ṅ": 764,
      "ṇ": 765,
      "ṕ": 766,
      "ṛ": 767,
      "Ṣ": 768,
      "ṣ": 769,
      "Ṭ": 770,
      "ṭ": 771,
      "ṯ": 772,
      "ẋ": 773,
      "ẓ": 774,
      "ạ": 775,
      "ả": 776,
      "ấ": 777,
      "ầ": 778,
      "ậ": 779,
      "ắ": 780,
      "ẽ": 781,
      "ế": 782,
      "ề": 783,
      "ể": 784,
      "ễ": 785,
      "ệ": 786,
      "ị": 787,
      "ọ": 788,
      "ố": 789,
      "ồ": 790,
      "ổ": 791,
      "ộ": 792,
      "ớ": 793,
      "ờ": 794,
      "ở": 795,
      "ợ": 796,
      "ụ": 797,
      "ủ": 798,
      "ứ": 799,
      "ử": 800,
      "ữ": 801,
      "ự": 802,
      "ỹ": 803,
      "ἀ": 804,
      "ἄ": 805,
      "Ἀ": 806,
      "ἐ": 807,
      "ἑ": 808,
      "ἔ": 809,
      "ἡ": 810,
      "ἰ": 811,
      "ἱ": 812,
      "ἴ": 813,
      "ἶ": 814,
      "ἷ": 815,
      "Ἰ": 816,
      "ὀ": 817,
      "ὁ": 818,
      "ὄ": 819,
      "ὅ": 820,
      "ὐ": 821,
      "ὑ": 822,
      "ὕ": 823,
      "ὡ": 824,
      "ὰ": 825,
      "ὲ": 826,
      "ὴ": 827,
      "ὶ": 828,
      "ὸ": 829,
      "ὺ": 830,
      "ᾶ": 831,
      "᾽": 832,
      "ῃ": 833,
      "ῆ": 834,
      "ῇ": 835,
      "ῖ": 836,
      "ῦ": 837,
      "ῳ": 838,
      "ῶ": 839,
      "ῷ": 840,
      "‐": 841,
      "‑": 842,
      "‒": 843,
      "–": 844,
      "—": 845,
      "―": 846,
      "‖": 847,
      "‘": 848,
      "’": 849,
      "‚": 850,
      "“": 851,
      "”": 852,
      "„": 853,
      "‟": 854,
      "†": 855,
      "‡": 856,
      "•": 857,
      "‣": 858,
      "…": 859,
      "‧": 860,
      "‰": 861,
      "′": 862,
      "″": 863,
      "‹": 864,
      "›": 865,
      "※": 866,
      "‼": 867,
      "‿": 868,
      "⁃": 869,
      "⁄": 870,
      "⁉": 871,
      "⁰": 872,
      "₂": 873,
      "₪": 874,
      "€": 875,
      "₽": 876,
      "⃗": 877,
      "⃣": 878,
      "ℂ": 879,
      "℃": 880,
      "ℎ": 881,
      "ℓ": 882,
      "№": 883,
      "ℚ": 884,
      "ℝ": 885,
      "™": 886,
      "ℤ": 887,
      "℮": 888,
      "ℹ": 889,
      "⅓": 890,
      "←": 891,
      "↑": 892,
      "→": 893,
      "↓": 894,
      "↔": 895,
      "↕": 896,
      "↖": 897,
      "↗": 898,
      "↘": 899,
      "↙": 900,
      "↠": 901,
      "↩": 902,
      "↪": 903,
      "↳": 904,
      "↵": 905,
      "⇐": 906,
      "⇑": 907,
      "⇒": 908,
      "⇔": 909,
      "⇢": 910,
      "⇤": 911,
      "⇥": 912,
      "⇨": 913,
      "∀": 914,
      "∂": 915,
      "∃": 916,
      "∅": 917,
      "∆": 918,
      "∇": 919,
      "∈": 920,
      "∏": 921,
      "∑": 922,
      "−": 923,
      "∗": 924,
      "∙": 925,
      "√": 926,
      "∝": 927,
      "∞": 928,
      "∟": 929,
      "∥": 930,
      "∧": 931,
      "∨": 932,
      "∩": 933,
      "∪": 934,
      "∫": 935,
      "∴": 936,
      "∼": 937,
      "≃": 938,
      "≈": 939,
      "≠": 940,
      "≡": 941,
      "≤": 942,
      "≥": 943,
      "≪": 944,
      "≫": 945,
      "⊂": 946,
      "⊆": 947,
      "⊕": 948,
      "⊗": 949,
      "⊤": 950,
      "⊥": 951,
      "⊱": 952,
      "⊹": 953,
      "⋅": 954,
      "⋆": 955,
      "⋙": 956,
      "⌘": 957,
      "⌚": 958,
      "⌛": 959,
      "⌨": 960,
      "⎜": 961,
      "⎪": 962,
      "⎯": 963,
      "⏏": 964,
      "⏩": 965,
      "⏪": 966,
      "⏫": 967,
      "⏬": 968,
      "⏭": 969,
      "⏮": 970,
      "⏯": 971,
      "⏰": 972,
      "⏱": 973,
      "⏲": 974,
      "⏳": 975,
      "⏸": 976,
      "⏹": 977,
      "⏺": 978,
      "␣": 979,
      "①": 980,
      "②": 981,
      "③": 982,
      "Ⓜ": 983,
      "─": 984,
      "━": 985,
      "│": 986,
      "└": 987,
      "├": 988,
      "═": 989,
      "║": 990,
      "▀": 991,
      "▄": 992,
      "█": 993,
      "░": 994,
      "▓": 995,
      "■": 996,
      "□": 997,
      "▢": 998,
      "▪": 999,
      "▫": 1000,
      "▬": 1001,
      "▲": 1002,
      "△": 1003,
      "▴": 1004,
      "▶": 1005,
      "▷": 1006,
      "▸": 1007,
      "►": 1008,
      "▻": 1009,
      "▼": 1010,
      "▽": 1011,
      "◀": 1012,
      "◄": 1013,
      "◆": 1014,
      "◇": 1015,
      "◈": 1016,
      "◉": 1017,
      "◊": 1018,
      "○": 1019,
      "●": 1020,
      "◕": 1021,
      "◗": 1022,
      "◘": 1023,
      "◦": 1024,
      "◻": 1025,
      "◼": 1026,
      "◽": 1027,
      "◾": 1028,
      "☀": 1029,
      "☁": 1030,
      "☂": 1031,
      "☃": 1032,
      "☄": 1033,
      "★": 1034,
      "☆": 1035,
      "☎": 1036,
      "☐": 1037,
      "☑": 1038,
      "☔": 1039,
      "☕": 1040,
      "☘": 1041,
      "☛": 1042,
      "☝": 1043,
      "☞": 1044,
      "☠": 1045,
      "☢": 1046,
      "☣": 1047,
      "☦": 1048,
      "☪": 1049,
      "☮": 1050,
      "☯": 1051,
      "☰": 1052,
      "☸": 1053,
      "☹": 1054,
      "☺": 1055,
      "☻": 1056,
      "☼": 1057,
      "☾": 1058,
      "♀": 1059,
      "♂": 1060,
      "♈": 1061,
      "♉": 1062,
      "♊": 1063,
      "♋": 1064,
      "♌": 1065,
      "♍": 1066,
      "♎": 1067,
      "♏": 1068,
      "♐": 1069,
      "♑": 1070,
      "♒": 1071,
      "♓": 1072,
      "♔": 1073,
      "♕": 1074,
      "♙": 1075,
      "♛": 1076,
      "♟": 1077,
      "♠": 1078,
      "♡": 1079,
      "♢": 1080,
      "♣": 1081,
      "♥": 1082,
      "♦": 1083,
      "♨": 1084,
      "♪": 1085,
      "♫": 1086,
      "♬": 1087,
      "♭": 1088,
      "♯": 1089,
      "♻": 1090,
      "♾": 1091,
      "♿": 1092,
      "⚒": 1093,
      "⚓": 1094,
      "⚔": 1095,
      "⚕": 1096,
      "⚖": 1097,
      "⚗": 1098,
      "⚙": 1099,
      "⚛": 1100,
      "⚜": 1101,
      "⚠": 1102,
      "⚡": 1103,
      "⚧": 1104,
      "⚪": 1105,
      "⚫": 1106,
      "⚰": 1107,
      "⚱": 1108,
      "⚽": 1109,
      "⚾": 1110,
      "⛄": 1111,
      "⛅": 1112,
      "⛈": 1113,
      "⛎": 1114,
      "⛏": 1115,
      "⛑": 1116,
      "⛓": 1117,
      "⛔": 1118,
      "⛩": 1119,
      "⛪": 1120,
      "⛰": 1121,
      "⛱": 1122,
      "⛲": 1123,
      "⛳": 1124,
      "⛴": 1125,
      "⛵": 1126,
      "⛷": 1127,
      "⛸": 1128,
      "⛹": 1129,
      "⛺": 1130,
      "⛽": 1131,
      "✂": 1132,
      "✅": 1133,
      "✇": 1134,
      "✈": 1135,
      "✉": 1136,
      "✊": 1137,
      "✋": 1138,
      "✌": 1139,
      "✍": 1140,
      "✎": 1141,
      "✏": 1142,
      "✐": 1143,
      "✒": 1144,
      "✓": 1145,
      "✔": 1146,
      "✕": 1147,
      "✖": 1148,
      "✗": 1149,
      "✘": 1150,
      "✛": 1151,
      "✜": 1152,
      "✝": 1153,
      "✡": 1154,
      "✤": 1155,
      "✦": 1156,
      "✧": 1157,
      "✨": 1158,
      "✩": 1159,
      "✪": 1160,
      "✬": 1161,
      "✭": 1162,
      "✮": 1163,
      "✰": 1164,
      "✱": 1165,
      "✲": 1166,
      "✳": 1167,
      "✴": 1168,
      "✵": 1169,
      "✶": 1170,
      "✷": 1171,
      "✸": 1172,
      "✹": 1173,
      "✺": 1174,
      "✻": 1175,
      "✼": 1176,
      "✽": 1177,
      "✾": 1178,
      "✿": 1179,
      "❀": 1180,
      "❄": 1181,
      "❆": 1182,
      "❇": 1183,
      "❈": 1184,
      "❉": 1185,
      "❊": 1186,
      "❋": 1187,
      "❌": 1188,
      "❍": 1189,
      "❎": 1190,
      "❏": 1191,
      "❑": 1192,
      "❓": 1193,
      "❔": 1194,
      "❕": 1195,
      "❖": 1196,
      "❗": 1197,
      "❙": 1198,
      "❚": 1199,
      "❛": 1200,
      "❜": 1201,
      "❝": 1202,
      "❞": 1203,
      "❡": 1204,
      "❢": 1205,
      "❣": 1206,
      "❤": 1207,
      "❥": 1208,
      "❦": 1209,
      "❧": 1210,
      "❬": 1211,
      "❯": 1212,
      "➔": 1213,
      "➕": 1214,
      "➖": 1215,
      "➗": 1216,
      "➙": 1217,
      "➜": 1218,
      "➡": 1219,
      "➢": 1220,
      "➣": 1221,
      "➤": 1222,
      "➰": 1223,
      "➳": 1224,
      "➽": 1225,
      "➿": 1226,
      "⟨": 1227,
      "⟩": 1228,
      "⟶": 1229,
      "⠀": 1230,
      "⤴": 1231,
      "⤵": 1232,
      "⦁": 1233,
      "⬅": 1234,
      "⬆": 1235,
      "⬇": 1236,
      "⬛": 1237,
      "⬜": 1238,
      "⭐": 1239,
      "⭕": 1240,
      "ⴰ": 1241,
      "ⵉ": 1242,
      "ⵍ": 1243,
      "ⵎ": 1244,
      "ⵏ": 1245,
      "ⵓ": 1246,
      "ⵔ": 1247,
      "ⵜ": 1248,
      "⸱": 1249,
      "、": 1250,
      "。": 1251,
      "〈": 1252,
      "〉": 1253,
      "《": 1254,
      "》": 1255,
      "「": 1256,
      "」": 1257,
      "『": 1258,
      "』": 1259,
      "【": 1260,
      "】": 1261,
      "〜": 1262,
      "〰": 1263,
      "〽": 1264,
      "あ": 1265,
      "い": 1266,
      "う": 1267,
      "え": 1268,
      "お": 1269,
      "か": 1270,
      "が": 1271,
      "き": 1272,
      "く": 1273,
      "け": 1274,
      "こ": 1275,
      "ご": 1276,
      "さ": 1277,
      "し": 1278,
      "じ": 1279,
      "す": 1280,
      "せ": 1281,
      "そ": 1282,
      "た": 1283,
      "だ": 1284,
      "ち": 1285,
      "っ": 1286,
      "つ": 1287,
      "て": 1288,
      "で": 1289,
      "と": 1290,
      "ど": 1291,
      "な": 1292,
      "に": 1293,
      "の": 1294,
      "は": 1295,
      "ば": 1296,
      "ひ": 1297,
      "へ": 1298,
      "ま": 1299,
      "み": 1300,
      "め": 1301,
      "も": 1302,
      "ゃ": 1303,
      "や": 1304,
      "よ": 1305,
      "ら": 1306,
      "り": 1307,
      "る": 1308,
      "れ": 1309,
      "ろ": 1310,
      "わ": 1311,
      "を": 1312,
      "ん": 1313,
      "ァ": 1314,
      "ア": 1315,
      "ィ": 1316,
      "イ": 1317,
      "ウ": 1318,
      "ェ": 1319,
      "エ": 1320,
      "オ": 1321,
      "カ": 1322,
      "ガ": 1323,
      "キ": 1324,
      "ク": 1325,
      "グ": 1326,
      "ケ": 1327,
      "コ": 1328,
      "ゴ": 1329,
      "サ": 1330,
      "ザ": 1331,
      "シ": 1332,
      "ジ": 1333,
      "ス": 1334,
      "ズ": 1335,
      "セ": 1336,
      "ソ": 1337,
      "タ": 1338,
      "ダ": 1339,
      "チ": 1340,
      "ッ": 1341,
      "ツ": 1342,
      "テ": 1343,
      "デ": 1344,
      "ト": 1345,
      "ド": 1346,
      "ナ": 1347,
      "ニ": 1348,
      "ネ": 1349,
      "ノ": 1350,
      "ハ": 1351,
      "バ": 1352,
      "パ": 1353,
      "ビ": 1354,
      "ピ": 1355,
      "フ": 1356,
      "ブ": 1357,
      "プ": 1358,
      "ベ": 1359,
      "ペ": 1360,
      "ホ": 1361,
      "ボ": 1362,
      "ポ": 1363,
      "マ": 1364,
      "ミ": 1365,
      "ム": 1366,
      "メ": 1367,
      "モ": 1368,
      "ャ": 1369,
      "ュ": 1370,
      "ョ": 1371,
      "ラ": 1372,
      "リ": 1373,
      "ル": 1374,
      "レ": 1375,
      "ロ": 1376,
      "ワ": 1377,
      "ン": 1378,
      "ヴ": 1379,
      "・": 1380,
      "ー": 1381,
      "㊗": 1382,
      "㊙": 1383,
      "一": 1384,
      "七": 1385,
      "三": 1386,
      "上": 1387,
      "下": 1388,
      "不": 1389,
      "与": 1390,
      "世": 1391,
      "业": 1392,
      "东": 1393,
      "个": 1394,
      "中": 1395,
      "为": 1396,
      "主": 1397,
      "么": 1398,
      "之": 1399,
      "乐": 1400,
      "九": 1401,
      "也": 1402,
      "书": 1403,
      "了": 1404,
      "事": 1405,
      "二": 1406,
      "于": 1407,
      "五": 1408,
      "井": 1409,
      "交": 1410,
      "京": 1411,
      "人": 1412,
      "今": 1413,
      "他": 1414,
      "代": 1415,
      "以": 1416,
      "们": 1417,
      "件": 1418,
      "价": 1419,
      "伊": 1420,
      "会": 1421,
      "位": 1422,
      "住": 1423,
      "体": 1424,
      "何": 1425,
      "作": 1426,
      "你": 1427,
      "使": 1428,
      "保": 1429,
      "信": 1430,
      "元": 1431,
      "先": 1432,
      "光": 1433,
      "克": 1434,
      "入": 1435,
      "全": 1436,
      "八": 1437,
      "公": 1438,
      "六": 1439,
      "共": 1440,
      "关": 1441,
      "其": 1442,
      "内": 1443,
      "出": 1444,
      "分": 1445,
      "切": 1446,
      "利": 1447,
      "到": 1448,
      "制": 1449,
      "前": 1450,
      "力": 1451,
      "加": 1452,
      "动": 1453,
      "動": 1454,
      "化": 1455,
      "北": 1456,
      "区": 1457,
      "十": 1458,
      "千": 1459,
      "华": 1460,
      "南": 1461,
      "博": 1462,
      "原": 1463,
      "去": 1464,
      "县": 1465,
      "及": 1466,
      "友": 1467,
      "发": 1468,
      "取": 1469,
      "口": 1470,
      "古": 1471,
      "可": 1472,
      "台": 1473,
      "史": 1474,
      "号": 1475,
      "司": 1476,
      "合": 1477,
      "吉": 1478,
      "同": 1479,
      "名": 1480,
      "后": 1481,
      "向": 1482,
      "周": 1483,
      "和": 1484,
      "品": 1485,
      "商": 1486,
      "四": 1487,
      "回": 1488,
      "国": 1489,
      "國": 1490,
      "園": 1491,
      "土": 1492,
      "在": 1493,
      "地": 1494,
      "型": 1495,
      "城": 1496,
      "基": 1497,
      "堂": 1498,
      "場": 1499,
      "士": 1500,
      "夏": 1501,
      "外": 1502,
      "多": 1503,
      "夜": 1504,
      "大": 1505,
      "天": 1506,
      "太": 1507,
      "夫": 1508,
      "套": 1509,
      "女": 1510,
      "好": 1511,
      "如": 1512,
      "子": 1513,
      "字": 1514,
      "存": 1515,
      "学": 1516,
      "學": 1517,
      "安": 1518,
      "宗": 1519,
      "定": 1520,
      "实": 1521,
      "客": 1522,
      "室": 1523,
      "宮": 1524,
      "家": 1525,
      "宿": 1526,
      "寓": 1527,
      "对": 1528,
      "寺": 1529,
      "小": 1530,
      "少": 1531,
      "尔": 1532,
      "就": 1533,
      "屋": 1534,
      "山": 1535,
      "島": 1536,
      "川": 1537,
      "州": 1538,
      "工": 1539,
      "巴": 1540,
      "市": 1541,
      "布": 1542,
      "帝": 1543,
      "常": 1544,
      "平": 1545,
      "年": 1546,
      "店": 1547,
      "度": 1548,
      "建": 1549,
      "开": 1550,
      "式": 1551,
      "张": 1552,
      "張": 1553,
      "当": 1554,
      "形": 1555,
      "影": 1556,
      "很": 1557,
      "後": 1558,
      "得": 1559,
      "御": 1560,
      "德": 1561,
      "心": 1562,
      "志": 1563,
      "思": 1564,
      "性": 1565,
      "情": 1566,
      "想": 1567,
      "意": 1568,
      "愛": 1569,
      "感": 1570,
      "成": 1571,
      "我": 1572,
      "戦": 1573,
      "房": 1574,
      "所": 1575,
      "手": 1576,
      "拉": 1577,
      "提": 1578,
      "放": 1579,
      "政": 1580,
      "教": 1581,
      "数": 1582,
      "整": 1583,
      "文": 1584,
      "料": 1585,
      "斯": 1586,
      "新": 1587,
      "方": 1588,
      "旅": 1589,
      "族": 1590,
      "无": 1591,
      "日": 1592,
      "时": 1593,
      "明": 1594,
      "星": 1595,
      "春": 1596,
      "是": 1597,
      "時": 1598,
      "景": 1599,
      "更": 1600,
      "書": 1601,
      "最": 1602,
      "月": 1603,
      "有": 1604,
      "朝": 1605,
      "期": 1606,
      "木": 1607,
      "本": 1608,
      "机": 1609,
      "李": 1610,
      "村": 1611,
      "条": 1612,
      "来": 1613,
      "東": 1614,
      "松": 1615,
      "林": 1616,
      "果": 1617,
      "校": 1618,
      "格": 1619,
      "楽": 1620,
      "次": 1621,
      "歌": 1622,
      "正": 1623,
      "武": 1624,
      "比": 1625,
      "民": 1626,
      "気": 1627,
      "水": 1628,
      "永": 1629,
      "江": 1630,
      "没": 1631,
      "河": 1632,
      "治": 1633,
      "法": 1634,
      "洞": 1635,
      "活": 1636,
      "流": 1637,
      "海": 1638,
      "清": 1639,
      "港": 1640,
      "源": 1641,
      "灣": 1642,
      "火": 1643,
      "点": 1644,
      "無": 1645,
      "然": 1646,
      "版": 1647,
      "物": 1648,
      "特": 1649,
      "玉": 1650,
      "王": 1651,
      "现": 1652,
      "理": 1653,
      "生": 1654,
      "用": 1655,
      "田": 1656,
      "由": 1657,
      "电": 1658,
      "男": 1659,
      "町": 1660,
      "画": 1661,
      "界": 1662,
      "白": 1663,
      "百": 1664,
      "的": 1665,
      "皇": 1666,
      "目": 1667,
      "相": 1668,
      "看": 1669,
      "真": 1670,
      "着": 1671,
      "知": 1672,
      "石": 1673,
      "研": 1674,
      "社": 1675,
      "神": 1676,
      "福": 1677,
      "私": 1678,
      "科": 1679,
      "租": 1680,
      "究": 1681,
      "空": 1682,
      "立": 1683,
      "站": 1684,
      "竹": 1685,
      "第": 1686,
      "等": 1687,
      "简": 1688,
      "类": 1689,
      "系": 1690,
      "繁": 1691,
      "经": 1692,
      "网": 1693,
      "置": 1694,
      "美": 1695,
      "義": 1696,
      "老": 1697,
      "者": 1698,
      "而": 1699,
      "育": 1700,
      "能": 1701,
      "自": 1702,
      "良": 1703,
      "色": 1704,
      "花": 1705,
      "英": 1706,
      "茅": 1707,
      "茶": 1708,
      "草": 1709,
      "華": 1710,
      "藤": 1711,
      "行": 1712,
      "術": 1713,
      "街": 1714,
      "表": 1715,
      "西": 1716,
      "要": 1717,
      "見": 1718,
      "解": 1719,
      "言": 1720,
      "記": 1721,
      "語": 1722,
      "语": 1723,
      "说": 1724,
      "谷": 1725,
      "起": 1726,
      "超": 1727,
      "路": 1728,
      "身": 1729,
      "軍": 1730,
      "车": 1731,
      "过": 1732,
      "近": 1733,
      "这": 1734,
      "通": 1735,
      "道": 1736,
      "那": 1737,
      "郎": 1738,
      "部": 1739,
      "都": 1740,
      "酒": 1741,
      "里": 1742,
      "重": 1743,
      "野": 1744,
      "金": 1745,
      "長": 1746,
      "长": 1747,
      "門": 1748,
      "間": 1749,
      "间": 1750,
      "阳": 1751,
      "阿": 1752,
      "院": 1753,
      "陽": 1754,
      "集": 1755,
      "青": 1756,
      "非": 1757,
      "面": 1758,
      "音": 1759,
      "風": 1760,
      "食": 1761,
      "館": 1762,
      "香": 1763,
      "馬": 1764,
      "马": 1765,
      "體": 1766,
      "高": 1767,
      "龍": 1768,
      "가": 1769,
      "고": 1770,
      "구": 1771,
      "국": 1772,
      "그": 1773,
      "기": 1774,
      "김": 1775,
      "나": 1776,
      "눇": 1777,
      "눉": 1778,
      "는": 1779,
      "니": 1780,
      "다": 1781,
      "대": 1782,
      "도": 1783,
      "동": 1784,
      "드": 1785,
      "라": 1786,
      "로": 1787,
      "리": 1788,
      "마": 1789,
      "문": 1790,
      "민": 1791,
      "보": 1792,
      "사": 1793,
      "산": 1794,
      "상": 1795,
      "서": 1796,
      "선": 1797,
      "성": 1798,
      "소": 1799,
      "수": 1800,
      "스": 1801,
      "시": 1802,
      "신": 1803,
      "아": 1804,
      "어": 1805,
      "에": 1806,
      "역": 1807,
      "영": 1808,
      "오": 1809,
      "요": 1810,
      "우": 1811,
      "원": 1812,
      "은": 1813,
      "을": 1814,
      "의": 1815,
      "이": 1816,
      "인": 1817,
      "일": 1818,
      "자": 1819,
      "장": 1820,
      "전": 1821,
      "정": 1822,
      "제": 1823,
      "조": 1824,
      "주": 1825,
      "지": 1826,
      "트": 1827,
      "하": 1828,
      "한": 1829,
      "해": 1830,
      "화": 1831,
      "ﬁ": 1832,
      "ﬂ": 1833,
      "ﷺ": 1834,
      "︎": 1835,
      "ﺎ": 1836,
      "ﺔ": 1837,
      "ﻟ": 1838,
      "！": 1839,
      "（": 1840,
      "）": 1841,
      "，": 1842,
      "：": 1843,
      "～": 1844,
      "￼": 1845,
      "�": 1846,
      "𝐀": 1847,
      "𝐂": 1848,
      "𝐄": 1849,
      "𝐈": 1850,
      "𝐋": 1851,
      "𝐍": 1852,
      "𝐎": 1853,
      "𝐑": 1854,
      "𝐒": 1855,
      "𝐓": 1856,
      "𝐚": 1857,
      "𝐜": 1858,
      "𝐝": 1859,
      "𝐞": 1860,
      "𝐢": 1861,
      "𝐥": 1862,
      "𝐦": 1863,
      "𝐧": 1864,
      "𝐨": 1865,
      "𝐩": 1866,
      "𝐫": 1867,
      "𝐬": 1868,
      "𝐭": 1869,
      "𝐮": 1870,
      "𝐴": 1871,
      "𝐵": 1872,
      "𝐶": 1873,
      "𝐷": 1874,
      "𝐸": 1875,
      "𝐹": 1876,
      "𝐺": 1877,
      "𝐻": 1878,
      "𝐼": 1879,
      "𝐽": 1880,
      "𝐾": 1881,
      "𝐿": 1882,
      "𝑀": 1883,
      "𝑁": 1884,
      "𝑂": 1885,
      "𝑃": 1886,
      "𝑄": 1887,
      "𝑅": 1888,
      "𝑆": 1889,
      "𝑇": 1890,
      "𝑈": 1891,
      "𝑉": 1892,
      "𝑊": 1893,
      "𝑋": 1894,
      "𝑌": 1895,
      "𝑍": 1896,
      "𝑎": 1897,
      "𝑏": 1898,
      "𝑐": 1899,
      "𝑑": 1900,
      "𝑒": 1901,
      "𝑓": 1902,
      "𝑔": 1903,
      "𝑖": 1904,
      "𝑗": 1905,
      "𝑘": 1906,
      "𝑙": 1907,
      "𝑚": 1908,
      "𝑛": 1909,
      "𝑜": 1910,
      "𝑝": 1911,
      "𝑞": 1912,
      "𝑟": 1913,
      "𝑠": 1914,
      "𝑡": 1915,
      "𝑢": 1916,
      "𝑣": 1917,
      "𝑤": 1918,
      "𝑥": 1919,
      "𝑦": 1920,
      "𝑧": 1921,
      "𝑪": 1922,
      "𝒂": 1923,
      "𝒄": 1924,
      "𝒅": 1925,
      "𝒆": 1926,
      "𝒊": 1927,
      "𝒍": 1928,
      "𝒎": 1929,
      "𝒏": 1930,
      "𝒐": 1931,
      "𝒑": 1932,
      "𝒓": 1933,
      "𝒔": 1934,
      "𝒕": 1935,
      "𝒖": 1936,
      "𝒙": 1937,
      "𝗔": 1938,
      "𝗘": 1939,
      "𝗜": 1940,
      "𝗡": 1941,
      "𝗥": 1942,
      "𝗦": 1943,
      "𝗧": 1944,
      "𝗮": 1945,
      "𝗰": 1946,
      "𝗱": 1947,
      "𝗲": 1948,
      "𝗶": 1949,
      "𝗹": 1950,
      "𝗺": 1951,
      "𝗻": 1952,
      "𝗼": 1953,
      "𝗿": 1954,
      "𝘀": 1955,
      "𝘁": 1956,
      "𝘂": 1957,
      "𝘦": 1958,
      "𝙚": 1959,
      "𝛥": 1960,
      "𝛼": 1961,
      "𝛽": 1962,
      "𝛾": 1963,
      "𝛿": 1964,
      "𝜀": 1965,
      "𝜂": 1966,
      "𝜃": 1967,
      "𝜆": 1968,
      "𝜇": 1969,
      "𝜈": 1970,
      "𝜉": 1971,
      "𝜋": 1972,
      "𝜌": 1973,
      "𝜎": 1974,
      "𝜏": 1975,
      "𝜑": 1976,
      "𝜒": 1977,
      "𝜓": 1978,
      "𝜔": 1979,
      "𝜕": 1980,
      "𝜖": 1981,
      "𝜙": 1982,
      "🀄": 1983,
      "🃏": 1984,
      "🅰": 1985,
      "🅱": 1986,
      "🅾": 1987,
      "🅿": 1988,
      "🆎": 1989,
      "🆑": 1990,
      "🆒": 1991,
      "🆓": 1992,
      "🆔": 1993,
      "🆕": 1994,
      "🆖": 1995,
      "🆗": 1996,
      "🆘": 1997,
      "🆙": 1998,
      "🆚": 1999,
      "🇦": 2000,
      "🇧": 2001,
      "🇨": 2002,
      "🇩": 2003,
      "🇪": 2004,
      "🇫": 2005,
      "🇬": 2006,
      "🇭": 2007,
      "🇮": 2008,
      "🇯": 2009,
      "🇰": 2010,
      "🇱": 2011,
      "🇲": 2012,
      "🇳": 2013,
      "🇴": 2014,
      "🇵": 2015,
      "🇶": 2016,
      "🇷": 2017,
      "🇸": 2018,
      "🇹": 2019,
      "🇺": 2020,
      "🇻": 2021,
      "🇼": 2022,
      "🇽": 2023,
      "🇾": 2024,
      "🇿": 2025,
      "🈁": 2026,
      "🈂": 2027,
      "🈚": 2028,
      "🈯": 2029,
      "🈲": 2030,
      "🈳": 2031,
      "🈴": 2032,
      "🈵": 2033,
      "🈶": 2034,
      "🈷": 2035,
      "🈸": 2036,
      "🈹": 2037,
      "🈺": 2038,
      "🉐": 2039,
      "🉑": 2040,
      "🌀": 2041,
      "🌁": 2042,
      "🌂": 2043,
      "🌃": 2044,
      "🌄": 2045,
      "🌅": 2046,
      "🌆": 2047,
      "🌇": 2048,
      "🌈": 2049,
      "🌉": 2050,
      "🌊": 2051,
      "🌋": 2052,
      "🌌": 2053,
      "🌍": 2054,
      "🌎": 2055,
      "🌏": 2056,
      "🌐": 2057,
      "🌑": 2058,
      "🌒": 2059,
      "🌓": 2060,
      "🌔": 2061,
      "🌕": 2062,
      "🌖": 2063,
      "🌗": 2064,
      "🌘": 2065,
      "🌙": 2066,
      "🌚": 2067,
      "🌛": 2068,
      "🌜": 2069,
      "🌝": 2070,
      "🌞": 2071,
      "🌟": 2072,
      "🌠": 2073,
      "🌡": 2074,
      "🌤": 2075,
      "🌥": 2076,
      "🌦": 2077,
      "🌧": 2078,
      "🌨": 2079,
      "🌩": 2080,
      "🌪": 2081,
      "🌫": 2082,
      "🌬": 2083,
      "🌭": 2084,
      "🌮": 2085,
      "🌯": 2086,
      "🌰": 2087,
      "🌱": 2088,
      "🌲": 2089,
      "🌳": 2090,
      "🌴": 2091,
      "🌵": 2092,
      "🌶": 2093,
      "🌷": 2094,
      "🌸": 2095,
      "🌹": 2096,
      "🌺": 2097,
      "🌻": 2098,
      "🌼": 2099,
      "🌽": 2100,
      "🌾": 2101,
      "🌿": 2102,
      "🍀": 2103,
      "🍁": 2104,
      "🍂": 2105,
      "🍃": 2106,
      "🍄": 2107,
      "🍅": 2108,
      "🍆": 2109,
      "🍇": 2110,
      "🍈": 2111,
      "🍉": 2112,
      "🍊": 2113,
      "🍋": 2114,
      "🍌": 2115,
      "🍍": 2116,
      "🍎": 2117,
      "🍏": 2118,
      "🍐": 2119,
      "🍑": 2120,
      "🍒": 2121,
      "🍓": 2122,
      "🍔": 2123,
      "🍕": 2124,
      "🍖": 2125,
      "🍗": 2126,
      "🍘": 2127,
      "🍙": 2128,
      "🍚": 2129,
      "🍛": 2130,
      "🍜": 2131,
      "🍝": 2132,
      "🍞": 2133,
      "🍟": 2134,
      "🍠": 2135,
      "🍡": 2136,
      "🍢": 2137,
      "🍣": 2138,
      "🍤": 2139,
      "🍥": 2140,
      "🍦": 2141,
      "🍧": 2142,
      "🍨": 2143,
      "🍩": 2144,
      "🍪": 2145,
      "🍫": 2146,
      "🍬": 2147,
      "🍭": 2148,
      "🍮": 2149,
      "🍯": 2150,
      "🍰": 2151,
      "🍱": 2152,
      "🍲": 2153,
      "🍳": 2154,
      "🍴": 2155,
      "🍵": 2156,
      "🍶": 2157,
      "🍷": 2158,
      "🍸": 2159,
      "🍹": 2160,
      "🍺": 2161,
      "🍻": 2162,
      "🍼": 2163,
      "🍽": 2164,
      "🍾": 2165,
      "🍿": 2166,
      "🎀": 2167,
      "🎁": 2168,
      "🎂": 2169,
      "🎃": 2170,
      "🎄": 2171,
      "🎅": 2172,
      "🎆": 2173,
      "🎇": 2174,
      "🎈": 2175,
      "🎉": 2176,
      "🎊": 2177,
      "🎋": 2178,
      "🎌": 2179,
      "🎍": 2180,
      "🎎": 2181,
      "🎏": 2182,
      "🎐": 2183,
      "🎑": 2184,
      "🎒": 2185,
      "🎓": 2186,
      "🎖": 2187,
      "🎗": 2188,
      "🎙": 2189,
      "🎚": 2190,
      "🎛": 2191,
      "🎞": 2192,
      "🎟": 2193,
      "🎠": 2194,
      "🎡": 2195,
      "🎢": 2196,
      "🎣": 2197,
      "🎤": 2198,
      "🎥": 2199,
      "🎦": 2200,
      "🎧": 2201,
      "🎨": 2202,
      "🎩": 2203,
      "🎪": 2204,
      "🎫": 2205,
      "🎬": 2206,
      "🎭": 2207,
      "🎮": 2208,
      "🎯": 2209,
      "🎰": 2210,
      "🎱": 2211,
      "🎲": 2212,
      "🎳": 2213,
      "🎴": 2214,
      "🎵": 2215,
      "🎶": 2216,
      "🎷": 2217,
      "🎸": 2218,
      "🎹": 2219,
      "🎺": 2220,
      "🎻": 2221,
      "🎼": 2222,
      "🎽": 2223,
      "🎾": 2224,
      "🎿": 2225,
      "🏀": 2226,
      "🏁": 2227,
      "🏂": 2228,
      "🏃": 2229,
      "🏄": 2230,
      "🏅": 2231,
      "🏆": 2232,
      "🏇": 2233,
      "🏈": 2234,
      "🏉": 2235,
      "🏊": 2236,
      "🏋": 2237,
      "🏌": 2238,
      "🏍": 2239,
      "🏎": 2240,
      "🏏": 2241,
      "🏐": 2242,
      "🏑": 2243,
      "🏒": 2244,
      "🏓": 2245,
      "🏔": 2246,
      "🏕": 2247,
      "🏖": 2248,
      "🏗": 2249,
      "🏘": 2250,
      "🏙": 2251,
      "🏚": 2252,
      "🏛": 2253,
      "🏜": 2254,
      "🏝": 2255,
      "🏞": 2256,
      "🏟": 2257,
      "🏠": 2258,
      "🏡": 2259,
      "🏢": 2260,
      "🏣": 2261,
      "🏤": 2262,
      "🏥": 2263,
      "🏦": 2264,
      "🏧": 2265,
      "🏨": 2266,
      "🏩": 2267,
      "🏪": 2268,
      "🏫": 2269,
      "🏬": 2270,
      "🏭": 2271,
      "🏮": 2272,
      "🏯": 2273,
      "🏰": 2274,
      "🏳": 2275,
      "🏴": 2276,
      "🏵": 2277,
      "🏷": 2278,
      "🏸": 2279,
      "🏹": 2280,
      "🏺": 2281,
      "🏻": 2282,
      "🏼": 2283,
      "🏽": 2284,
      "🏾": 2285,
      "🏿": 2286,
      "🐀": 2287,
      "🐁": 2288,
      "🐂": 2289,
      "🐃": 2290,
      "🐄": 2291,
      "🐅": 2292,
      "🐆": 2293,
      "🐇": 2294,
      "🐈": 2295,
      "🐉": 2296,
      "🐊": 2297,
      "🐋": 2298,
      "🐌": 2299,
      "🐍": 2300,
      "🐎": 2301,
      "🐏": 2302,
      "🐐": 2303,
      "🐑": 2304,
      "🐒": 2305,
      "🐓": 2306,
      "🐔": 2307,
      "🐕": 2308,
      "🐖": 2309,
      "🐗": 2310,
      "🐘": 2311,
      "🐙": 2312,
      "🐚": 2313,
      "🐛": 2314,
      "🐜": 2315,
      "🐝": 2316,
      "🐞": 2317,
      "🐟": 2318,
      "🐠": 2319,
      "🐡": 2320,
      "🐢": 2321,
      "🐣": 2322,
      "🐤": 2323,
      "🐥": 2324,
      "🐦": 2325,
      "🐧": 2326,
      "🐨": 2327,
      "🐩": 2328,
      "🐪": 2329,
      "🐫": 2330,
      "🐬": 2331,
      "🐭": 2332,
      "🐮": 2333,
      "🐯": 2334,
      "🐰": 2335,
      "🐱": 2336,
      "🐲": 2337,
      "🐳": 2338,
      "🐴": 2339,
      "🐵": 2340,
      "🐶": 2341,
      "🐷": 2342,
      "🐸": 2343,
      "🐹": 2344,
      "🐺": 2345,
      "🐻": 2346,
      "🐼": 2347,
      "🐽": 2348,
      "🐾": 2349,
      "🐿": 2350,
      "👀": 2351,
      "👁": 2352,
      "👂": 2353,
      "👃": 2354,
      "👄": 2355,
      "👅": 2356,
      "👆": 2357,
      "👇": 2358,
      "👈": 2359,
      "👉": 2360,
      "👊": 2361,
      "👋": 2362,
      "👌": 2363,
      "👍": 2364,
      "👎": 2365,
      "👏": 2366,
      "👐": 2367,
      "👑": 2368,
      "👒": 2369,
      "👓": 2370,
      "👔": 2371,
      "👕": 2372,
      "👖": 2373,
      "👗": 2374,
      "👘": 2375,
      "👙": 2376,
      "👚": 2377,
      "👛": 2378,
      "👜": 2379,
      "👝": 2380,
      "👞": 2381,
      "👟": 2382,
      "👠": 2383,
      "👡": 2384,
      "👢": 2385,
      "👣": 2386,
      "👤": 2387,
      "👥": 2388,
      "👦": 2389,
      "👧": 2390,
      "👨": 2391,
      "👩": 2392,
      "👪": 2393,
      "👫": 2394,
      "👬": 2395,
      "👭": 2396,
      "👮": 2397,
      "👯": 2398,
      "👰": 2399,
      "👱": 2400,
      "👲": 2401,
      "👳": 2402,
      "👴": 2403,
      "👵": 2404,
      "👶": 2405,
      "👷": 2406,
      "👸": 2407,
      "👹": 2408,
      "👺": 2409,
      "👻": 2410,
      "👼": 2411,
      "👽": 2412,
      "👾": 2413,
      "👿": 2414,
      "💀": 2415,
      "💁": 2416,
      "💂": 2417,
      "💃": 2418,
      "💄": 2419,
      "💅": 2420,
      "💆": 2421,
      "💇": 2422,
      "💈": 2423,
      "💉": 2424,
      "💊": 2425,
      "💋": 2426,
      "💌": 2427,
      "💍": 2428,
      "💎": 2429,
      "💏": 2430,
      "💐": 2431,
      "💑": 2432,
      "💒": 2433,
      "💓": 2434,
      "💔": 2435,
      "💕": 2436,
      "💖": 2437,
      "💗": 2438,
      "💘": 2439,
      "💙": 2440,
      "💚": 2441,
      "💛": 2442,
      "💜": 2443,
      "💝": 2444,
      "💞": 2445,
      "💟": 2446,
      "💠": 2447,
      "💡": 2448,
      "💢": 2449,
      "💣": 2450,
      "💤": 2451,
      "💥": 2452,
      "💦": 2453,
      "💧": 2454,
      "💨": 2455,
      "💩": 2456,
      "💪": 2457,
      "💫": 2458,
      "💬": 2459,
      "💭": 2460,
      "💮": 2461,
      "💯": 2462,
      "💰": 2463,
      "💱": 2464,
      "💲": 2465,
      "💳": 2466,
      "💴": 2467,
      "💵": 2468,
      "💶": 2469,
      "💷": 2470,
      "💸": 2471,
      "💹": 2472,
      "💺": 2473,
      "💻": 2474,
      "💼": 2475,
      "💽": 2476,
      "💾": 2477,
      "💿": 2478,
      "📀": 2479,
      "📁": 2480,
      "📂": 2481,
      "📃": 2482,
      "📄": 2483,
      "📅": 2484,
      "📆": 2485,
      "📇": 2486,
      "📈": 2487,
      "📉": 2488,
      "📊": 2489,
      "📋": 2490,
      "📌": 2491,
      "📍": 2492,
      "📎": 2493,
      "📏": 2494,
      "📐": 2495,
      "📑": 2496,
      "📒": 2497,
      "📓": 2498,
      "📔": 2499,
      "📕": 2500,
      "📖": 2501,
      "📗": 2502,
      "📘": 2503,
      "📙": 2504,
      "📚": 2505,
      "📛": 2506,
      "📜": 2507,
      "📝": 2508,
      "📞": 2509,
      "📟": 2510,
      "📠": 2511,
      "📡": 2512,
      "📢": 2513,
      "📣": 2514,
      "📤": 2515,
      "📥": 2516,
      "📦": 2517,
      "📧": 2518,
      "📨": 2519,
      "📩": 2520,
      "📪": 2521,
      "📫": 2522,
      "📬": 2523,
      "📭": 2524,
      "📮": 2525,
      "📯": 2526,
      "📰": 2527,
      "📱": 2528,
      "📲": 2529,
      "📳": 2530,
      "📴": 2531,
      "📵": 2532,
      "📶": 2533,
      "📷": 2534,
      "📸": 2535,
      "📹": 2536,
      "📺": 2537,
      "📻": 2538,
      "📼": 2539,
      "📽": 2540,
      "📿": 2541,
      "🔀": 2542,
      "🔁": 2543,
      "🔂": 2544,
      "🔃": 2545,
      "🔄": 2546,
      "🔅": 2547,
      "🔆": 2548,
      "🔇": 2549,
      "🔈": 2550,
      "🔉": 2551,
      "🔊": 2552,
      "🔋": 2553,
      "🔌": 2554,
      "🔍": 2555,
      "🔎": 2556,
      "🔏": 2557,
      "🔐": 2558,
      "🔑": 2559,
      "🔒": 2560,
      "🔓": 2561,
      "🔔": 2562,
      "🔕": 2563,
      "🔖": 2564,
      "🔗": 2565,
      "🔘": 2566,
      "🔙": 2567,
      "🔚": 2568,
      "🔛": 2569,
      "🔜": 2570,
      "🔝": 2571,
      "🔞": 2572,
      "🔟": 2573,
      "🔠": 2574,
      "🔡": 2575,
      "🔢": 2576,
      "🔣": 2577,
      "🔤": 2578,
      "🔥": 2579,
      "🔦": 2580,
      "🔧": 2581,
      "🔨": 2582,
      "🔩": 2583,
      "🔪": 2584,
      "🔫": 2585,
      "🔬": 2586,
      "🔭": 2587,
      "🔮": 2588,
      "🔯": 2589,
      "🔰": 2590,
      "🔱": 2591,
      "🔲": 2592,
      "🔳": 2593,
      "🔴": 2594,
      "🔵": 2595,
      "🔶": 2596,
      "🔷": 2597,
      "🔸": 2598,
      "🔹": 2599,
      "🔺": 2600,
      "🔻": 2601,
      "🔼": 2602,
      "🔽": 2603,
      "🕉": 2604,
      "🕊": 2605,
      "🕋": 2606,
      "🕌": 2607,
      "🕍": 2608,
      "🕎": 2609,
      "🕐": 2610,
      "🕑": 2611,
      "🕒": 2612,
      "🕓": 2613,
      "🕔": 2614,
      "🕕": 2615,
      "🕖": 2616,
      "🕗": 2617,
      "🕘": 2618,
      "🕙": 2619,
      "🕚": 2620,
      "🕛": 2621,
      "🕜": 2622,
      "🕝": 2623,
      "🕞": 2624,
      "🕟": 2625,
      "🕠": 2626,
      "🕡": 2627,
      "🕢": 2628,
      "🕣": 2629,
      "🕤": 2630,
      "🕥": 2631,
      "🕦": 2632,
      "🕧": 2633,
      "🕯": 2634,
      "🕰": 2635,
      "🕳": 2636,
      "🕴": 2637,
      "🕵": 2638,
      "🕶": 2639,
      "🕷": 2640,
      "🕸": 2641,
      "🕹": 2642,
      "🕺": 2643,
      "🖇": 2644,
      "🖊": 2645,
      "🖋": 2646,
      "🖌": 2647,
      "🖍": 2648,
      "🖐": 2649,
      "🖕": 2650,
      "🖖": 2651,
      "🖤": 2652,
      "🖥": 2653,
      "🖨": 2654,
      "🖱": 2655,
      "🖲": 2656,
      "🖼": 2657,
      "🗂": 2658,
      "🗃": 2659,
      "🗄": 2660,
      "🗑": 2661,
      "🗒": 2662,
      "🗓": 2663,
      "🗜": 2664,
      "🗝": 2665,
      "🗞": 2666,
      "🗡": 2667,
      "🗣": 2668,
      "🗨": 2669,
      "🗯": 2670,
      "🗳": 2671,
      "🗺": 2672,
      "🗻": 2673,
      "🗼": 2674,
      "🗽": 2675,
      "🗾": 2676,
      "🗿": 2677,
      "😀": 2678,
      "😁": 2679,
      "😂": 2680,
      "😃": 2681,
      "😄": 2682,
      "😅": 2683,
      "😆": 2684,
      "😇": 2685,
      "😈": 2686,
      "😉": 2687,
      "😊": 2688,
      "😋": 2689,
      "😌": 2690,
      "😍": 2691,
      "😎": 2692,
      "😏": 2693,
      "😐": 2694,
      "😑": 2695,
      "😒": 2696,
      "😓": 2697,
      "😔": 2698,
      "😕": 2699,
      "😖": 2700,
      "😗": 2701,
      "😘": 2702,
      "😙": 2703,
      "😚": 2704,
      "😛": 2705,
      "😜": 2706,
      "😝": 2707,
      "😞": 2708,
      "😟": 2709,
      "😠": 2710,
      "😡": 2711,
      "😢": 2712,
      "😣": 2713,
      "😤": 2714,
      "😥": 2715,
      "😦": 2716,
      "😧": 2717,
      "😨": 2718,
      "😩": 2719,
      "😪": 2720,
      "😫": 2721,
      "😬": 2722,
      "😭": 2723,
      "😮": 2724,
      "😯": 2725,
      "😰": 2726,
      "😱": 2727,
      "😲": 2728,
      "😳": 2729,
      "😴": 2730,
      "😵": 2731,
      "😶": 2732,
      "😷": 2733,
      "😸": 2734,
      "😹": 2735,
      "😺": 2736,
      "😻": 2737,
      "😼": 2738,
      "😽": 2739,
      "😾": 2740,
      "😿": 2741,
      "🙀": 2742,
      "🙁": 2743,
      "🙂": 2744,
      "🙃": 2745,
      "🙄": 2746,
      "🙅": 2747,
      "🙆": 2748,
      "🙇": 2749,
      "🙈": 2750,
      "🙉": 2751,
      "🙊": 2752,
      "🙋": 2753,
      "🙌": 2754,
      "🙍": 2755,
      "🙎": 2756,
      "🙏": 2757,
      "🚀": 2758,
      "🚁": 2759,
      "🚂": 2760,
      "🚃": 2761,
      "🚄": 2762,
      "🚅": 2763,
      "🚆": 2764,
      "🚇": 2765,
      "🚈": 2766,
      "🚉": 2767,
      "🚊": 2768,
      "🚋": 2769,
      "🚌": 2770,
      "🚍": 2771,
      "🚎": 2772,
      "🚏": 2773,
      "🚐": 2774,
      "🚑": 2775,
      "🚒": 2776,
      "🚓": 2777,
      "🚔": 2778,
      "🚕": 2779,
      "🚖": 2780,
      "🚗": 2781,
      "🚘": 2782,
      "🚙": 2783,
      "🚚": 2784,
      "🚛": 2785,
      "🚜": 2786,
      "🚝": 2787,
      "🚞": 2788,
      "🚟": 2789,
      "🚠": 2790,
      "🚡": 2791,
      "🚢": 2792,
      "🚣": 2793,
      "🚤": 2794,
      "🚥": 2795,
      "🚦": 2796,
      "🚧": 2797,
      "🚨": 2798,
      "🚩": 2799,
      "🚪": 2800,
      "🚫": 2801,
      "🚬": 2802,
      "🚭": 2803,
      "🚮": 2804,
      "🚯": 2805,
      "🚰": 2806,
      "🚱": 2807,
      "🚲": 2808,
      "🚳": 2809,
      "🚴": 2810,
      "🚵": 2811,
      "🚶": 2812,
      "🚷": 2813,
      "🚸": 2814,
      "🚹": 2815,
      "🚺": 2816,
      "🚻": 2817,
      "🚼": 2818,
      "🚽": 2819,
      "🚾": 2820,
      "🚿": 2821,
      "🛀": 2822,
      "🛁": 2823,
      "🛂": 2824,
      "🛃": 2825,
      "🛄": 2826,
      "🛅": 2827,
      "🛋": 2828,
      "🛌": 2829,
      "🛍": 2830,
      "🛎": 2831,
      "🛏": 2832,
      "🛐": 2833,
      "🛑": 2834,
      "🛒": 2835,
      "🛕": 2836,
      "🛖": 2837,
      "🛗": 2838,
      "🛝": 2839,
      "🛞": 2840,
      "🛟": 2841,
      "🛠": 2842,
      "🛡": 2843,
      "🛢": 2844,
      "🛣": 2845,
      "🛤": 2846,
      "🛥": 2847,
      "🛩": 2848,
      "🛫": 2849,
      "🛬": 2850,
      "🛰": 2851,
      "🛳": 2852,
      "🛴": 2853,
      "🛵": 2854,
      "🛶": 2855,
      "🛷": 2856,
      "🛸": 2857,
      "🛹": 2858,
      "🛺": 2859,
      "🛻": 2860,
      "🛼": 2861,
      "🟠": 2862,
      "🟡": 2863,
      "🟢": 2864,
      "🟣": 2865,
      "🟤": 2866,
      "🟥": 2867,
      "🟦": 2868,
      "🟧": 2869,
      "🟨": 2870,
      "🟩": 2871,
      "🟪": 2872,
      "🟫": 2873,
      "🟰": 2874,
      "🤌": 2875,
      "🤍": 2876,
      "🤎": 2877,
      "🤏": 2878,
      "🤐": 2879,
      "🤑": 2880,
      "🤒": 2881,
      "🤓": 2882,
      "🤔": 2883,
      "🤕": 2884,
      "🤖": 2885,
      "🤗": 2886,
      "🤘": 2887,
      "🤙": 2888,
      "🤚": 2889,
      "🤛": 2890,
      "🤜": 2891,
      "🤝": 2892,
      "🤞": 2893,
      "🤟": 2894,
      "🤠": 2895,
      "🤡": 2896,
      "🤢": 2897,
      "🤣": 2898,
      "🤤": 2899,
      "🤥": 2900,
      "🤦": 2901,
      "🤧": 2902,
      "🤨": 2903,
      "🤩": 2904,
      "🤪": 2905,
      "🤫": 2906,
      "🤬": 2907,
      "🤭": 2908,
      "🤮": 2909,
      "🤯": 2910,
      "🤰": 2911,
      "🤱": 2912,
      "🤲": 2913,
      "🤳": 2914,
      "🤴": 2915,
      "🤵": 2916,
      "🤶": 2917,
      "🤷": 2918,
      "🤸": 2919,
      "🤹": 2920,
      "🤺": 2921,
      "🤼": 2922,
      "🤽": 2923,
      "🤾": 2924,
      "🤿": 2925,
      "🥀": 2926,
      "🥁": 2927,
      "🥂": 2928,
      "🥃": 2929,
      "🥄": 2930,
      "🥅": 2931,
      "🥇": 2932,
      "🥈": 2933,
      "🥉": 2934,
      "🥊": 2935,
      "🥋": 2936,
      "🥌": 2937,
      "🥍": 2938,
      "🥎": 2939,
      "🥏": 2940,
      "🥐": 2941,
      "🥑": 2942,
      "🥒": 2943,
      "🥓": 2944,
      "🥔": 2945,
      "🥕": 2946,
      "🥖": 2947,
      "🥗": 2948,
      "🥘": 2949,
      "🥙": 2950,
      "🥚": 2951,
      "🥛": 2952,
      "🥜": 2953,
      "🥝": 2954,
      "🥞": 2955,
      "🥟": 2956,
      "🥠": 2957,
      "🥡": 2958,
      "🥢": 2959,
      "🥣": 2960,
      "🥤": 2961,
      "🥥": 2962,
      "🥦": 2963,
      "🥧": 2964,
      "🥨": 2965,
      "🥩": 2966,
      "🥪": 2967,
      "🥫": 2968,
      "🥬": 2969,
      "🥭": 2970,
      "🥮": 2971,
      "🥯": 2972,
      "🥰": 2973,
      "🥱": 2974,
      "🥲": 2975,
      "🥳": 2976,
      "🥴": 2977,
      "🥵": 2978,
      "🥶": 2979,
      "🥷": 2980,
      "🥸": 2981,
      "🥹": 2982,
      "🥺": 2983,
      "🥻": 2984,
      "🥼": 2985,
      "🥽": 2986,
      "🥾": 2987,
      "🥿": 2988,
      "🦀": 2989,
      "🦁": 2990,
      "🦂": 2991,
      "🦃": 2992,
      "🦄": 2993,
      "🦅": 2994,
      "🦆": 2995,
      "🦇": 2996,
      "🦈": 2997,
      "🦉": 2998,
      "🦊": 2999,
      "🦋": 3000,
      "🦌": 3001,
      "🦍": 3002,
      "🦎": 3003,
      "🦏": 3004,
      "🦐": 3005,
      "🦑": 3006,
      "🦒": 3007,
      "🦓": 3008,
      "🦔": 3009,
      "🦕": 3010,
      "🦖": 3011,
      "🦗": 3012,
      "🦘": 3013,
      "🦙": 3014,
      "🦚": 3015,
      "🦛": 3016,
      "🦜": 3017,
      "🦝": 3018,
      "🦞": 3019,
      "🦟": 3020,
      "🦠": 3021,
      "🦡": 3022,
      "🦢": 3023,
      "🦣": 3024,
      "🦤": 3025,
      "🦥": 3026,
      "🦦": 3027,
      "🦧": 3028,
      "🦨": 3029,
      "🦩": 3030,
      "🦪": 3031,
      "🦫": 3032,
      "🦬": 3033,
      "🦭": 3034,
      "🦮": 3035,
      "🦯": 3036,
      "🦰": 3037,
      "🦱": 3038,
      "🦲": 3039,
      "🦳": 3040,
      "🦴": 3041,
      "🦵": 3042,
      "🦶": 3043,
      "🦷": 3044,
      "🦸": 3045,
      "🦹": 3046,
      "🦺": 3047,
      "🦻": 3048,
      "🦼": 3049,
      "🦽": 3050,
      "🦾": 3051,
      "🦿": 3052,
      "🧀": 3053,
      "🧁": 3054,
      "🧂": 3055,
      "🧃": 3056,
      "🧄": 3057,
      "🧅": 3058,
      "🧆": 3059,
      "🧇": 3060,
      "🧈": 3061,
      "🧉": 3062,
      "🧊": 3063,
      "🧋": 3064,
      "🧌": 3065,
      "🧍": 3066,
      "🧎": 3067,
      "🧏": 3068,
      "🧐": 3069,
      "🧑": 3070,
      "🧒": 3071,
      "🧓": 3072,
      "🧔": 3073,
      "🧕": 3074,
      "🧖": 3075,
      "🧗": 3076,
      "🧘": 3077,
      "🧙": 3078,
      "🧚": 3079,
      "🧛": 3080,
      "🧜": 3081,
      "🧝": 3082,
      "🧞": 3083,
      "🧟": 3084,
      "🧠": 3085,
      "🧡": 3086,
      "🧢": 3087,
      "🧣": 3088,
      "🧤": 3089,
      "🧥": 3090,
      "🧦": 3091,
      "🧧": 3092,
      "🧨": 3093,
      "🧩": 3094,
      "🧪": 3095,
      "🧫": 3096,
      "🧬": 3097,
      "🧭": 3098,
      "🧮": 3099,
      "🧯": 3100,
      "🧰": 3101,
      "🧱": 3102,
      "🧲": 3103,
      "🧳": 3104,
      "🧴": 3105,
      "🧵": 3106,
      "🧶": 3107,
      "🧷": 3108,
      "🧸": 3109,
      "🧹": 3110,
      "🧺": 3111,
      "🧻": 3112,
      "🧼": 3113,
      "🧽": 3114,
      "🧾": 3115,
      "🧿": 3116,
      "🩰": 3117,
      "🩱": 3118,
      "🩲": 3119,
      "🩳": 3120,
      "🩴": 3121,
      "🩸": 3122,
      "🩹": 3123,
      "🩺": 3124,
      "🩻": 3125,
      "🩼": 3126,
      "🪀": 3127,
      "🪁": 3128,
      "🪂": 3129,
      "🪃": 3130,
      "🪄": 3131,
      "🪅": 3132,
      "🪆": 3133,
      "🪐": 3134,
      "🪑": 3135,
      "🪒": 3136,
      "🪓": 3137,
      "🪔": 3138,
      "🪕": 3139,
      "🪖": 3140,
      "🪗": 3141,
      "🪘": 3142,
      "🪙": 3143,
      "🪚": 3144,
      "🪛": 3145,
      "🪜": 3146,
      "🪝": 3147,
      "🪞": 3148,
      "🪟": 3149,
      "🪠": 3150,
      "🪡": 3151,
      "🪢": 3152,
      "🪣": 3153,
      "🪤": 3154,
      "🪥": 3155,
      "🪦": 3156,
      "🪧": 3157,
      "🪨": 3158,
      "🪩": 3159,
      "🪪": 3160,
      "🪫": 3161,
      "🪬": 3162,
      "🪰": 3163,
      "🪱": 3164,
      "🪲": 3165,
      "🪳": 3166,
      "🪴": 3167,
      "🪵": 3168,
      "🪶": 3169,
      "🪷": 3170,
      "🪸": 3171,
      "🪹": 3172,
      "🪺": 3173,
      "🫀": 3174,
      "🫁": 3175,
      "🫂": 3176,
      "🫃": 3177,
      "🫄": 3178,
      "🫅": 3179,
      "🫐": 3180,
      "🫑": 3181,
      "🫒": 3182,
      "🫓": 3183,
      "🫔": 3184,
      "🫕": 3185,
      "🫖": 3186,
      "🫗": 3187,
      "🫘": 3188,
      "🫙": 3189,
      "🫠": 3190,
      "🫡": 3191,
      "🫢": 3192,
      "🫣": 3193,
      "🫤": 3194,
      "🫥": 3195,
      "🫦": 3196,
      "🫧": 3197,
      "🫰": 3198,
      "🫱": 3199,
      "🫲": 3200,
      "🫳": 3201,
      "🫴": 3202,
      "🫵": 3203,
      "🫶": 3204,
      "##e": 3205,
      "##s": 3206,
      "##t": 3207,
      "##q": 3208,
      "##u": 3209,
      "##i": 3210,
      "##a": 3211,
      "##v": 3212,
      "##n": 3213,
      "##r": 3214,
      "##y": 3215,
      "##o": 3216,
      "##m": 3217,
      "##l": 3218,
      "##c": 3219,
      "##h": 3220,
      "##d": 3221,
      "##G": 3222,
      "##ï": 3223,
      "##é": 3224,
      "##g": 3225,
      "##ô": 3226,
      "##ε": 3227,
      "##ρ": 3228,
      "##γ": 3229,
      "##ί": 3230,
      "##ν": 3231,
      "##α": 3232,
      "##ς": 3233,
      "##ş": 3234,
      "##k": 3235,
      "##z": 3236,
      "##p": 3237,
      "##D": 3238,
      "##I": 3239,
      "##F": 3240,
      "##Y": 3241,
      "##b": 3242,
      "##L": 3243,
      "##A": 3244,
      "##N": 3245,
      "##ل": 3246,
      "##ت": 3247,
      "##ق": 3248,
      "##ي": 3249,
      "##x": 3250,
      "##S": 3251,
      "##P": 3252,
      "##ù": 3253,
      "##у": 3254,
      "##и": 3255,
      "##з": 3256,
      "##а": 3257,
      "##f": 3258,
      "##j": 3259,
      "##w": 3260,
      "##Z": 3261,
      "##E": 3262,
      "##O": 3263,
      "##ø": 3264,
      "##æ": 3265,
      "##C": 3266,
      "##B": 3267,
      "##R": 3268,
      "##U": 3269,
      "##è": 3270,
      "##н": 3271,
      "##т": 3272,
      "##о": 3273,
      "##в": 3274,
      "##і": 3275,
      "##ч": 3276,
      "##T": 3277,
      "##H": 3278,
      "##W": 3279,
      "##Q": 3280,
      "##M": 3281,
      "##ā": 3282,
      "##à": 3283,
      "##ē": 3284,
      "##J": 3285,
      "##X": 3286,
      "##ῷ": 3287,
      "##م": 3288,
      "##ط": 3289,
      "##ا": 3290,
      "##ب": 3291,
      "##ة": 3292,
      "##V": 3293,
      "##ç": 3294,
      "##â": 3295,
      "##K": 3296,
      "##м": 3297,
      "##ë": 3298,
      "##É": 3299,
      "##ê": 3300,
      "##𝑠": 3301,
      "##𝑒": 3302,
      "##𝑛": 3303,
      "##𝑐": 3304,
      "##ö": 3305,
      "##า": 3306,
      "##น": 3307,
      "##Ν": 3308,
      "##Р": 3309,
      "##î": 3310,
      "##Г": 3311,
      "##š": 3312,
      "##á": 3313,
      "##β": 3314,
      "##λ": 3315,
      "##η": 3316,
      "##θ": 3317,
      "##έ": 3318,
      "##τ": 3319,
      "##ω": 3320,
      "##ä": 3321,
      "##行": 3322,
      "##一": 3323,
      "##次": 3324,
      "##י": 3325,
      "##ש": 3326,
      "##)": 3327,
      "##*": 3328,
      "##外": 3329,
      "##国": 3330,
      "##用": 3331,
      "##和": 3332,
      "##于": 3333,
      "##非": 3334,
      "##商": 3335,
      "##业": 3336,
      "##目": 3337,
      "##的": 3338,
      "##政": 3339,
      "##ה": 3340,
      "##כ": 3341,
      "##ל": 3342,
      "##\\": 3343,
      "##'": 3344,
      "##𝗻": 3345,
      "##𝗰": 3346,
      "##𝗲": 3347,
      "##𝗶": 3348,
      "##𝘁": 3349,
      "##じ": 3350,
      "##う": 3351,
      "##つ": 3352,
      "##に": 3353,
      "##δ": 3354,
      "##פ": 3355,
      "##ט": 3356,
      "##ר": 3357,
      "##然": 3358,
      "##是": 3359,
      "##有": 3360,
      "##点": 3361,
      "##û": 3362,
      "##О": 3363,
      "##ə": 3364,
      "##由": 3365,
      "##之": 3366,
      "##г": 3367,
      "##니": 3368,
      "##다": 3369,
      "##民": 3370,
      "##星": 3371,
      "##ŝ": 3372,
      "##ŵ": 3373,
      "##ď": 3374,
      "##ƌ": 3375,
      "##Ă": 3376,
      "##ر": 3377,
      "##د": 3378,
      "##ș": 3379,
      "##ı": 3380,
      "##里": 3381,
      "##ι": 3382,
      "##к": 3383,
      "##大": 3384,
      "##ñ": 3385,
      "##画": 3386,
      "##を": 3387,
      "##書": 3388,
      "##く": 3389,
      "##海": 3390,
      "##ó": 3391,
      "##φ": 3392,
      "##ή": 3393,
      "##μ": 3394,
      "##영": 3395,
      "##주": 3396,
      "##س": 3397,
      "##ن": 3398,
      "##Ђ": 3399,
      "###": 3400,
      "##!": 3401,
      "##ɣ": 3402,
      "##ſ": 3403,
      "##р": 3404,
      "##ь": 3405,
      "##ю": 3406,
      "##с": 3407,
      "##𝑓": 3408,
      "##𝑡": 3409,
      "##𝑟": 3410,
      "##𝑙": 3411,
      "##Õ": 3412,
      "##б": 3413,
      "##д": 3414,
      "##л": 3415,
      "##ʾ": 3416,
      "##е": 3417,
      "##й": 3418,
      "##お": 3419,
      "##と": 3420,
      "##め": 3421,
      "##я": 3422,
      "##ʺ": 3423,
      "##ف": 3424,
      "##ß": 3425,
      "##ą": 3426,
      "##Š": 3427,
      "##ü": 3428,
      "##𝑘": 3429,
      "##&": 3430,
      "##ʀ": 3431,
      "##ɔ": 3432,
      "##ú": 3433,
      "##ḥ": 3434,
      "##Ş": 3435,
      "##.": 3436,
      "##ł": 3437,
      "##แ": 3438,
      "##ผ": 3439,
      "##ท": 3440,
      "##å": 3441,
      "##ř": 3442,
      "##Ó": 3443,
      "##ę": 3444,
      "##ы": 3445,
      "##ц": 3446,
      "##»": 3447,
      "##«": 3448,
      "##し": 3449,
      "##い": 3450,
      "##で": 3451,
      "##す": 3452,
      "##が": 3453,
      "##%": 3454,
      "##\"": 3455,
      "##,": 3456,
      "##[": 3457,
      "##ã": 3458,
      "##ո": 3459,
      "##ւ": 3460,
      "##տ": 3461,
      "##ի": 3462,
      "##ค": 3463,
      "##ว": 3464,
      "##ม": 3465,
      "##:": 3466,
      "##ō": 3467,
      "##ج": 3468,
      "##و": 3469,
      "##ض": 3470,
      "##È": 3471,
      "##ʹ": 3472,
      "##Π": 3473,
      "##ж": 3474,
      "##č": 3475,
      "##者": 3476,
      "##道": 3477,
      "##也": 3478,
      "##У": 3479,
      "##ї": 3480,
      "##中": 3481,
      "##文": 3482,
      "##ш": 3483,
      "##π": 3484,
      "##ά": 3485,
      "##χ": 3486,
      "##ο": 3487,
      "##υ": 3488,
      "##Ø": 3489,
      "##ύ": 3490,
      "##ū": 3491,
      "##σ": 3492,
      "##ɑ": 3493,
      "##字": 3494,
      "##門": 3495,
      "##µ": 3496,
      "##ǔ": 3497,
      "##ʁ": 3498,
      "##ث": 3499,
      "##ī": 3500,
      "##ʼ": 3501,
      "##ă": 3502,
      "##西": 3503,
      "##出": 3504,
      "##店": 3505,
      "##は": 3506,
      "##Æ": 3507,
      "##平": 3508,
      "##野": 3509,
      "##õ": 3510,
      "##Ä": 3511,
      "##í": 3512,
      "##ℓ": 3513,
      "##九": 3514,
      "##个": 3515,
      "##成": 3516,
      "##就": 3517,
      "##れ": 3518,
      "##ひ": 3519,
      "##思": 3520,
      "##福": 3521,
      "##代": 3522,
      "##Ł": 3523,
      "##ʻ": 3524,
      "##ー": 3525,
      "##ト": 3526,
      "##ル": 3527,
      "##ĕ": 3528,
      "##ð": 3529,
      "##ˁ": 3530,
      "##ː": 3531,
      "##خ": 3532,
      "##ه": 3533,
      "##ế": 3534,
      "##Œ": 3535,
      "##ع": 3536,
      "##Ê": 3537,
      "##한": 3538,
      "##상": 3539,
      "##기": 3540,
      "##山": 3541,
      "##院": 3542,
      "##家": 3543,
      "##Ç": 3544,
      "##ὴ": 3545,
      "##ž": 3546,
      "##가": 3547,
      "##ﬁ": 3548,
      "##𝐚": 3549,
      "##𝐞": 3550,
      "##ė": 3551,
      "##ῆ": 3552,
      "##主": 3553,
      "##義": 3554,
      "##世": 3555,
      "##界": 3556,
      "##の": 3557,
      "##𝘦": 3558,
      "##ˈ": 3559,
      "##ὰ": 3560,
      "##{": 3561,
      "##Í": 3562,
      "##𝒂": 3563,
      "##𝒊": 3564,
      "##𝒏": 3565,
      "##𝒕": 3566,
      "##ὶ": 3567,
      "##ɕ": 3568,
      "##ŋ": 3569,
      "##А": 3570,
      "##Н": 3571,
      "##Ц": 3572,
      "##З": 3573,
      "##С": 3574,
      "##К": 3575,
      "##М": 3576,
      "##ต": 3577,
      "##ล": 3578,
      "##อ": 3579,
      "##ด": 3580,
      "##เ": 3581,
      "##茅": 3582,
      "##没": 3583,
      "##κ": 3584,
      "##存": 3585,
      "##在": 3586,
      "##治": 3587,
      "##新": 3588,
      "##市": 3589,
      "##な": 3590,
      "##か": 3591,
      "##っ": 3592,
      "##た": 3593,
      "##ら": 3594,
      "##Γ": 3595,
      "##Ι": 3596,
      "##Ο": 3597,
      "##Υ": 3598,
      "##ย": 3599,
      "##食": 3600,
      "##事": 3601,
      "##À": 3602,
      "##𝗦": 3603,
      "##𝗧": 3604,
      "##화": 3605,
      "##로": 3606,
      "##ő": 3607,
      "##Ϋ": 3608,
      "##子": 3609,
      "##上": 3610,
      "##很": 3611,
      "##好": 3612,
      "##𝐺": 3613,
      "##_": 3614,
      "##ɛ": 3615,
      "##ǐ": 3616,
      "##ě": 3617,
      "##신": 3618,
      "##ز": 3619,
      "##田": 3620,
      "##多": 3621,
      "##州": 3622,
      "##河": 3623,
      "##东": 3624,
      "##部": 3625,
      "##ủ": 3626,
      "##Ô": 3627,
      "##º": 3628,
      "##き": 3629,
      "##り": 3630,
      "##𝑎": 3631,
      "##ʊ": 3632,
      "##أ": 3633,
      "##ش": 3634,
      "##理": 3635,
      "##𝑥": 3636,
      "##𝑖": 3637,
      "##ì": 3638,
      "##ǎ": 3639,
      "##원": 3640,
      "##은": 3641,
      "##本": 3642,
      "##音": 3643,
      "##楽": 3644,
      "##え": 3645,
      "##ʌ": 3646,
      "##-": 3647,
      "##(": 3648,
      "##ɾ": 3649,
      "##п": 3650,
      "##ˮ": 3651,
      "##Ï": 3652,
      "##ξ": 3653,
      "##х": 3654,
      "##区": 3655,
      "##水": 3656,
      "##北": 3657,
      "##南": 3658,
      "##城": 3659,
      "##英": 3660,
      "##语": 3661,
      "##使": 3662,
      "##情": 3663,
      "##þ": 3664,
      "##ʿ": 3665,
      "##高": 3666,
      "##ん": 3667,
      "##人": 3668,
      "##だ": 3669,
      "##イ": 3670,
      "##ガ": 3671,
      "##シ": 3672,
      "##ラ": 3673,
      "##ホ": 3674,
      "##オ": 3675,
      "##ジ": 3676,
      "##ロ": 3677,
      "##全": 3678,
      "##動": 3679,
      "##東": 3680,
      "##э": 3681,
      "##不": 3682,
      "##能": 3683,
      "##无": 3684,
      "##も": 3685,
      "##ό": 3686,
      "##ร": 3687,
      "##Ö": 3688,
      "##א": 3689,
      "##ו": 3690,
      "##ס": 3691,
      "##ま": 3692,
      "##ﺎ": 3693,
      "##𝘀": 3694,
      "##元": 3695,
      "##天": 3696,
      "##江": 3697,
      "##路": 3698,
      "##ϕ": 3699,
      "##ח": 3700,
      "##נ": 3701,
      "##阳": 3702,
      "##プ": 3703,
      "##ム": 3704,
      "##𝜆": 3705,
      "##ɪ": 3706,
      "##ʒ": 3707,
      "##ś": 3708,
      "##ṭ": 3709,
      "##ò": 3710,
      "##ス": 3711,
      "##म": 3712,
      "##स": 3713,
      "##ע": 3714,
      "##ת": 3715,
      "##ק": 3716,
      "##ѕ": 3717,
      "##ņ": 3718,
      "##果": 3719,
      "##斯": 3720,
      "##基": 3721,
      "##知": 3722,
      "##ナ": 3723,
      "##比": 3724,
      "##ば": 3725,
      "##少": 3726,
      "##八": 3727,
      "##小": 3728,
      "##时": 3729,
      "##可": 3730,
      "##以": 3731,
      "##到": 3732,
      "##二": 3733,
      "##口": 3734,
      "##要": 3735,
      "##数": 3736,
      "##ῖ": 3737,
      "##京": 3738,
      "##法": 3739,
      "##学": 3740,
      "##Ą": 3741,
      "##心": 3742,
      "##花": 3743,
      "##Ã": 3744,
      "##記": 3745,
      "##ğ": 3746,
      "##所": 3747,
      "##发": 3748,
      "##方": 3749,
      "##מ": 3750,
      "##Ò": 3751,
      "##Ϊ": 3752,
      "##ح": 3753,
      "##ý": 3754,
      "##了": 3755,
      "##ى": 3756,
      "##族": 3757,
      "##館": 3758,
      "##分": 3759,
      "##利": 3760,
      "##马": 3761,
      "##ὐ": 3762,
      "##立": 3763,
      "##房": 3764,
      "##间": 3765,
      "##ك": 3766,
      "##하": 3767,
      "##?": 3768,
      "##生": 3769,
      "##あ": 3770,
      "##る": 3771,
      "##ک": 3772,
      "##百": 3773,
      "##春": 3774,
      "##ص": 3775,
      "##ห": 3776,
      "##ก": 3777,
      "##ศ": 3778,
      "##ġ": 3779,
      "##け": 3780,
      "##年": 3781,
      "##ć": 3782,
      "##園": 3783,
      "##¼": 3784,
      "##Ÿ": 3785,
      "##눇": 3786,
      "##Î": 3787,
      "##ำ": 3788,
      "##ф": 3789,
      "##ů": 3790,
      "##Е": 3791,
      "##И": 3792,
      "##ƒ": 3793,
      "##及": 3794,
      "##て": 3795,
      "##…": 3796,
      "##/": 3797,
      "##こ": 3798,
      "##Ρ": 3799,
      "##Ω": 3800,
      "##Τ": 3801,
      "##Κ": 3802,
      "##Σ": 3803,
      "##ț": 3804,
      "##𝑜": 3805,
      "##𝑚": 3806,
      "##𝑔": 3807,
      "##ง": 3808,
      "##ṅ": 3809,
      "##景": 3810,
      "##林": 3811,
      "##ﻟ": 3812,
      "##ḫ": 3813,
      "##ώ": 3814,
      "##œ": 3815,
      "##𝑣": 3816,
      "##Ü": 3817,
      "##İ": 3818,
      "##Ú": 3819,
      "##合": 3820,
      "##会": 3821,
      "##手": 3822,
      "##加": 3823,
      "##ё": 3824,
      "##ĭ": 3825,
      "##这": 3826,
      "##グ": 3827,
      "##ン": 3828,
      "##]": 3829,
      "##フ": 3830,
      "##タ": 3831,
      "##マ": 3832,
      "##ケ": 3833,
      "##ッ": 3834,
      "##地": 3835,
      "##ウ": 3836,
      "##ד": 3837,
      "##チ": 3838,
      "##那": 3839,
      "##后": 3840,
      "##我": 3841,
      "##ظ": 3842,
      "##ב": 3843,
      "##ـ": 3844,
      "##先": 3845,
      "##𝑂": 3846,
      "##堂": 3847,
      "##实": 3848,
      "##ᾶ": 3849,
      "##ち": 3850,
      "##ろ": 3851,
      "##王": 3852,
      "##如": 3853,
      "##자": 3854,
      "##ἱ": 3855,
      "##7": 3856,
      "##Ƌ": 3857,
      "##ľ": 3858,
      "##ป": 3859,
      "##ะ": 3860,
      "##동": 3861,
      "##テ": 3862,
      "##Л": 3863,
      "##Ш": 3864,
      "##Я": 3865,
      "##レ": 3866,
      "##Ž": 3867,
      "##고": 3868,
      "##𝐍": 3869,
      "##𝐈": 3870,
      "##𝐑": 3871,
      "##𝐎": 3872,
      "##𝐄": 3873,
      "##𝐓": 3874,
      "##ń": 3875,
      "##Ф": 3876,
      "##ษ": 3877,
      "##Ч": 3878,
      "##Т": 3879,
      "##ャ": 3880,
      "##ク": 3881,
      "##ż": 3882,
      "##ạ": 3883,
      "##ị": 3884,
      "##ɨ": 3885,
      "##;": 3886,
      "##’": 3887,
      "##щ": 3888,
      "##リ": 3889,
      "##ニ": 3890,
      "##國": 3891,
      "##宮": 3892,
      "##術": 3893,
      "##品": 3894,
      "##美": 3895,
      "##作": 3896,
      "##戦": 3897,
      "##Χ": 3898,
      "##Θ": 3899,
      "##ῶ": 3900,
      "##ṕ": 3901,
      "##ṛ": 3902,
      "##何": 3903,
      "##غ": 3904,
      "##网": 3905,
      "##他": 3906,
      "##放": 3907,
      "##格": 3908,
      "##特": 3909,
      "##𝜏": 3910,
      "##@": 3911,
      "##த": 3912,
      "##ṣ": 3913,
      "##𝐶": 3914,
      "##ℎ": 3915,
      "##よ": 3916,
      "##内": 3917,
      "##Û": 3918,
      "##ი": 3919,
      "##ა": 3920,
      "##ŏ": 3921,
      "##ی": 3922,
      "##宿": 3923,
      "##ュ": 3924,
      "##バ": 3925,
      "##提": 3926,
      "##取": 3927,
      "##ɲ": 3928,
      "##ψ": 3929,
      "##국": 3930,
      "##𝐢": 3931,
      "##𝐬": 3932,
      "##𝐭": 3933,
      "##𝐨": 3934,
      "##𝐫": 3935,
      "##𝐮": 3936,
      "##千": 3937,
      "##ア": 3938,
      "##ũ": 3939,
      "##Ë": 3940,
      "##ɡ": 3941,
      "##」": 3942,
      "##（": 3943,
      "##Φ": 3944,
      "##ក": 3945,
      "##武": 3946,
      "##自": 3947,
      "##车": 3948,
      "##旅": 3949,
      "##下": 3950,
      "##名": 3951,
      "##朝": 3952,
      "##近": 3953,
      "##你": 3954,
      "##わ": 3955,
      "##В": 3956,
      "##𝑤": 3957,
      "##ソ": 3958,
      "##ペ": 3959,
      "##十": 3960,
      "##ṃ": 3961,
      "##Ŷ": 3962,
      "##ъ": 3963,
      "##•": 3964,
      "##스": 3965,
      "##石": 3966,
      "##Μ": 3967,
      "##ζ": 3968,
      "##女": 3969,
      "##阿": 3970,
      "##拉": 3971,
      "##𝑏": 3972,
      "##今": 3973,
      "##永": 3974,
      "##明": 3975,
      "##ذ": 3976,
      "##县": 3977,
      "##Ɛ": 3978,
      "##Д": 3979,
      "##რ": 3980,
      "##ე": 3981,
      "##ბ": 3982,
      "##ს": 3983,
      "##ọ": 3984,
      "##常": 3985,
      "##ṇ": 3986,
      "##บ": 3987,
      "##期": 3988,
      "##ワ": 3989,
      "##灣": 3990,
      "##–": 3991,
      "##四": 3992,
      "##志": 3993,
      "##号": 3994,
      "##们": 3995,
      "##更": 3996,
      "##松": 3997,
      "##Â": 3998,
      "##み": 3999,
      "##へ": 4000,
      "##إ": 4001,
      "##𝐥": 4002,
      "##动": 4003,
      "##Ā": 4004,
      "##จ": 4005,
      "##简": 4006,
      "##体": 4007,
      "##Č": 4008,
      "##Ε": 4009,
      "##日": 4010,
      "##語": 4011,
      "##어": 4012,
      "##繁": 4013,
      "##體": 4014,
      "##清": 4015,
      "##ئ": 4016,
      "##ן": 4017,
      "##入": 4018,
      "##უ": 4019,
      "##ლ": 4020,
      "##ო": 4021,
      "##Ƶ": 4022,
      "##Đ": 4023,
      "##Ś": 4024,
      "##ϭ": 4025,
      "##ϱ": 4026,
      "##ʲ": 4027,
      "##感": 4028,
      "##布": 4029,
      "##等": 4030,
      "##社": 4031,
      "##集": 4032,
      "##𝗼": 4033,
      "##𝗿": 4034,
      "##ء": 4035,
      "##デ": 4036,
      "##โ": 4037,
      "##ใ": 4038,
      "##屋": 4039,
      "##Á": 4040,
      "##ョ": 4041,
      "##科": 4042,
      "##尔": 4043,
      "##島": 4044,
      "##ˆ": 4045,
      "##Ġ": 4046,
      "##Ɖ": 4047,
      "##Ğ": 4048,
      "##ƚ": 4049,
      "##Ѕ": 4050,
      "##드": 4051,
      "##表": 4052,
      "##化": 4053,
      "##对": 4054,
      "##来": 4055,
      "##キ": 4056,
      "##パ": 4057,
      "##公": 4058,
      "##机": 4059,
      "##经": 4060,
      "##度": 4061,
      "##原": 4062,
      "##風": 4063,
      "##선": 4064,
      "##}": 4065,
      "##ố": 4066,
      "##צ": 4067,
      "##华": 4068,
      "##수": 4069,
      "##三": 4070,
      "##长": 4071,
      "##六": 4072,
      "##ג": 4073,
      "##𝛾": 4074,
      "##Þ": 4075,
      "##现": 4076,
      "##想": 4077,
      "##同": 4078,
      "##看": 4079,
      "##의": 4080,
      "##ĉ": 4081,
      "##や": 4082,
      "##ァ": 4083,
      "##ɐ": 4084,
      "##𝐴": 4085,
      "##ʃ": 4086,
      "##나": 4087,
      "##ゴ": 4088,
      "##ῇ": 4089,
      "##白": 4090,
      "##ˇ": 4091,
      "##共": 4092,
      "##金": 4093,
      "##ゃ": 4094,
      "##𝑃": 4095,
      "##建": 4096,
      "##史": 4097,
      "##ј": 4098,
      "##ể": 4099,
      "##Ț": 4100,
      "##空": 4101,
      "##港": 4102,
      "##Α": 4103,
      "##过": 4104,
      "##活": 4105,
      "##最": 4106,
      "##月": 4107,
      "##長": 4108,
      "##言": 4109,
      "##价": 4110,
      "##리": 4111,
      "##住": 4112,
      "##意": 4113,
      "##Б": 4114,
      "##ợ": 4115,
      "##에": 4116,
      "##지": 4117,
      "##德": 4118,
      "##𝘂": 4119,
      "##𝗮": 4120,
      "##而": 4121,
      "##無": 4122,
      "##𝑧": 4123,
      "##‹": 4124,
      "##ณ": 4125,
      "##Ð": 4126,
      "##მ": 4127,
      "##Ё": 4128,
      "##向": 4129,
      "##ם": 4130,
      "##开": 4131,
      "##】": 4132,
      "##𝑇": 4133,
      "##𝑢": 4134,
      "##ǝ": 4135,
      "##𝐦": 4136,
      "##𝐧": 4137,
      "##ช": 4138,
      "##ǧ": 4139,
      "##ţ": 4140,
      "##đ": 4141,
      "##着": 4142,
      "##吉": 4143,
      "##影": 4144,
      "##超": 4145,
      "##古": 4146,
      "##老": 4147,
      "##式": 4148,
      "##ェ": 4149,
      "##ビ": 4150,
      "##Ő": 4151,
      "##Ě": 4152,
      "##є": 4153,
      "##ⴰ": 4154,
      "##ⵏ": 4155,
      "##光": 4156,
      "##ĩ": 4157,
      "##𝒅": 4158,
      "##𝒓": 4159,
      "##𝒐": 4160,
      "##𝒄": 4161,
      "##𝒔": 4162,
      "##李": 4163,
      "##宗": 4164,
      "##第": 4165,
      "##当": 4166,
      "##起": 4167,
      "##서": 4168,
      "##ḍ": 4169,
      "##을": 4170,
      "##ὺ": 4171,
      "##𝑦": 4172,
      "##는": 4173,
      "##П": 4174,
      "##𝑑": 4175,
      "##대": 4176,
      "##전": 4177,
      "##ÿ": 4178,
      "##ň": 4179,
      "##ћ": 4180,
      "##प": 4181,
      "##न": 4182,
      "##य": 4183,
      "##ส": 4184,
      "##保": 4185,
      "##馬": 4186,
      "##真": 4187,
      "##そ": 4188,
      "##𝐼": 4189,
      "##都": 4190,
      "##站": 4191,
      "##ベ": 4192,
      "##ؤ": 4193,
      "##ვ": 4194,
      "##件": 4195,
      "##香": 4196,
      "##Λ": 4197,
      "##Ì": 4198,
      "##さ": 4199,
      "##ど": 4200,
      "##土": 4201,
      "##𝑈": 4202,
      "##𝐿": 4203,
      "##𝑀": 4204,
      "##𝑋": 4205,
      "##ন": 4206,
      "##町": 4207,
      "##通": 4208,
      "##ブ": 4209,
      "##†": 4210,
      "##博": 4211,
      "##物": 4212,
      "##系": 4213,
      "##ա": 4214,
      "##谷": 4215,
      "##村": 4216,
      "##마": 4217,
      "##台": 4218,
      "##歌": 4219,
      "##𝐝": 4220,
      "##ザ": 4221,
      "##Ŕ": 4222,
      "##与": 4223,
      "##流": 4224,
      "##ª": 4225,
      "##ẓ": 4226,
      "##𝑆": 4227,
      "##𝑉": 4228,
      "##역": 4229,
      "##ﺔ": 4230,
      "##教": 4231,
      "##育": 4232,
      "##安": 4233,
      "##街": 4234,
      "##𝑝": 4235,
      "##司": 4236,
      "##ῳ": 4237,
      "##ʂ": 4238,
      "##Δ": 4239,
      "##Ξ": 4240,
      "##𝐸": 4241,
      "##Ṭ": 4242,
      "##時": 4243,
      "##ű": 4244,
      "##正": 4245,
      "##说": 4246,
      "##Ψ": 4247,
      "##ụ": 4248,
      "##І": 4249,
      "##𝑁": 4250,
      "##𝐻": 4251,
      "##Ĩ": 4252,
      "##ồ": 4253,
      "##研": 4254,
      "##么": 4255,
      "##定": 4256,
      "##ΰ": 4257,
      "##重": 4258,
      "##位": 4259,
      "##性": 4260,
      "##ǒ": 4261,
      "##相": 4262,
      "##ὁ": 4263,
      "##ῦ": 4264,
      "##ź": 4265,
      "##得": 4266,
      "##사": 4267,
      "##制": 4268,
      "##산": 4269,
      "##为": 4270,
      "##其": 4271,
      "##〉": 4272,
      "##ῃ": 4273,
      "##室": 4274,
      "##私": 4275,
      "##‘": 4276,
      "##士": 4277,
      "##版": 4278,
      "##Ͳ": 4279,
      "##条": 4280,
      "##ә": 4281,
      "##Å": 4282,
      "##交": 4283,
      "##間": 4284,
      "##竹": 4285,
      "##해": 4286,
      "##回": 4287,
      "##𝑅": 4288,
      "##七": 4289,
      "##𝑪": 4290,
      "##𝒎": 4291,
      "##𝒆": 4292,
      "##メ": 4293,
      "##ὸ": 4294,
      "##성": 4295,
      "##아": 4296,
      "##트": 4297,
      "##巴": 4298,
      "##آ": 4299,
      "##이": 4300,
      "##ἴ": 4301,
      "##ἷ": 4302,
      "##ὀ": 4303,
      "##ϐ": 4304,
      "##皇": 4305,
      "##帝": 4306,
      "##川": 4307,
      "##ⵉ": 4308,
      "##ⵔ": 4309,
      "##ⵜ": 4310,
      "##面": 4311,
      "##𝙚": 4312,
      "##𝐷": 4313,
      "##일": 4314,
      "##力": 4315,
      "##”": 4316,
      "##ἰ": 4317,
      "##ὲ": 4318,
      "##Ć": 4319,
      "##校": 4320,
      "##Х": 4321,
      "##寺": 4322,
      "##ἀ": 4323,
      "##电": 4324,
      "##𝗱": 4325,
      "##酒": 4326,
      "##寓": 4327,
      "##ไ": 4328,
      "##ɯ": 4329,
      "##우": 4330,
      "##พ": 4331,
      "##𝜇": 4332,
      "##ז": 4333,
      "##¶": 4334,
      "##𝜋": 4335,
      "##ť": 4336,
      "##前": 4337,
      "##ὑ": 4338,
      "##구": 4339,
      "##克": 4340,
      "##ṯ": 4341,
      "##ถ": 4342,
      "##“": 4343,
      "##ḿ": 4344,
      "##ՙ": 4345,
      "##ご": 4346,
      "##민": 4347,
      "##気": 4348,
      "##神": 4349,
      "##置": 4350,
      "##切": 4351,
      "##Ҩ": 4352,
      "##·": 4353,
      "##ŷ": 4354,
      "##木": 4355,
      "##ն": 4356,
      "##Η": 4357,
      "##解": 4358,
      "##料": 4359,
      "##⟩": 4360,
      "##0": 4361,
      "##𝑞": 4362,
      "##色": 4363,
      "##ր": 4364,
      "##մ": 4365,
      "##𝗹": 4366,
      "##ˉ": 4367,
      "##گ": 4368,
      "##ィ": 4369,
      "##ᐅ": 4370,
      "##ђ": 4371,
      "##Ý": 4372,
      "##Ñ": 4373,
      "##モ": 4374,
      "##ツ": 4375,
      "##型": 4376,
      "##Й": 4377,
      "##𝒍": 4378,
      "##𝒖": 4379,
      "##究": 4380,
      "##ʔ": 4381,
      "##ŕ": 4382,
      "##ネ": 4383,
      "##𝐋": 4384,
      "##𝐀": 4385,
      "##見": 4386,
      "##夫": 4387,
      "##乐": 4388,
      "##ド": 4389,
      "##夜": 4390,
      "##サ": 4391,
      "##軍": 4392,
      "##ズ": 4393,
      "##Ù": 4394,
      "##თ": 4395,
      "##𝜃": 4396,
      "##エ": 4397,
      "##男": 4398,
      "##ธ": 4399,
      "##书": 4400,
      "##草": 4401,
      "##Э": 4402,
      "##ḏ": 4403,
      "##五": 4404,
      "##𝗜": 4405,
      "##𝗘": 4406,
      "##ϑ": 4407,
      "##ⵓ": 4408,
      "##ⵍ": 4409,
      "##র": 4410,
      "##場": 4411,
      "##ŭ": 4412,
      "##ヴ": 4413,
      "##セ": 4414,
      "##ᵉ": 4415,
      "##ấ": 4416,
      "##Ē": 4417,
      "##요": 4418,
      "##소": 4419,
      "##ả": 4420,
      "##ϰ": 4421,
      "##क": 4422,
      "##र": 4423,
      "##ἶ": 4424,
      "##인": 4425,
      "##租": 4426,
      "##套": 4427,
      "##良": 4428,
      "##ⵎ": 4429,
      "##𝗡": 4430,
      "##𝗥": 4431,
      "##Ō": 4432,
      "##Ж": 4433,
      "##կ": 4434,
      "##友": 4435,
      "##张": 4436,
      "##시": 4437,
      "##문": 4438,
      "##《": 4439,
      "##》": 4440,
      "##）": 4441,
      "##라": 4442,
      "##‡": 4443,
      "##‰": 4444,
      "##信": 4445,
      "##ภ": 4446,
      "##伊": 4447,
      "##せ": 4448,
      "##ნ": 4449,
      "##″": 4450,
      "##華": 4451,
      "##김": 4452,
      "##ὡ": 4453,
      "##客": 4454,
      "##Ḫ": 4455,
      "##ข": 4456,
      "##カ": 4457,
      "##ệ": 4458,
      "##ल": 4459,
      "##ɹ": 4460,
      "##〈": 4461,
      "##ǫ": 4462,
      "##工": 4463,
      "##學": 4464,
      "##ư": 4465,
      "##ở": 4466,
      "##𝐜": 4467,
      "##井": 4468,
      "##关": 4469,
      "##Є": 4470,
      "##ダ": 4471,
      "##ǵ": 4472,
      "##𝐩": 4473,
      "##ハ": 4474,
      "##ญ": 4475,
      "##도": 4476,
      "##정": 4477,
      "##洞": 4478,
      "##ノ": 4479,
      "##ậ": 4480,
      "##郎": 4481,
      "##ʰ": 4482,
      "##ȝ": 4483,
      "##დ": 4484,
      "##յ": 4485,
      "##ս": 4486,
      "##ե": 4487,
      "##ų": 4488,
      "##玉": 4489,
      "##ộ": 4490,
      "##ボ": 4491,
      "##ℤ": 4492,
      "##𝜔": 4493,
      "##𝜀": 4494,
      "##1": 4495,
      "##御": 4496,
      "##조": 4497,
      "##身": 4498,
      "##源": 4499,
      "##ϯ": 4500,
      "##ḳ": 4501,
      "##藤": 4502,
      "##ĺ": 4503,
      "##ピ": 4504,
      "##ẽ": 4505,
      "##ơ": 4506,
      "##ϵ": 4507,
      "##𝐵": 4508,
      "##њ": 4509,
      "##ᴹ": 4510,
      "##ᴰ": 4511,
      "##Β": 4512,
      "##𝛼": 4513,
      "##』": 4514,
      "##コ": 4515,
      "##ү": 4516,
      "##周": 4517,
      "##𝜙": 4518,
      "##火": 4519,
      "##𝑗": 4520,
      "##त": 4521,
      "##張": 4522,
      "##ļ": 4523,
      "##ề": 4524,
      "##𝐒": 4525,
      "##ℂ": 4526,
      "##§": 4527,
      "##Ϯ": 4528,
      "##𝜑": 4529,
      "##整": 4530,
      "##ĝ": 4531,
      "##제": 4532,
      "##去": 4533,
      "##太": 4534,
      "##茶": 4535,
      "##ʳ": 4536,
      "##。": 4537,
      "##𝐾": 4538,
      "##ग": 4539,
      "##व": 4540,
      "##द": 4541,
      "##ễ": 4542,
      "##夏": 4543,
      "##𝗺": 4544,
      "##形": 4545,
      "##ʷ": 4546,
      "##پ": 4547,
      "##Ḥ": 4548,
      "##、": 4549,
      "##Ϭ": 4550,
      "##Ἰ": 4551,
      "##¡": 4552,
      "##青": 4553,
      "##𝜌": 4554,
      "##𝒑": 4555,
      "##ポ": 4556,
      "##ὄ": 4557,
      "##ὅ": 4558,
      "##ך": 4559,
      "##—": 4560,
      "##「": 4561,
      "##ħ": 4562,
      "##Ř": 4563,
      "##¿": 4564,
      "##ἐ": 4565,
      "##ミ": 4566,
      "##後": 4567,
      "##类": 4568,
      "##𝑌": 4569,
      "##그": 4570,
      "##ब": 4571,
      "##장": 4572,
      "##『": 4573,
      "##ម": 4574,
      "##𝑊": 4575,
      "##Ī": 4576,
      "##【": 4577,
      "##ღ": 4578,
      "##보": 4579,
      "##ฝ": 4580,
      "##ﬂ": 4581,
      "##ờ": 4582,
      "##𝑄": 4583,
      "##𝗔": 4584,
      "##愛": 4585,
      "##ɓ": 4586,
      "##𝜎": 4587,
      "##𝛿": 4588,
      "##Ǧ": 4589,
      "##陽": 4590,
      "##⁰": 4591,
      "##ổ": 4592,
      "##・": 4593,
      "##រ": 4594,
      "##Ζ": 4595,
      "##؟": 4596,
      "##›": 4597,
      "##ṁ": 4598,
      "##ớ": 4599,
      "##𝑍": 4600,
      "##오": 4601,
      "##ắ": 4602,
      "##ǀ": 4603,
      "##龍": 4604,
      "##‐": 4605,
      "##𝛽": 4606,
      "##‿": 4607,
      "##ầ": 4608,
      "##！": 4609,
      "##‑": 4610,
      "##𝐹": 4611,
      "##भ": 4612,
      "##𝒙": 4613,
      "##‖": 4614,
      "##ம": 4615,
      "##ἄ": 4616,
      "##𝐂": 4617,
      "##Ю": 4618,
      "##ὕ": 4619,
      "##„": 4620,
      "##³": 4621,
      "##ল": 4622,
      "##Ľ": 4623,
      "##ह": 4624,
      "##ỹ": 4625,
      "##¹": 4626,
      "##½": 4627,
      "##𝜒": 4628,
      "##5": 4629,
      "##―": 4630,
      "##𝜖": 4631,
      "##ស": 4632,
      "##′": 4633,
      "##ន": 4634,
      "##8": 4635,
      "##ữ": 4636,
      "##𝐽": 4637,
      "##，": 4638,
      "##Ș": 4639,
      "##ϟ": 4640,
      "##ज": 4641,
      "##𝜉": 4642,
      "##𝜂": 4643,
      "##𝜈": 4644,
      "##Ἀ": 4645,
      "##ប": 4646,
      "##ứ": 4647,
      "##ℝ": 4648,
      "##2": 4649,
      "##〜": 4650,
      "##ব": 4651,
      "##⟨": 4652,
      "##3": 4653,
      "##Ż": 4654,
      "##ɦ": 4655,
      "##ℚ": 4656,
      "##Ŝ": 4657,
      "##4": 4658,
      "##‒": 4659,
      "##Ϟ": 4660,
      "##ٱ": 4661,
      "##₂": 4662,
      "##②": 4663,
      "##ự": 4664,
      "##①": 4665,
      "##،": 4666,
      "##𝜓": 4667,
      "##श": 4668,
      "##ἑ": 4669,
      "##：": 4670,
      "##⁃": 4671,
      "##ἡ": 4672,
      "##´": 4673,
      "##𝛥": 4674,
      "##※": 4675,
      "##፡": 4676,
      "##‟": 4677,
      "##ẋ": 4678,
      "##־": 4679,
      "##Ṣ": 4680,
      "##ἔ": 4681,
      "##ử": 4682,
      "##9": 4683,
      "##Ĥ": 4684,
      "##❯": 4685,
      "##‚": 4686,
      "##6": 4687,
      "##²": 4688,
      "##‣": 4689,
      "##ﷺ": 4690,
      "##‧": 4691,
      "##་": 4692,
      "##❬": 4693,
      "##⅓": 4694,
      "##¾": 4695,
      "##③": 4696,
      "## ": 4697,
      "##⸱": 4698,
      "##es": 4699,
      "##on": 4700,
      "##nt": 4701,
      "de": 4702,
      "##er": 4703,
      "##ou": 4704,
      "##re": 4705,
      "##ti": 4706,
      "##is": 4707,
      "##an": 4708,
      "##le": 4709,
      "##ent": 4710,
      "##it": 4711,
      "##ar": 4712,
      "##ur": 4713,
      "##ne": 4714,
      "la": 4715,
      "##ue": 4716,
      "##te": 4717,
      "et": 4718,
      "##tion": 4719,
      "##in": 4720,
      "##or": 4721,
      "le": 4722,
      "##en": 4723,
      "##our": 4724,
      "en": 4725,
      "##om": 4726,
      "##ra": 4727,
      "##st": 4728,
      "##ment": 4729,
      "des": 4730,
      "##al": 4731,
      "##il": 4732,
      "les": 4733,
      "##ant": 4734,
      "##ro": 4735,
      "l'": 4736,
      "##ri": 4737,
      "##us": 4738,
      "##ce": 4739,
      "##ve": 4740,
      "##as": 4741,
      "d'": 4742,
      "##ch": 4743,
      "un": 4744,
      "au": 4745,
      "##me": 4746,
      "qu": 4747,
      "##ie": 4748,
      "##ation": 4749,
      "est": 4750,
      "##ai": 4751,
      "##que": 4752,
      "par": 4753,
      "##ans": 4754,
      "du": 4755,
      "##ous": 4756,
      "##au": 4757,
      "con": 4758,
      "##és": 4759,
      "pour": 4760,
      "##oi": 4761,
      "##li": 4762,
      "##ag": 4763,
      "une": 4764,
      "##tre": 4765,
      "##se": 4766,
      "##res": 4767,
      "##qu": 4768,
      "##ais": 4769,
      "##si": 4770,
      "##at": 4771,
      "##ci": 4772,
      "com": 4773,
      "##et": 4774,
      "dé": 4775,
      "##de": 4776,
      "que": 4777,
      "pl": 4778,
      "##eu": 4779,
      "ch": 4780,
      "##ol": 4781,
      "dans": 4782,
      "##el": 4783,
      "pro": 4784,
      "##ée": 4785,
      "##mp": 4786,
      "sur": 4787,
      "##ont": 4788,
      "##os": 4789,
      "in": 4790,
      "##di": 4791,
      "re": 4792,
      "20": 4793,
      "##ait": 4794,
      "qui": 4795,
      "##les": 4796,
      "il": 4797,
      "##ff": 4798,
      "##ré": 4799,
      "ré": 4800,
      "pas": 4801,
      "##ab": 4802,
      "##ers": 4803,
      "##pp": 4804,
      "se": 4805,
      "##té": 4806,
      "##ac": 4807,
      "##lle": 4808,
      "##ité": 4809,
      "ou": 4810,
      "##ran": 4811,
      "plus": 4812,
      "##ons": 4813,
      "ex": 4814,
      "##urs": 4815,
      "##ale": 4816,
      "##am": 4817,
      "ave": 4818,
      "an": 4819,
      "##aire": 4820,
      "##age": 4821,
      "##ir": 4822,
      "##ic": 4823,
      "##ot": 4824,
      "##ure": 4825,
      "##ul": 4826,
      "vous": 4827,
      "avec": 4828,
      "##ère": 4829,
      "##ig": 4830,
      "av": 4831,
      "##ite": 4832,
      "Le": 4833,
      "##ien": 4834,
      "##ort": 4835,
      "su": 4836,
      "##ès": 4837,
      "##ille": 4838,
      "ce": 4839,
      "##ct": 4840,
      "di": 4841,
      "##ques": 4842,
      "##out": 4843,
      "##ux": 4844,
      "##ces": 4845,
      "##ction": 4846,
      "##ge": 4847,
      "##pe": 4848,
      "pr": 4849,
      "##onn": 4850,
      "19": 4851,
      "##ois": 4852,
      "##ier": 4853,
      "tr": 4854,
      "ét": 4855,
      "ne": 4856,
      "##du": 4857,
      "La": 4858,
      "##ique": 4859,
      "##ouv": 4860,
      "comp": 4861,
      "##og": 4862,
      "##éri": 4863,
      "##oir": 4864,
      "ar": 4865,
      "int": 4866,
      "00": 4867,
      "##ées": 4868,
      "##otre": 4869,
      "##che": 4870,
      "sont": 4871,
      "##iv": 4872,
      "##mb": 4873,
      "ent": 4874,
      "##ist": 4875,
      "##ain": 4876,
      "##ati": 4877,
      "ac": 4878,
      "mo": 4879,
      "##ut": 4880,
      "##pr": 4881,
      "##un": 4882,
      "##id": 4883,
      "##ap": 4884,
      "##and": 4885,
      "##ion": 4886,
      "app": 4887,
      "son": 4888,
      "peu": 4889,
      "##aux": 4890,
      "##ance": 4891,
      "##orm": 4892,
      "##um": 4893,
      "tra": 4894,
      "##ouve": 4895,
      "##ren": 4896,
      "Les": 4897,
      "##oc": 4898,
      "##ui": 4899,
      "##ise": 4900,
      "sa": 4901,
      "qu'": 4902,
      "##ert": 4903,
      "##ette": 4904,
      "Il": 4905,
      "##ss": 4906,
      "##..": 4907,
      "##dre": 4908,
      "##onne": 4909,
      "si": 4910,
      "##ine": 4911,
      "ser": 4912,
      "##lé": 4913,
      "mais": 4914,
      "##uis": 4915,
      "aux": 4916,
      "##én": 4917,
      "##ate": 4918,
      "te": 4919,
      "##op": 4920,
      "##ations": 4921,
      "##éra": 4922,
      "n'": 4923,
      "aut": 4924,
      "En": 4925,
      "s'": 4926,
      "tout": 4927,
      "##ors": 4928,
      "##ub": 4929,
      "al": 4930,
      "##able": 4931,
      "Ch": 4932,
      "l’": 4933,
      "##ter": 4934,
      "##mes": 4935,
      "nous": 4936,
      "##ay": 4937,
      "je": 4938,
      "so": 4939,
      "comm": 4940,
      "parti": 4941,
      "on": 4942,
      "##lo": 4943,
      "##ours": 4944,
      "per": 4945,
      "##ace": 4946,
      "##ill": 4947,
      "entre": 4948,
      "##ard": 4949,
      "votre": 4950,
      "##tt": 4951,
      "##im": 4952,
      "mar": 4953,
      "##ten": 4954,
      "##ib": 4955,
      "##end": 4956,
      "##ens": 4957,
      "##lis": 4958,
      "être": 4959,
      "pré": 4960,
      "mon": 4961,
      "...": 4962,
      "##ants": 4963,
      "##ins": 4964,
      "me": 4965,
      "d’": 4966,
      "##ph": 4967,
      "##ad": 4968,
      "res": 4969,
      "mé": 4970,
      "##ments": 4971,
      "comme": 4972,
      "fait": 4973,
      "  ": 4974,
      "éc": 4975,
      "st": 4976,
      "##aires": 4977,
      "dis": 4978,
      "imp": 4979,
      "cette": 4980,
      "exp": 4981,
      "ont": 4982,
      "##ond": 4983,
      "ai": 4984,
      "##ing": 4985,
      "##ru": 4986,
      "##tique": 4987,
      "##ême": 4988,
      "##alis": 4989,
      "##sion": 4990,
      "déc": 4991,
      "##mi": 4992,
      "été": 4993,
      "##tions": 4994,
      "po": 4995,
      "car": 4996,
      "th": 4997,
      "L'": 4998,
      "bien": 4999,
      "##eur": 5000,
      "##nes": 5001,
      "##ég": 5002,
      "10": 5003,
      "##ence": 5004,
      "ad": 5005,
      "##ussi": 5006,
      "inter": 5007,
      "ses": 5008,
      "##tit": 5009,
      "Par": 5010,
      "##bre": 5011,
      "##teur": 5012,
      "##oy": 5013,
      "##if": 5014,
      "##vi": 5015,
      "ma": 5016,
      "ann": 5017,
      "##oire": 5018,
      "cons": 5019,
      "##cu": 5020,
      "##ord": 5021,
      "##rent": 5022,
      "elle": 5023,
      "pers": 5024,
      "même": 5025,
      "##co": 5026,
      "18": 5027,
      "##ang": 5028,
      "nom": 5029,
      "##tin": 5030,
      "##tif": 5031,
      "prop": 5032,
      "pre": 5033,
      "uti": 5034,
      "Un": 5035,
      ").": 5036,
      "or": 5037,
      "ob": 5038,
      "am": 5039,
      "acc": 5040,
      "deux": 5041,
      "##oup": 5042,
      "faire": 5043,
      "cel": 5044,
      "rés": 5045,
      "##par": 5046,
      "prés": 5047,
      "##tes": 5048,
      "trav": 5049,
      "pe": 5050,
      "##vent": 5051,
      "##lles": 5052,
      "Je": 5053,
      "ren": 5054,
      "##lic": 5055,
      "aussi": 5056,
      "co": 5057,
      "##ér": 5058,
      "peut": 5059,
      "##alement": 5060,
      "),": 5061,
      "Fran": 5062,
      "cont": 5063,
      "##aine": 5064,
      "tou": 5065,
      "##ls": 5066,
      "##ire": 5067,
      "c'": 5068,
      "##ème": 5069,
      "es": 5070,
      "leur": 5071,
      "eff": 5072,
      "##jet": 5073,
      "nouve": 5074,
      "ca": 5075,
      "##près": 5076,
      "fin": 5077,
      "##its": 5078,
      "gran": 5079,
      "##lement": 5080,
      "for": 5081,
      "##ts": 5082,
      "inf": 5083,
      "##onc": 5084,
      "Mar": 5085,
      "Com": 5086,
      "très": 5087,
      "ter": 5088,
      "cl": 5089,
      "##iss": 5090,
      "##av": 5091,
      "De": 5092,
      "ces": 5093,
      "##all": 5094,
      "ass": 5095,
      "##ez": 5096,
      "pri": 5097,
      "##cher": 5098,
      "diff": 5099,
      "##ités": 5100,
      "##min": 5101,
      "##ourn": 5102,
      "##ante": 5103,
      "ph": 5104,
      "##mps": 5105,
      "##eux": 5106,
      "##tiv": 5107,
      "##iques": 5108,
      "utilis": 5109,
      "##ail": 5110,
      "Pour": 5111,
      "##ble": 5112,
      "sé": 5113,
      "ag": 5114,
      "sou": 5115,
      "##ign": 5116,
      "produ": 5117,
      "##use": 5118,
      "ég": 5119,
      "##cip": 5120,
      "##ages": 5121,
      "dev": 5122,
      "sp": 5123,
      "##ose": 5124,
      "col": 5125,
      "ab": 5126,
      "##ult": 5127,
      "##ver": 5128,
      "##alité": 5129,
      "ra": 5130,
      "##aint": 5131,
      "##man": 5132,
      "##olog": 5133,
      "##ong": 5134,
      "##éd": 5135,
      "sans": 5136,
      "##iste": 5137,
      "12": 5138,
      "15": 5139,
      "##aut": 5140,
      "min": 5141,
      "##fin": 5142,
      "conc": 5143,
      "##ats": 5144,
      "év": 5145,
      "prof": 5146,
      "##des": 5147,
      "##tic": 5148,
      "##ente": 5149,
      "conf": 5150,
      "##ères": 5151,
      "##rit": 5152,
      "##ales": 5153,
      "##ies": 5154,
      "##ures": 5155,
      "##ec": 5156,
      "17": 5157,
      "##ob": 5158,
      "autres": 5159,
      "##eau": 5160,
      "##ouver": 5161,
      "rec": 5162,
      "##oit": 5163,
      "##ser": 5164,
      "pos": 5165,
      "##ière": 5166,
      "sy": 5167,
      "dire": 5168,
      "##ét": 5169,
      "rég": 5170,
      "An": 5171,
      "gr": 5172,
      "cha": 5173,
      "tous": 5174,
      "tro": 5175,
      "##mbre": 5176,
      "##orte": 5177,
      "man": 5178,
      "##elle": 5179,
      "Ce": 5180,
      "##igne": 5181,
      "##ler": 5182,
      "env": 5183,
      "Ar": 5184,
      "perme": 5185,
      "In": 5186,
      "était": 5187,
      "##ner": 5188,
      "##qui": 5189,
      "im": 5190,
      "Al": 5191,
      "j'": 5192,
      "fran": 5193,
      "quel": 5194,
      "pub": 5195,
      "16": 5196,
      "off": 5197,
      "at": 5198,
      "##insi": 5199,
      "jus": 5200,
      "mes": 5201,
      "##aient": 5202,
      "gra": 5203,
      "soci": 5204,
      "lui": 5205,
      "11": 5206,
      "Et": 5207,
      "ils": 5208,
      "##em": 5209,
      "##olu": 5210,
      "ans": 5211,
      "##oint": 5212,
      "cas": 5213,
      "der": 5214,
      "puis": 5215,
      "dép": 5216,
      "temps": 5217,
      "##tement": 5218,
      "fil": 5219,
      "##ves": 5220,
      "sous": 5221,
      "##éren": 5222,
      "notre": 5223,
      "gén": 5224,
      "donn": 5225,
      "France": 5226,
      "Au": 5227,
      "jeu": 5228,
      "##ole": 5229,
      "cré": 5230,
      "14": 5231,
      "Th": 5232,
      "##ém": 5233,
      "##lè": 5234,
      "##uer": 5235,
      "##puis": 5236,
      "ret": 5237,
      "trans": 5238,
      "vos": 5239,
      "##anc": 5240,
      "après": 5241,
      "Re": 5242,
      "##ents": 5243,
      "où": 5244,
      "avant": 5245,
      "vis": 5246,
      "form": 5247,
      "13": 5248,
      "##ches": 5249,
      "##asse": 5250,
      "également": 5251,
      "##ains": 5252,
      "##ass": 5253,
      "disp": 5254,
      "##ari": 5255,
      "##int": 5256,
      "cor": 5257,
      "##tis": 5258,
      "##th": 5259,
      "vie": 5260,
      "ju": 5261,
      "op": 5262,
      "avoir": 5263,
      "lors": 5264,
      "nombre": 5265,
      "##core": 5266,
      "sit": 5267,
      "##tiques": 5268,
      "##one": 5269,
      "##ric": 5270,
      "##ris": 5271,
      "##çais": 5272,
      "##ieu": 5273,
      "##enne": 5274,
      "##endant": 5275,
      "éle": 5276,
      "##cep": 5277,
      "##are": 5278,
      "fon": 5279,
      "##oule": 5280,
      "##con": 5281,
      "ép": 5282,
      "vi": 5283,
      "##ues": 5284,
      "emp": 5285,
      "aff": 5286,
      "##élé": 5287,
      "mil": 5288,
      "##rig": 5289,
      "fa": 5290,
      "##ateur": 5291,
      "ainsi": 5292,
      "dern": 5293,
      "personn": 5294,
      "##mple": 5295,
      "ins": 5296,
      "rép": 5297,
      "##agn": 5298,
      "##oul": 5299,
      "donc": 5300,
      "dont": 5301,
      "seu": 5302,
      "##teurs": 5303,
      "##ron": 5304,
      "premi": 5305,
      "as": 5306,
      "##aison": 5307,
      "pay": 5308,
      "##ieux": 5309,
      "C'": 5310,
      "##cc": 5311,
      "##mis": 5312,
      "Une": 5313,
      "##gan": 5314,
      "site": 5315,
      "commun": 5316,
      "21": 5317,
      "the": 5318,
      "id": 5319,
      "##oupe": 5320,
      "encore": 5321,
      "non": 5322,
      "##cess": 5323,
      "esp": 5324,
      "Si": 5325,
      "inst": 5326,
      "ni": 5327,
      "part": 5328,
      "autre": 5329,
      "cert": 5330,
      "##ern": 5331,
      "##aiss": 5332,
      "##qu'": 5333,
      "mal": 5334,
      "##ven": 5335,
      "enf": 5336,
      "fois": 5337,
      "réf": 5338,
      "att": 5339,
      "bas": 5340,
      "##oci": 5341,
      "équi": 5342,
      "##lique": 5343,
      "cour": 5344,
      "##raph": 5345,
      "##omm": 5346,
      "##nement": 5347,
      "fonction": 5348,
      "##od": 5349,
      "30": 5350,
      "##osi": 5351,
      "##lig": 5352,
      "##rer": 5353,
      "St": 5354,
      "##rai": 5355,
      "Dans": 5356,
      "déb": 5357,
      "Dé": 5358,
      "né": 5359,
      "contre": 5360,
      "Nous": 5361,
      "##mble": 5362,
      "conn": 5363,
      "##ich": 5364,
      "Vous": 5365,
      "depuis": 5366,
      "##iter": 5367,
      "##ici": 5368,
      "of": 5369,
      "##oute": 5370,
      "sec": 5371,
      "français": 5372,
      "généra": 5373,
      "##ok": 5374,
      "##est": 5375,
      "##lu": 5376,
      "met": 5377,
      "grand": 5378,
      "##ov": 5379,
      "pren": 5380,
      "##uit": 5381,
      "##érent": 5382,
      "##chn": 5383,
      "petit": 5384,
      "moins": 5385,
      "inc": 5386,
      "##rait": 5387,
      "##ilité": 5388,
      "leurs": 5389,
      "##isse": 5390,
      "##ête": 5391,
      "##tive": 5392,
      "alors": 5393,
      "##ances": 5394,
      "nos": 5395,
      "monde": 5396,
      "Pro": 5397,
      "##aines": 5398,
      "rapp": 5399,
      "##ide": 5400,
      "##iel": 5401,
      "hom": 5402,
      "##velo": 5403,
      "point": 5404,
      "dro": 5405,
      "##ions": 5406,
      "Ré": 5407,
      "cent": 5408,
      "##velopp": 5409,
      "mat": 5410,
      "rel": 5411,
      "##été": 5412,
      "##ables": 5413,
      "cap": 5414,
      "##ieurs": 5415,
      "suiv": 5416,
      "##erci": 5417,
      "beau": 5418,
      "##rib": 5419,
      "##per": 5420,
      "##az": 5421,
      "##ograph": 5422,
      "indi": 5423,
      "##ines": 5424,
      "poli": 5425,
      "cli": 5426,
      "inform": 5427,
      "jou": 5428,
      "ver": 5429,
      "##uelle": 5430,
      "sal": 5431,
      "rep": 5432,
      "const": 5433,
      "soit": 5434,
      "##ché": 5435,
      "Pl": 5436,
      "##ature": 5437,
      "##mier": 5438,
      "##voir": 5439,
      "##antes": 5440,
      "long": 5441,
      "Con": 5442,
      "##jour": 5443,
      "On": 5444,
      "bl": 5445,
      "prin": 5446,
      "##iens": 5447,
      "##arge": 5448,
      "Elle": 5449,
      "ense": 5450,
      "##ode": 5451,
      "22": 5452,
      "pres": 5453,
      "##éci": 5454,
      "sc": 5455,
      "mod": 5456,
      "étu": 5457,
      "##omp": 5458,
      "dés": 5459,
      "##vis": 5460,
      "ouv": 5461,
      "##estion": 5462,
      "organ": 5463,
      "tu": 5464,
      "##jours": 5465,
      "not": 5466,
      "##uel": 5467,
      "avait": 5468,
      "hist": 5469,
      "##oin": 5470,
      "entrepr": 5471,
      "che": 5472,
      "pays": 5473,
      "permet": 5474,
      "Mais": 5475,
      "profes": 5476,
      "no": 5477,
      "Qu": 5478,
      "toute": 5479,
      "port": 5480,
      "##tte": 5481,
      "fr": 5482,
      "##ram": 5483,
      "prix": 5484,
      "ven": 5485,
      "pouv": 5486,
      "##eure": 5487,
      "##aille": 5488,
      "##agne": 5489,
      "##mé": 5490,
      "##iers": 5491,
      "##ctions": 5492,
      "bon": 5493,
      "##mer": 5494,
      "trois": 5495,
      "situ": 5496,
      "place": 5497,
      "jour": 5498,
      "Su": 5499,
      "##ger": 5500,
      "meille": 5501,
      "import": 5502,
      "personne": 5503,
      "vers": 5504,
      "##lier": 5505,
      "##ade": 5506,
      "préc": 5507,
      "présent": 5508,
      "mus": 5509,
      "##act": 5510,
      "Saint": 5511,
      "différent": 5512,
      "techn": 5513,
      "réalis": 5514,
      "projet": 5515,
      "Des": 5516,
      "##titu": 5517,
      "développ": 5518,
      "travail": 5519,
      "##mar": 5520,
      "##ES": 5521,
      "##ôt": 5522,
      "spéci": 5523,
      "##ow": 5524,
      "»,": 5525,
      "Paris": 5526,
      "toujours": 5527,
      "##ak": 5528,
      "##ises": 5529,
      "ça": 5530,
      "##ges": 5531,
      "effet": 5532,
      "fer": 5533,
      "cro": 5534,
      "Cette": 5535,
      "toutes": 5536,
      "plusieurs": 5537,
      "pass": 5538,
      "##elon": 5539,
      "##ps": 5540,
      "possi": 5541,
      "prob": 5542,
      "quelques": 5543,
      "partie": 5544,
      "loc": 5545,
      "sera": 5546,
      "##ath": 5547,
      "##dic": 5548,
      "premier": 5549,
      "##quer": 5550,
      "##dition": 5551,
      "déf": 5552,
      "##êt": 5553,
      "##ange": 5554,
      "fem": 5555,
      "pi": 5556,
      "##ress": 5557,
      "arri": 5558,
      "mont": 5559,
      "ess": 5560,
      "va": 5561,
      "fam": 5562,
      "repr": 5563,
      "cela": 5564,
      "##uses": 5565,
      "##onom": 5566,
      "##AR": 5567,
      "exe": 5568,
      "artic": 5569,
      "##ouvez": 5570,
      "##omb": 5571,
      "comment": 5572,
      "ci": 5573,
      "can": 5574,
      "recher": 5575,
      "##ateurs": 5576,
      "and": 5577,
      "50": 5578,
      "##ense": 5579,
      "aur": 5580,
      "##une": 5581,
      "##ore": 5582,
      "##illes": 5583,
      "##yp": 5584,
      "##pect": 5585,
      "hui": 5586,
      "##cri": 5587,
      "première": 5588,
      "télé": 5589,
      "Car": 5590,
      "prog": 5591,
      "liv": 5592,
      "chez": 5593,
      "dur": 5594,
      "hab": 5595,
      "##ivers": 5596,
      "propos": 5597,
      "##aî": 5598,
      "suis": 5599,
      "gar": 5600,
      "##mand": 5601,
      "année": 5602,
      "eur": 5603,
      "##ON": 5604,
      "ligne": 5605,
      "##ène": 5606,
      "public": 5607,
      "##ident": 5608,
      "##coup": 5609,
      "organis": 5610,
      "activ": 5611,
      "##ER": 5612,
      "##vice": 5613,
      "##ros": 5614,
      "mois": 5615,
      "##ia": 5616,
      "##ement": 5617,
      "##ect": 5618,
      "##ication": 5619,
      "déj": 5620,
      "syst": 5621,
      "##sionne": 5622,
      "##amment": 5623,
      "##ande": 5624,
      "faut": 5625,
      "##ta": 5626,
      "RE": 5627,
      "##uite": 5628,
      "lib": 5629,
      "##ites": 5630,
      "équipe": 5631,
      "##form": 5632,
      "##ds": 5633,
      "##rée": 5634,
      "##cur": 5635,
      "dom": 5636,
      "coup": 5637,
      "années": 5638,
      "eau": 5639,
      "##oix": 5640,
      "envir": 5641,
      "fond": 5642,
      "##ile": 5643,
      "##eb": 5644,
      "##olution": 5645,
      "ville": 5646,
      "lég": 5647,
      "##atique": 5648,
      "##dé": 5649,
      "##istes": 5650,
      "phot": 5651,
      "personnes": 5652,
      "peuvent": 5653,
      "princip": 5654,
      "J'": 5655,
      "##érie": 5656,
      "##orti": 5657,
      "##vé": 5658,
      "act": 5659,
      "Ét": 5660,
      "contra": 5661,
      "##ration": 5662,
      "li": 5663,
      "##ah": 5664,
      "##mande": 5665,
      "particu": 5666,
      "cours": 5667,
      "dou": 5668,
      "bi": 5669,
      "##tel": 5670,
      "24": 5671,
      "25": 5672,
      "supp": 5673,
      "beaucoup": 5674,
      "nation": 5675,
      "##rez": 5676,
      "mis": 5677,
      "##cul": 5678,
      "reg": 5679,
      "moi": 5680,
      "##ix": 5681,
      "nive": 5682,
      "chaque": 5683,
      "##ly": 5684,
      "dess": 5685,
      "##ôle": 5686,
      "élect": 5687,
      "moy": 5688,
      "##cle": 5689,
      "##ices": 5690,
      "##gn": 5691,
      "##seil": 5692,
      "bes": 5693,
      "voir": 5694,
      "sol": 5695,
      "##rique": 5696,
      "##bles": 5697,
      "parf": 5698,
      "##qué": 5699,
      "compte": 5700,
      "orig": 5701,
      "##vers": 5702,
      "serv": 5703,
      "».": 5704,
      "##erne": 5705,
      "afin": 5706,
      "##rir": 5707,
      "##uss": 5708,
      "jusqu'": 5709,
      "##iti": 5710,
      "##port": 5711,
      "doit": 5712,
      "##érences": 5713,
      "##cl": 5714,
      "Int": 5715,
      "nouveau": 5716,
      "##rés": 5717,
      "mom": 5718,
      "##ast": 5719,
      "professionne": 5720,
      "##osition": 5721,
      "##aissance": 5722,
      "qu’": 5723,
      "nature": 5724,
      "##ouvent": 5725,
      "cher": 5726,
      "sign": 5727,
      "éch": 5728,
      "ant": 5729,
      "fra": 5730,
      "vol": 5731,
      "##ed": 5732,
      "##oli": 5733,
      "grande": 5734,
      "##lex": 5735,
      "##ération": 5736,
      "##erie": 5737,
      "jours": 5738,
      "som": 5739,
      "##ulture": 5740,
      "Jean": 5741,
      "pra": 5742,
      "Se": 5743,
      "##gie": 5744,
      "Cl": 5745,
      "09": 5746,
      "##itre": 5747,
      "déjà": 5748,
      "##cien": 5749,
      "##ût": 5750,
      "ach": 5751,
      "quand": 5752,
      "plan": 5753,
      "dit": 5754,
      "hum": 5755,
      "##tra": 5756,
      "pouvez": 5757,
      "appel": 5758,
      "##ili": 5759,
      "avons": 5760,
      "exemple": 5761,
      "##ative": 5762,
      "##ach": 5763,
      "service": 5764,
      "##isme": 5765,
      "remp": 5766,
      "##sions": 5767,
      "grat": 5768,
      "##ologie": 5769,
      "cet": 5770,
      "suite": 5771,
      "##tifs": 5772,
      "Ne": 5773,
      "Ph": 5774,
      "##vre": 5775,
      "##ock": 5776,
      "pa": 5777,
      "##amb": 5778,
      "nouvelle": 5779,
      "23": 5780,
      "là": 5781,
      "groupe": 5782,
      "##rie": 5783,
      "nécess": 5784,
      "##éric": 5785,
      "##èle": 5786,
      "vrai": 5787,
      "tel": 5788,
      "##rier": 5789,
      "rap": 5790,
      "##aly": 5791,
      "##éb": 5792,
      "habit": 5793,
      "journ": 5794,
      "avez": 5795,
      "##ième": 5796,
      "économ": 5797,
      "représ": 5798,
      "ten": 5799,
      "##idé": 5800,
      "produits": 5801,
      "lieu": 5802,
      "qualité": 5803,
      "fut": 5804,
      "##cteur": 5805,
      "is": 5806,
      "##AN": 5807,
      "REF": 5808,
      "Ex": 5809,
      "##vient": 5810,
      "colle": 5811,
      "##anger": 5812,
      "##ud": 5813,
      "m'": 5814,
      "bou": 5815,
      "The": 5816,
      "##tres": 5817,
      "milli": 5818,
      "08": 5819,
      "##atif": 5820,
      "savoir": 5821,
      "##iller": 5822,
      "##jourd": 5823,
      "enfants": 5824,
      "##ueil": 5825,
      "##ann": 5826,
      "partir": 5827,
      "pendant": 5828,
      "##oph": 5829,
      "maison": 5830,
      "appar": 5831,
      "tour": 5832,
      "film": 5833,
      "selon": 5834,
      "##nce": 5835,
      "##érence": 5836,
      "##tien": 5837,
      "##ost": 5838,
      "##nent": 5839,
      "##contre": 5840,
      "rapport": 5841,
      "##ug": 5842,
      "chau": 5843,
      "niveau": 5844,
      "notamment": 5845,
      "##oires": 5846,
      "##éli": 5847,
      "##év": 5848,
      "##oris": 5849,
      "région": 5850,
      "##ditions": 5851,
      "##ager": 5852,
      "expéri": 5853,
      "##ry": 5854,
      "permett": 5855,
      "s’": 5856,
      "to": 5857,
      "##ype": 5858,
      "40": 5859,
      "pop": 5860,
      "char": 5861,
      "associ": 5862,
      "trop": 5863,
      "recherche": 5864,
      "##atri": 5865,
      "moment": 5866,
      "siè": 5867,
      "Mon": 5868,
      "##gl": 5869,
      "##éro": 5870,
      "ensemble": 5871,
      "01": 5872,
      "mise": 5873,
      "maint": 5874,
      "entreprise": 5875,
      "voy": 5876,
      "##erv": 5877,
      "##ras": 5878,
      "trouver": 5879,
      "assur": 5880,
      "##ribu": 5881,
      "##cture": 5882,
      "##anté": 5883,
      "##ographie": 5884,
      "sorti": 5885,
      "cv": 5886,
      "07": 5887,
      "sep": 5888,
      "n’": 5889,
      "06": 5890,
      "##era": 5891,
      "Me": 5892,
      "##érieur": 5893,
      "##vier": 5894,
      "cin": 5895,
      "eng": 5896,
      "données": 5897,
      "##ttes": 5898,
      "cal": 5899,
      "##ame": 5900,
      "mati": 5901,
      "##tal": 5902,
      "constru": 5903,
      "##iles": 5904,
      "##ori": 5905,
      "histoire": 5906,
      "forme": 5907,
      "dépar": 5908,
      "ici": 5909,
      "##ack": 5910,
      "##sement": 5911,
      "découv": 5912,
      "début": 5913,
      "##EN": 5914,
      "##âce": 5915,
      "système": 5916,
      "mot": 5917,
      "##otes": 5918,
      "##uc": 5919,
      "all": 5920,
      "contin": 5921,
      "mettre": 5922,
      "celui": 5923,
      "dém": 5924,
      "Eur": 5925,
      "popul": 5926,
      "##ax": 5927,
      "##entif": 5928,
      "elles": 5929,
      "##sez": 5930,
      "sécur": 5931,
      "sem": 5932,
      "pouvoir": 5933,
      "porte": 5934,
      "Bl": 5935,
      "\",": 5936,
      "##çon": 5937,
      "##TI": 5938,
      "intern": 5939,
      "##atis": 5940,
      "comb": 5941,
      "##ik": 5942,
      "##ception": 5943,
      "sub": 5944,
      "##lar": 5945,
      "cr": 5946,
      "article": 5947,
      "Sh": 5948,
      "dernier": 5949,
      "##oth": 5950,
      "program": 5951,
      "##ible": 5952,
      "Am": 5953,
      "##ira": 5954,
      "cô": 5955,
      "homme": 5956,
      "##hait": 5957,
      "##adi": 5958,
      "##ox": 5959,
      "resp": 5960,
      "prendre": 5961,
      "politique": 5962,
      "install": 5963,
      "rapide": 5964,
      "##ture": 5965,
      "compren": 5966,
      "souvent": 5967,
      "retr": 5968,
      "Comment": 5969,
      "chois": 5970,
      "péri": 5971,
      "##illet": 5972,
      "##enir": 5973,
      "souhait": 5974,
      "##crip": 5975,
      "##itaire": 5976,
      "##gé": 5977,
      "rou": 5978,
      "Cha": 5979,
      "fourn": 5980,
      "##ierre": 5981,
      "##lière": 5982,
      "famille": 5983,
      "mai": 5984,
      "##jec": 5985,
      "##ane": 5986,
      "##yn": 5987,
      "bonne": 5988,
      "anim": 5989,
      "##ret": 5990,
      "droit": 5991,
      "##lin": 5992,
      "##gent": 5993,
      "dist": 5994,
      "##érer": 5995,
      "log": 5996,
      "tant": 5997,
      "résult": 5998,
      "05": 5999,
      "ceux": 6000,
      "Or": 6001,
      "##ule": 6002,
      "question": 6003,
      "##vez": 6004,
      "possible": 6005,
      "dét": 6006,
      "##alités": 6007,
      "##éré": 6008,
      "##dif": 6009,
      "##assi": 6010,
      "Ces": 6011,
      "##oles": 6012,
      "sau": 6013,
      "fais": 6014,
      "##onnement": 6015,
      "particip": 6016,
      "mer": 6017,
      "hô": 6018,
      "fl": 6019,
      "reste": 6020,
      "rencontre": 6021,
      "##tier": 6022,
      "##amais": 6023,
      "##lément": 6024,
      "end": 6025,
      "ris": 6026,
      "er": 6027,
      "demande": 6028,
      "consi": 6029,
      "##istre": 6030,
      "##ome": 6031,
      "aj": 6032,
      "ple": 6033,
      "améric": 6034,
      "##UR": 6035,
      "men": 6036,
      "soi": 6037,
      "##orme": 6038,
      "num": 6039,
      "services": 6040,
      "##be": 6041,
      "représent": 6042,
      "mort": 6043,
      "prom": 6044,
      "##resse": 6045,
      "imm": 6046,
      "##ression": 6047,
      "Déc": 6048,
      "##èg": 6049,
      "mieux": 6050,
      "Après": 6051,
      "voit": 6052,
      "celle": 6053,
      "oc": 6054,
      "jamais": 6055,
      "eu": 6056,
      "gouver": 6057,
      "répon": 6058,
      "sour": 6059,
      "rien": 6060,
      "##illeurs": 6061,
      "##cid": 6062,
      "Ils": 6063,
      "sens": 6064,
      "Tr": 6065,
      "##ith": 6066,
      "04": 6067,
      "##lié": 6068,
      "Te": 6069,
      "lim": 6070,
      "vo": 6071,
      "étab": 6072,
      "##yant": 6073,
      "60": 6074,
      "EN": 6075,
      "##ront": 6076,
      "##ice": 6077,
      "##oh": 6078,
      "Mont": 6079,
      "arr": 6080,
      "ref": 6081,
      "aujourd": 6082,
      "br": 6083,
      "##ention": 6084,
      "##tenir": 6085,
      "face": 6086,
      "02": 6087,
      "type": 6088,
      "certains": 6089,
      "demand": 6090,
      "applic": 6091,
      "internation": 6092,
      "##ition": 6093,
      "société": 6094,
      "tot": 6095,
      "##ielle": 6096,
      "##oût": 6097,
      "##vée": 6098,
      "produit": 6099,
      "atten": 6100,
      "viv": 6101,
      "piè": 6102,
      "##tant": 6103,
      "##ril": 6104,
      "hau": 6105,
      "##vec": 6106,
      "##pendant": 6107,
      "##ting": 6108,
      "occ": 6109,
      "appro": 6110,
      "Sur": 6111,
      "adap": 6112,
      "26": 6113,
      "posi": 6114,
      "##éné": 6115,
      "vale": 6116,
      "bar": 6117,
      "##tout": 6118,
      "exter": 6119,
      "##opé": 6120,
      "us": 6121,
      "accomp": 6122,
      "##rant": 6123,
      "compos": 6124,
      "##ook": 6125,
      "03": 6126,
      "##ope": 6127,
      "choix": 6128,
      "##la": 6129,
      "80": 6130,
      "éner": 6131,
      "Es": 6132,
      "aide": 6133,
      "ali": 6134,
      "##ke": 6135,
      "##dit": 6136,
      "série": 6137,
      "##suite": 6138,
      "Can": 6139,
      "Cel": 6140,
      "dispon": 6141,
      "Ad": 6142,
      "##tite": 6143,
      "27": 6144,
      "vé": 6145,
      "##ionn": 6146,
      "formation": 6147,
      "président": 6148,
      "28": 6149,
      "développement": 6150,
      "ailleurs": 6151,
      "##gment": 6152,
      "oct": 6153,
      "##ienne": 6154,
      "informations": 6155,
      "fac": 6156,
      "Col": 6157,
      "Gran": 6158,
      "##ocu": 6159,
      "rédu": 6160,
      "analy": 6161,
      "##oins": 6162,
      "##//": 6163,
      "##lace": 6164,
      "besoin": 6165,
      "##enc": 6166,
      "##oration": 6167,
      "ur": 6168,
      "##IN": 6169,
      "htt": 6170,
      "conseil": 6171,
      "conne": 6172,
      "##uerre": 6173,
      "##IS": 6174,
      "D'": 6175,
      "##art": 6176,
      "Avec": 6177,
      "pris": 6178,
      "##rière": 6179,
      "##cup": 6180,
      "tex": 6181,
      "##eures": 6182,
      "://": 6183,
      "##aise": 6184,
      "##rage": 6185,
      "coule": 6186,
      "##anvier": 6187,
      "femme": 6188,
      "##lection": 6189,
      "indu": 6190,
      "nombreux": 6191,
      "##dra": 6192,
      "faci": 6193,
      "grâce": 6194,
      "##lie": 6195,
      "réc": 6196,
      "mode": 6197,
      "##ider": 6198,
      "commune": 6199,
      "base": 6200,
      "##xim": 6201,
      "trouve": 6202,
      "##ières": 6203,
      "##let": 6204,
      "maj": 6205,
      "vidé": 6206,
      "cir": 6207,
      "champ": 6208,
      "##ément": 6209,
      "santé": 6210,
      "bat": 6211,
      "Tout": 6212,
      "cadre": 6213,
      "##obre": 6214,
      "##vembre": 6215,
      "##tembre": 6216,
      "juin": 6217,
      "marché": 6218,
      "##oque": 6219,
      "sécurité": 6220,
      "œu": 6221,
      "##minist": 6222,
      "cat": 6223,
      "défin": 6224,
      "mob": 6225,
      "##rain": 6226,
      "respons": 6227,
      "rev": 6228,
      "culture": 6229,
      "lit": 6230,
      "##ime": 6231,
      "##lise": 6232,
      "mars": 6233,
      "surtout": 6234,
      "proc": 6235,
      "##asion": 6236,
      "mag": 6237,
      "ouvert": 6238,
      "préf": 6239,
      "Gu": 6240,
      "pol": 6241,
      "##lab": 6242,
      "travers": 6243,
      "##quoi": 6244,
      "mul": 6245,
      "##isation": 6246,
      "offre": 6247,
      "29": 6248,
      "##atre": 6249,
      "##idi": 6250,
      "\".": 6251,
      "jeunes": 6252,
      "vraiment": 6253,
      "##abilité": 6254,
      "pens": 6255,
      "##RE": 6256,
      "##téri": 6257,
      "##loi": 6258,
      "##illage": 6259,
      "temp": 6260,
      "##duc": 6261,
      "différents": 6262,
      "vari": 6263,
      "agit": 6264,
      "thé": 6265,
      "90": 6266,
      "ress": 6267,
      "##ind": 6268,
      "simp": 6269,
      "##ip": 6270,
      "Ju": 6271,
      "traite": 6272,
      "sujet": 6273,
      "##vention": 6274,
      "##aces": 6275,
      "cou": 6276,
      "titre": 6277,
      "général": 6278,
      "##roy": 6279,
      "centre": 6280,
      "intég": 6281,
      "##eurs": 6282,
      "seulement": 6283,
      "manière": 6284,
      "près": 6285,
      "inv": 6286,
      "femmes": 6287,
      "matéri": 6288,
      "utilisation": 6289,
      "##gré": 6290,
      "abs": 6291,
      "contr": 6292,
      "##cembre": 6293,
      "##ié": 6294,
      "veu": 6295,
      "ST": 6296,
      "##alisation": 6297,
      "change": 6298,
      "objec": 6299,
      "heure": 6300,
      "Gr": 6301,
      "fab": 6302,
      "##entes": 6303,
      "hy": 6304,
      "pu": 6305,
      "##ze": 6306,
      "janvier": 6307,
      "##enant": 6308,
      "!!": 6309,
      "étaient": 6310,
      "saison": 6311,
      "##fs": 6312,
      "table": 6313,
      "DE": 6314,
      "univers": 6315,
      "##aul": 6316,
      "##ossi": 6317,
      "##tez": 6318,
      "post": 6319,
      "sais": 6320,
      "##alle": 6321,
      "##cont": 6322,
      "disc": 6323,
      "effect": 6324,
      "Notes": 6325,
      "etc": 6326,
      "parc": 6327,
      "##nel": 6328,
      "bois": 6329,
      "gen": 6330,
      "##ones": 6331,
      "autom": 6332,
      "##eter": 6333,
      "rece": 6334,
      "objet": 6335,
      "serr": 6336,
      "31": 6337,
      "novembre": 6338,
      "septembre": 6339,
      "simple": 6340,
      "##son": 6341,
      "propose": 6342,
      "chose": 6343,
      "##gu": 6344,
      "unique": 6345,
      "Bar": 6346,
      "corps": 6347,
      "références": 6348,
      "##tenu": 6349,
      "cri": 6350,
      "mesure": 6351,
      "côté": 6352,
      "Char": 6353,
      "lang": 6354,
      "##met": 6355,
      "##nez": 6356,
      "petite": 6357,
      "super": 6358,
      "octobre": 6359,
      "##elles": 6360,
      "Cor": 6361,
      "##ensi": 6362,
      "eux": 6363,
      "europé": 6364,
      "puiss": 6365,
      "Plus": 6366,
      "abord": 6367,
      "utiliser": 6368,
      "##erm": 6369,
      "##land": 6370,
      "##utes": 6371,
      "inté": 6372,
      "état": 6373,
      "No": 6374,
      "camp": 6375,
      "façon": 6376,
      "Du": 6377,
      "Comp": 6378,
      "ord": 6379,
      "70": 6380,
      "##mbl": 6381,
      "but": 6382,
      "val": 6383,
      "fort": 6384,
      "##cription": 6385,
      "##ses": 6386,
      "Que": 6387,
      "propri": 6388,
      "App": 6389,
      "charge": 6390,
      "ayant": 6391,
      "effic": 6392,
      "sent": 6393,
      "Pe": 6394,
      "Ma": 6395,
      "Pri": 6396,
      "augment": 6397,
      "seul": 6398,
      "accord": 6399,
      "##icile": 6400,
      "font": 6401,
      "##cun": 6402,
      "laiss": 6403,
      "##II": 6404,
      "béné": 6405,
      "Sa": 6406,
      "avis": 6407,
      "décembre": 6408,
      "rom": 6409,
      "##mment": 6410,
      "atte": 6411,
      "##igure": 6412,
      "travaux": 6413,
      "Son": 6414,
      "##ète": 6415,
      "Europe": 6416,
      "Mal": 6417,
      "rencont": 6418,
      "vue": 6419,
      "étudi": 6420,
      "raison": 6421,
      "##ences": 6422,
      "heures": 6423,
      "L’": 6424,
      "administ": 6425,
      "cuis": 6426,
      "territ": 6427,
      "##mée": 6428,
      "##âte": 6429,
      "##agement": 6430,
      "##pl": 6431,
      "expérience": 6432,
      "##til": 6433,
      "passer": 6434,
      "élé": 6435,
      "artis": 6436,
      "##ww": 6437,
      "##io": 6438,
      "##ive": 6439,
      "##LE": 6440,
      "indust": 6441,
      "compé": 6442,
      "dès": 6443,
      "##érique": 6444,
      "prov": 6445,
      "écrit": 6446,
      "sommes": 6447,
      "##uellement": 6448,
      "Man": 6449,
      "opp": 6450,
      "##TE": 6451,
      "avril": 6452,
      "##ils": 6453,
      "parce": 6454,
      "reven": 6455,
      "juillet": 6456,
      "##anci": 6457,
      "inves": 6458,
      "règ": 6459,
      "gestion": 6460,
      "##usion": 6461,
      "##lème": 6462,
      "##rais": 6463,
      "##aître": 6464,
      "entreprises": 6465,
      "docu": 6466,
      "##ètres": 6467,
      "##cre": 6468,
      "##orer": 6469,
      "##mission": 6470,
      "doi": 6471,
      "occasion": 6472,
      "passe": 6473,
      "##ity": 6474,
      "externes": 6475,
      "seront": 6476,
      "mondi": 6477,
      "reconn": 6478,
      "rem": 6479,
      "consid": 6480,
      "production": 6481,
      "##acité": 6482,
      "bénéf": 6483,
      "##ase": 6484,
      "##bilité": 6485,
      "alle": 6486,
      "second": 6487,
      "##ict": 6488,
      "assez": 6489,
      "35": 6490,
      "www": 6491,
      "##mbres": 6492,
      "plu": 6493,
      "##dez": 6494,
      "Pub": 6495,
      "quatre": 6496,
      "nouvelles": 6497,
      "large": 6498,
      "équip": 6499,
      "Liens": 6500,
      "##ysi": 6501,
      "êtes": 6502,
      "tourn": 6503,
      "45": 6504,
      "Ren": 6505,
      "##quent": 6506,
      "##ital": 6507,
      "Ab": 6508,
      "concern": 6509,
      "Ent": 6510,
      "gouvernement": 6511,
      "km": 6512,
      "environ": 6513,
      "##nelle": 6514,
      "différentes": 6515,
      "améli": 6516,
      "##aliste": 6517,
      "##lièrement": 6518,
      "Ant": 6519,
      "emb": 6520,
      "suff": 6521,
      "##oses": 6522,
      "##ton": 6523,
      "##itation": 6524,
      "problème": 6525,
      "aller": 6526,
      "air": 6527,
      "##ologique": 6528,
      "....": 6529,
      "meilleur": 6530,
      "cer": 6531,
      "##reg": 6532,
      "semble": 6533,
      "situation": 6534,
      "##iche": 6535,
      "##ards": 6536,
      "Is": 6537,
      "loi": 6538,
      "Acc": 6539,
      "##aît": 6540,
      "conte": 6541,
      "##évrier": 6542,
      "conditions": 6543,
      "##uni": 6544,
      "retour": 6545,
      "haut": 6546,
      "siècle": 6547,
      "##tection": 6548,
      "feu": 6549,
      "##ourg": 6550,
      "méth": 6551,
      "tes": 6552,
      "important": 6553,
      "##seur": 6554,
      "##line": 6555,
      "##...": 6556,
      "##acté": 6557,
      "##sy": 6558,
      "dernière": 6559,
      "tête": 6560,
      "##aï": 6561,
      "étant": 6562,
      "soir": 6563,
      "française": 6564,
      "##ision": 6565,
      "Tra": 6566,
      "serait": 6567,
      "##ART": 6568,
      "sci": 6569,
      "cy": 6570,
      "##vision": 6571,
      "activité": 6572,
      "entra": 6573,
      "Pre": 6574,
      "modif": 6575,
      "As": 6576,
      "Av": 6577,
      "Aut": 6578,
      "points": 6579,
      "direc": 6580,
      "donne": 6581,
      "livre": 6582,
      "gratuit": 6583,
      "Ser": 6584,
      "Unis": 6585,
      "aliment": 6586,
      "jeune": 6587,
      "be": 6588,
      "collec": 6589,
      "Lors": 6590,
      "##oot": 6591,
      "Rép": 6592,
      "action": 6593,
      "condu": 6594,
      "##onde": 6595,
      "espace": 6596,
      "accès": 6597,
      "obser": 6598,
      "##air": 6599,
      "arch": 6600,
      "c’": 6601,
      "Pierre": 6602,
      "##af": 6603,
      "explo": 6604,
      "##val": 6605,
      "divers": 6606,
      "mach": 6607,
      "période": 6608,
      "##tient": 6609,
      "vit": 6610,
      "##net": 6611,
      "##erts": 6612,
      "consomm": 6613,
      "Mich": 6614,
      "Voir": 6615,
      "devant": 6616,
      "origine": 6617,
      "Bon": 6618,
      "ensuite": 6619,
      "##tim": 6620,
      "##rop": 6621,
      "vac": 6622,
      "##ets": 6623,
      "atta": 6624,
      "lorsque": 6625,
      "##yle": 6626,
      "sh": 6627,
      "minutes": 6628,
      "parfait": 6629,
      "Di": 6630,
      "art": 6631,
      "##once": 6632,
      "environnement": 6633,
      "proch": 6634,
      "pratique": 6635,
      "donner": 6636,
      "clients": 6637,
      "sup": 6638,
      "histor": 6639,
      "Pas": 6640,
      "##ber": 6641,
      "propre": 6642,
      "norm": 6643,
      "classe": 6644,
      "hommes": 6645,
      "Ac": 6646,
      "##quel": 6647,
      "Ou": 6648,
      "##tation": 6649,
      "pie": 6650,
      "semaine": 6651,
      "##pec": 6652,
      "voyage": 6653,
      "médi": 6654,
      "##outer": 6655,
      "euros": 6656,
      "stru": 6657,
      "autour": 6658,
      "##app": 6659,
      "Ass": 6660,
      "programme": 6661,
      "juste": 6662,
      "guerre": 6663,
      "prév": 6664,
      "enfant": 6665,
      "New": 6666,
      "##ardin": 6667,
      "initi": 6668,
      "##arm": 6669,
      "##dio": 6670,
      "ton": 6671,
      "##né": 6672,
      "##œur": 6673,
      "équ": 6674,
      "Sp": 6675,
      "modèle": 6676,
      "Cela": 6677,
      "quant": 6678,
      "##oti": 6679,
      "##oun": 6680,
      "Comme": 6681,
      "membres": 6682,
      "##can": 6683,
      "nombreuses": 6684,
      "février": 6685,
      "##orie": 6686,
      "##atiques": 6687,
      "page": 6688,
      "##der": 6689,
      "origin": 6690,
      "##lir": 6691,
      "##igh": 6692,
      "plut": 6693,
      "poi": 6694,
      "marque": 6695,
      "pati": 6696,
      "fau": 6697,
      "rôle": 6698,
      "garant": 6699,
      "##ote": 6700,
      "Bel": 6701,
      "##atoire": 6702,
      "##tent": 6703,
      "Sy": 6704,
      "##èmes": 6705,
      "Af": 6706,
      "reç": 6707,
      "pense": 6708,
      "toi": 6709,
      "sein": 6710,
      "##OU": 6711,
      "##iciel": 6712,
      "vu": 6713,
      "##atives": 6714,
      "##phone": 6715,
      "bâ": 6716,
      "vendre": 6717,
      "pourrait": 6718,
      "sû": 6719,
      "Hist": 6720,
      "##loy": 6721,
      "millions": 6722,
      "##ouse": 6723,
      "##tives": 6724,
      "couv": 6725,
      "sélection": 6726,
      "parten": 6727,
      "##ides": 6728,
      "##ibles": 6729,
      "destin": 6730,
      "sus": 6731,
      "réseau": 6732,
      "moyen": 6733,
      "ancien": 6734,
      "##èse": 6735,
      "##iz": 6736,
      "##orité": 6737,
      "présente": 6738,
      "##resp": 6739,
      "quoi": 6740,
      "autant": 6741,
      "voul": 6742,
      "médic": 6743,
      "##gement": 6744,
      "END": 6745,
      "##usse": 6746,
      "résultats": 6747,
      "intér": 6748,
      "Ge": 6749,
      "existe": 6750,
      "activités": 6751,
      "##did": 6752,
      "##nov": 6753,
      "stra": 6754,
      "##ada": 6755,
      "##cin": 6756,
      "START": 6757,
      "Cent": 6758,
      "cm": 6759,
      "##alent": 6760,
      "##ambre": 6761,
      "##action": 6762,
      "##cine": 6763,
      "pan": 6764,
      "Artic": 6765,
      "lum": 6766,
      "commenc": 6767,
      "main": 6768,
      "salle": 6769,
      "vente": 6770,
      "##iver": 6771,
      "étran": 6772,
      "##ork": 6773,
      "États": 6774,
      "##ancer": 6775,
      "argent": 6776,
      "enc": 6777,
      "traitement": 6778,
      "##ulaire": 6779,
      "août": 6780,
      "regard": 6781,
      "essent": 6782,
      "commerci": 6783,
      "Go": 6784,
      "##iance": 6785,
      "déclar": 6786,
      "mess": 6787,
      "appare": 6788,
      "mari": 6789,
      "prépar": 6790,
      "chauff": 6791,
      ".,": 6792,
      "##iser": 6793,
      "aucun": 6794,
      "Lou": 6795,
      "carte": 6796,
      "oblig": 6797,
      "maintenant": 6798,
      "32": 6799,
      "##ède": 6800,
      "vidéo": 6801,
      "##bum": 6802,
      "##isc": 6803,
      "angl": 6804,
      "club": 6805,
      "gé": 6806,
      "##AL": 6807,
      "gu": 6808,
      "##alif": 6809,
      "resta": 6810,
      "deuxième": 6811,
      "plutôt": 6812,
      "amb": 6813,
      "Be": 6814,
      "net": 6815,
      "##ral": 6816,
      "cit": 6817,
      "##lac": 6818,
      "étude": 6819,
      "Est": 6820,
      "Notre": 6821,
      "##duction": 6822,
      "multi": 6823,
      "version": 6824,
      "##rom": 6825,
      "trouv": 6826,
      "tri": 6827,
      "36": 6828,
      "quelque": 6829,
      "##médi": 6830,
      "##odes": 6831,
      "fai": 6832,
      "Ag": 6833,
      "nouveaux": 6834,
      "prise": 6835,
      "99": 6836,
      "création": 6837,
      "nécessaire": 6838,
      "vér": 6839,
      "##AS": 6840,
      "##issement": 6841,
      "gros": 6842,
      "journée": 6843,
      "liste": 6844,
      "##auv": 6845,
      "##lant": 6846,
      "conv": 6847,
      "restaur": 6848,
      "33": 6849,
      "process": 6850,
      "longue": 6851,
      "physi": 6852,
      "corresp": 6853,
      "..": 6854,
      "aider": 6855,
      "##uve": 6856,
      "##anche": 6857,
      "mouve": 6858,
      "##ash": 6859,
      "##ki": 6860,
      "##rice": 6861,
      "quar": 6862,
      "application": 6863,
      "proté": 6864,
      "##ulation": 6865,
      "CO": 6866,
      "consé": 6867,
      "##ablement": 6868,
      "##actéris": 6869,
      "##quelle": 6870,
      "constitu": 6871,
      "parfois": 6872,
      "nég": 6873,
      "##obil": 6874,
      "information": 6875,
      "##rendre": 6876,
      "intérieur": 6877,
      "musique": 6878,
      "##icie": 6879,
      "anci": 6880,
      "technique": 6881,
      "##),": 6882,
      "Naissance": 6883,
      "##part": 6884,
      "respect": 6885,
      "rac": 6886,
      "Br": 6887,
      "##usement": 6888,
      "succ": 6889,
      "terme": 6890,
      "jeux": 6891,
      "Mus": 6892,
      "sud": 6893,
      "tard": 6894,
      "rend": 6895,
      "tar": 6896,
      "accep": 6897,
      "peint": 6898,
      "Co": 6899,
      "établis": 6900,
      "Comm": 6901,
      "Rés": 6902,
      "##orce": 6903,
      "web": 6904,
      "image": 6905,
      "##cune": 6906,
      "pot": 6907,
      "##ini": 6908,
      "##tr": 6909,
      "##stra": 6910,
      "laquelle": 6911,
      "intéress": 6912,
      "##oser": 6913,
      "##rient": 6914,
      "petits": 6915,
      "##AC": 6916,
      "domaine": 6917,
      "rapidement": 6918,
      "75": 6919,
      "##amp": 6920,
      "élè": 6921,
      "##ony": 6922,
      "cause": 6923,
      "bout": 6924,
      "##liers": 6925,
      "perform": 6926,
      "##face": 6927,
      "valeur": 6928,
      "chac": 6929,
      "##char": 6930,
      "Bien": 6931,
      "visite": 6932,
      "gens": 6933,
      "énergie": 6934,
      "##oyer": 6935,
      "certaines": 6936,
      "risque": 6937,
      "signif": 6938,
      "parent": 6939,
      "##of": 6940,
      "taille": 6941,
      "And": 6942,
      "créer": 6943,
      "##fois": 6944,
      "seule": 6945,
      "##).": 6946,
      "belle": 6947,
      "département": 6948,
      "Cont": 6949,
      "aurait": 6950,
      "nationale": 6951,
      "##aisse": 6952,
      "##rées": 6953,
      "##dien": 6954,
      "Alors": 6955,
      "neu": 6956,
      "doivent": 6957,
      "Nouve": 6958,
      "grands": 6959,
      "sites": 6960,
      "emploi": 6961,
      "].": 6962,
      "aim": 6963,
      "prend": 6964,
      "ques": 6965,
      "rue": 6966,
      "match": 6967,
      "##tées": 6968,
      "##vid": 6969,
      "idée": 6970,
      "plate": 6971,
      "école": 6972,
      "spécif": 6973,
      "financi": 6974,
      "##ess": 6975,
      "aime": 6976,
      "##ël": 6977,
      "##oud": 6978,
      "##mo": 6979,
      "procéd": 6980,
      "lo": 6981,
      "##he": 6982,
      "typ": 6983,
      "##rale": 6984,
      "rév": 6985,
      "##celle": 6986,
      "   ": 6987,
      "questions": 6988,
      "client": 6989,
      "photos": 6990,
      "Mer": 6991,
      "entraî": 6992,
      "choses": 6993,
      "ordre": 6994,
      "transport": 6995,
      "correspond": 6996,
      "études": 6997,
      "Merci": 6998,
      "sac": 6999,
      "Sal": 7000,
      "pap": 7001,
      "État": 7002,
      "chef": 7003,
      "tend": 7004,
      "pourquoi": 7005,
      "construction": 7006,
      "##ina": 7007,
      "##étique": 7008,
      "##sych": 7009,
      "##tie": 7010,
      "##oine": 7011,
      "##ates": 7012,
      "particulier": 7013,
      "répar": 7014,
      "Fil": 7015,
      "réser": 7016,
      "devient": 7017,
      "trava": 7018,
      "Esp": 7019,
      "méde": 7020,
      "##auche": 7021,
      "plais": 7022,
      "obtenir": 7023,
      "##oici": 7024,
      "Rob": 7025,
      "accueil": 7026,
      "##OR": 7027,
      "##iennent": 7028,
      "passé": 7029,
      "##ude": 7030,
      "ministre": 7031,
      "ap": 7032,
      "##ibli": 7033,
      "compar": 7034,
      "œuvre": 7035,
      "solution": 7036,
      "fix": 7037,
      "ban": 7038,
      "##onnes": 7039,
      "Ter": 7040,
      "mê": 7041,
      "quoti": 7042,
      "sex": 7043,
      "national": 7044,
      "##ute": 7045,
      "##ient": 7046,
      "##ève": 7047,
      "##cident": 7048,
      "##men": 7049,
      "processus": 7050,
      "Per": 7051,
      "démar": 7052,
      "##rou": 7053,
      "##aw": 7054,
      "sim": 7055,
      "##ick": 7056,
      "Ang": 7057,
      "##itaires": 7058,
      "matière": 7059,
      "date": 7060,
      "complè": 7061,
      "Alle": 7062,
      "##rence": 7063,
      "##tine": 7064,
      "##çois": 7065,
      "##len": 7066,
      "photo": 7067,
      "##orter": 7068,
      "##oupes": 7069,
      "protection": 7070,
      "##ino": 7071,
      "straté": 7072,
      "##orts": 7073,
      "fils": 7074,
      "nuit": 7075,
      "##aume": 7076,
      "fille": 7077,
      "Post": 7078,
      "##aud": 7079,
      "##uels": 7080,
      "taux": 7081,
      "##agner": 7082,
      "indé": 7083,
      "cherche": 7084,
      "contrôle": 7085,
      "##tivement": 7086,
      "##auté": 7087,
      "Ainsi": 7088,
      "déci": 7089,
      "idé": 7090,
      "##quant": 7091,
      "dessus": 7092,
      "vient": 7093,
      "##ape": 7094,
      "anti": 7095,
      "##cessi": 7096,
      "enreg": 7097,
      "fav": 7098,
      "##cipe": 7099,
      "##hic": 7100,
      "##iff": 7101,
      "tomb": 7102,
      "##IC": 7103,
      "terre": 7104,
      "poss": 7105,
      "ment": 7106,
      "Univers": 7107,
      "##cer": 7108,
      "##indre": 7109,
      "##alog": 7110,
      "maî": 7111,
      "Réf": 7112,
      "Conseil": 7113,
      "##ys": 7114,
      "droits": 7115,
      "##els": 7116,
      "classi": 7117,
      "découvrir": 7118,
      "population": 7119,
      "fré": 7120,
      "##lam": 7121,
      "##cier": 7122,
      "34": 7123,
      "##olutions": 7124,
      "rendre": 7125,
      "projets": 7126,
      "position": 7127,
      "##ana": 7128,
      "##ribution": 7129,
      "commer": 7130,
      "éléments": 7131,
      "##iez": 7132,
      "veut": 7133,
      "##éc": 7134,
      "##apon": 7135,
      "##ek": 7136,
      "##quée": 7137,
      "connex": 7138,
      "blanc": 7139,
      "44": 7140,
      "##èles": 7141,
      "Depuis": 7142,
      "##stes": 7143,
      "ème": 7144,
      "##igue": 7145,
      "Sch": 7146,
      "père": 7147,
      "##iner": 7148,
      "bâti": 7149,
      "##neur": 7150,
      "loin": 7151,
      "frais": 7152,
      "évé": 7153,
      "auprès": 7154,
      "Bi": 7155,
      "secteur": 7156,
      "##èrent": 7157,
      "Mo": 7158,
      "##gique": 7159,
      "candid": 7160,
      "Grand": 7161,
      "conse": 7162,
      "bal": 7163,
      "##ma": 7164,
      "époque": 7165,
      "##endre": 7166,
      "âge": 7167,
      "##ots": 7168,
      "compagn": 7169,
      "##up": 7170,
      "##éma": 7171,
      "tradition": 7172,
      "nord": 7173,
      "tent": 7174,
      "##ppe": 7175,
      "##ell": 7176,
      "utilisé": 7177,
      "##lèmes": 7178,
      "##ave": 7179,
      "##étés": 7180,
      "##oure": 7181,
      "48": 7182,
      "##roit": 7183,
      "album": 7184,
      "noir": 7185,
      "américain": 7186,
      "##lue": 7187,
      "mm": 7188,
      "oub": 7189,
      "montre": 7190,
      "##ignes": 7191,
      "durant": 7192,
      "95": 7193,
      "##IT": 7194,
      "travaille": 7195,
      "##istance": 7196,
      "diffic": 7197,
      "aura": 7198,
      "Gar": 7199,
      "##prit": 7200,
      "collab": 7201,
      "anglais": 7202,
      "Ins": 7203,
      "priv": 7204,
      "zone": 7205,
      "##termin": 7206,
      "Fin": 7207,
      "aucune": 7208,
      "François": 7209,
      "##lus": 7210,
      "##quis": 7211,
      "espè": 7212,
      "clim": 7213,
      "##onie": 7214,
      "extéri": 7215,
      "village": 7216,
      "Nord": 7217,
      "dég": 7218,
      "blog": 7219,
      "objectif": 7220,
      "##tiers": 7221,
      "##oie": 7222,
      "réun": 7223,
      "compris": 7224,
      "##ince": 7225,
      "pièces": 7226,
      "civ": 7227,
      "##dia": 7228,
      "opéra": 7229,
      "besoins": 7230,
      "##dis": 7231,
      "économique": 7232,
      "caractéris": 7233,
      "serrur": 7234,
      "spect": 7235,
      "##ué": 7236,
      "cinq": 7237,
      "##tern": 7238,
      "##IL": 7239,
      "genre": 7240,
      "##ck": 7241,
      "##ume": 7242,
      "38": 7243,
      "##yth": 7244,
      "syn": 7245,
      "professionnels": 7246,
      "organisation": 7247,
      "##EL": 7248,
      "##ouss": 7249,
      "##sionn": 7250,
      "tit": 7251,
      "précéd": 7252,
      "##nte": 7253,
      "55": 7254,
      "##iment": 7255,
      "problèmes": 7256,
      "attend": 7257,
      "mét": 7258,
      "chant": 7259,
      "##orde": 7260,
      "##ays": 7261,
      "éval": 7262,
      "bord": 7263,
      "##ano": 7264,
      "42": 7265,
      "milieu": 7266,
      "route": 7267,
      "professionnel": 7268,
      "présence": 7269,
      "parmi": 7270,
      "http": 7271,
      "lire": 7272,
      "gam": 7273,
      "Joh": 7274,
      "##érieure": 7275,
      "39": 7276,
      "Selon": 7277,
      "cuisine": 7278,
      "Marie": 7279,
      "style": 7280,
      "Sud": 7281,
      "grandes": 7282,
      "identif": 7283,
      "##iné": 7284,
      "US": 7285,
      "iss": 7286,
      "facile": 7287,
      "entrée": 7288,
      "deven": 7289,
      "capit": 7290,
      "jur": 7291,
      "##lacement": 7292,
      "analyse": 7293,
      "plein": 7294,
      "##OS": 7295,
      "articles": 7296,
      "del": 7297,
      "##lent": 7298,
      "scène": 7299,
      "direction": 7300,
      "##chés": 7301,
      "37": 7302,
      "##lob": 7303,
      "sort": 7304,
      "Ob": 7305,
      "##stru": 7306,
      "voiture": 7307,
      "appré": 7308,
      "##téra": 7309,
      "##ources": 7310,
      "##roid": 7311,
      "97": 7312,
      "recomm": 7313,
      "##ades": 7314,
      "##ousse": 7315,
      "catég": 7316,
      "donné": 7317,
      "!!!": 7318,
      "avais": 7319,
      "essay": 7320,
      "via": 7321,
      "agré": 7322,
      "rais": 7323,
      "publi": 7324,
      "sortie": 7325,
      "fle": 7326,
      "##tice": 7327,
      "##att": 7328,
      "écri": 7329,
      "##rog": 7330,
      "véhic": 7331,
      "rej": 7332,
      "bo": 7333,
      "document": 7334,
      "rob": 7335,
      "fabric": 7336,
      "Jac": 7337,
      "plupart": 7338,
      "ve": 7339,
      "employ": 7340,
      "écl": 7341,
      "psych": 7342,
      "##ars": 7343,
      "Cons": 7344,
      "##âteau": 7345,
      "Entre": 7346,
      "##inte": 7347,
      "régu": 7348,
      "directement": 7349,
      "##itez": 7350,
      "##ivre": 7351,
      "##oux": 7352,
      "libre": 7353,
      "pil": 7354,
      "fé": 7355,
      "##vres": 7356,
      "simplement": 7357,
      "LE": 7358,
      "réponse": 7359,
      "Champ": 7360,
      "techniques": 7361,
      "choisir": 7362,
      "##AT": 7363,
      "meilleure": 7364,
      "Ber": 7365,
      "rent": 7366,
      "Cour": 7367,
      "plaisir": 7368,
      "social": 7369,
      "gaz": 7370,
      "scientif": 7371,
      "Pr": 7372,
      "'s": 7373,
      "territoire": 7374,
      "pat": 7375,
      "##ennes": 7376,
      "hôtel": 7377,
      "lien": 7378,
      "Accueil": 7379,
      "Op": 7380,
      "##raient": 7381,
      "individ": 7382,
      "investis": 7383,
      "couleur": 7384,
      "avaient": 7385,
      "auteur": 7386,
      "industri": 7387,
      "gratuite": 7388,
      "##TION": 7389,
      "by": 7390,
      "##rec": 7391,
      "départ": 7392,
      "premiers": 7393,
      "disposi": 7394,
      "symp": 7395,
      "##âtre": 7396,
      "mic": 7397,
      "##gne": 7398,
      "sûr": 7399,
      "##veur": 7400,
      "##êts": 7401,
      "bure": 7402,
      "##uide": 7403,
      "commande": 7404,
      "parler": 7405,
      "##esse": 7406,
      "Prix": 7407,
      "##uelles": 7408,
      "Prés": 7409,
      "Ver": 7410,
      "##ara": 7411,
      "##inc": 7412,
      "##osé": 7413,
      "vont": 7414,
      "contac": 7415,
      "Port": 7416,
      "For": 7417,
      "direct": 7418,
      "He": 7419,
      "Quel": 7420,
      "41": 7421,
      "##ection": 7422,
      "##we": 7423,
      "ta": 7424,
      "intérêt": 7425,
      "renf": 7426,
      "extra": 7427,
      "adresse": 7428,
      "##tils": 7429,
      "mère": 7430,
      "##gue": 7431,
      "Ann": 7432,
      "termin": 7433,
      "détail": 7434,
      "##orté": 7435,
      "stock": 7436,
      "Val": 7437,
      "lut": 7438,
      "##ha": 7439,
      "##érif": 7440,
      "##vie": 7441,
      "maxim": 7442,
      "fi": 7443,
      "Ben": 7444,
      "texte": 7445,
      "éviter": 7446,
      "excelle": 7447,
      "utilise": 7448,
      "##ducation": 7449,
      "##AM": 7450,
      "fich": 7451,
      "##titude": 7452,
      "##idence": 7453,
      "personnel": 7454,
      "El": 7455,
      "##ament": 7456,
      "##nements": 7457,
      "force": 7458,
      "Figure": 7459,
      "particulièrement": 7460,
      "Roy": 7461,
      "##cole": 7462,
      "édition": 7463,
      "transf": 7464,
      "cœur": 7465,
      "moyenne": 7466,
      "ordin": 7467,
      "soli": 7468,
      "##uire": 7469,
      "matin": 7470,
      "##yc": 7471,
      "transform": 7472,
      "chambre": 7473,
      "installation": 7474,
      "cu": 7475,
      "lequel": 7476,
      "##ènes": 7477,
      "##ernet": 7478,
      "celles": 7479,
      "##rite": 7480,
      "Louis": 7481,
      "achat": 7482,
      "Mé": 7483,
      "##ootb": 7484,
      "mêmes": 7485,
      "association": 7486,
      "##book": 7487,
      "Lib": 7488,
      "précis": 7489,
      "jardin": 7490,
      "amour": 7491,
      "situé": 7492,
      "Cependant": 7493,
      "##ètre": 7494,
      "ami": 7495,
      "code": 7496,
      "Lire": 7497,
      "succès": 7498,
      "affaires": 7499,
      "pours": 7500,
      "Jeu": 7501,
      "##asseur": 7502,
      "plac": 7503,
      "##illon": 7504,
      "##cal": 7505,
      "confort": 7506,
      "relation": 7507,
      "##pend": 7508,
      "Canada": 7509,
      "tempéra": 7510,
      "##tition": 7511,
      "annonce": 7512,
      "##ocra": 7513,
      "##itable": 7514,
      "concernant": 7515,
      "broy": 7516,
      "Act": 7517,
      "##da": 7518,
      "nu": 7519,
      "Film": 7520,
      "comprendre": 7521,
      "##omme": 7522,
      "détermin": 7523,
      "permis": 7524,
      "92": 7525,
      "Dieu": 7526,
      "difficile": 7527,
      "ast": 7528,
      "enfin": 7529,
      "##crit": 7530,
      "fru": 7531,
      "##uation": 7532,
      "haute": 7533,
      "Pré": 7534,
      "sav": 7535,
      "##ormais": 7536,
      "qualif": 7537,
      "magn": 7538,
      "terrain": 7539,
      "##uy": 7540,
      "43": 7541,
      "réaliser": 7542,
      "##ieur": 7543,
      "internet": 7544,
      "confir": 7545,
      "efficace": 7546,
      "disponible": 7547,
      "98": 7548,
      "##ige": 7549,
      "cam": 7550,
      "51": 7551,
      "##unicip": 7552,
      "Histoire": 7553,
      "Bou": 7554,
      "chacun": 7555,
      "chale": 7556,
      "croiss": 7557,
      "Pers": 7558,
      "class": 7559,
      "##lor": 7560,
      "j’": 7561,
      "##gence": 7562,
      "gard": 7563,
      "Soci": 7564,
      "##uré": 7565,
      "##avant": 7566,
      "souff": 7567,
      "##ublique": 7568,
      "san": 7569,
      "immobil": 7570,
      "##enn": 7571,
      "command": 7572,
      "Conc": 7573,
      "cé": 7574,
      "##charger": 7575,
      "nav": 7576,
      "contact": 7577,
      "communication": 7578,
      "doute": 7579,
      "pou": 7580,
      "permettre": 7581,
      "comporte": 7582,
      "acheter": 7583,
      "durée": 7584,
      "vois": 7585,
      "##ows": 7586,
      "vent": 7587,
      "##ross": 7588,
      "imag": 7589,
      "jouer": 7590,
      "double": 7591,
      "meilleurs": 7592,
      "relig": 7593,
      "##fait": 7594,
      "##abil": 7595,
      "assurer": 7596,
      "Dis": 7597,
      "##ka": 7598,
      "##nces": 7599,
      "Télé": 7600,
      "parents": 7601,
      "viole": 7602,
      "https": 7603,
      "##ications": 7604,
      "Cap": 7605,
      "Bas": 7606,
      "chemin": 7607,
      "épis": 7608,
      "mouvement": 7609,
      "##och": 7610,
      "Tous": 7611,
      "##venir": 7612,
      "contrat": 7613,
      "esprit": 7614,
      "##estiv": 7615,
      "Publié": 7616,
      "poste": 7617,
      "gauche": 7618,
      "mots": 7619,
      "91": 7620,
      "référence": 7621,
      "manif": 7622,
      "65": 7623,
      "##udi": 7624,
      "##ere": 7625,
      "administra": 7626,
      "49": 7627,
      "sociale": 7628,
      "Décès": 7629,
      "politiques": 7630,
      "cop": 7631,
      "##gh": 7632,
      "52": 7633,
      "##ple": 7634,
      "##oss": 7635,
      "Québ": 7636,
      "C’": 7637,
      "connaiss": 7638,
      "##itter": 7639,
      "##oise": 7640,
      "Che": 7641,
      "##ynam": 7642,
      "Afrique": 7643,
      "Paul": 7644,
      "vite": 7645,
      "LA": 7646,
      "recommand": 7647,
      "##rist": 7648,
      "cul": 7649,
      "dén": 7650,
      "instru": 7651,
      "remar": 7652,
      "poids": 7653,
      "46": 7654,
      "##écu": 7655,
      "dél": 7656,
      "85": 7657,
      "Cet": 7658,
      "##cs": 7659,
      "##undi": 7660,
      "images": 7661,
      "Gal": 7662,
      "##xte": 7663,
      "peau": 7664,
      "II": 7665,
      "vir": 7666,
      "orient": 7667,
      "Cert": 7668,
      "##urer": 7669,
      "permettant": 7670,
      "Tour": 7671,
      "##time": 7672,
      "Ste": 7673,
      "bénéfici": 7674,
      "Quand": 7675,
      "##ster": 7676,
      "mas": 7677,
      "adop": 7678,
      "56": 7679,
      "Français": 7680,
      "volont": 7681,
      "##issent": 7682,
      "##êtes": 7683,
      "59": 7684,
      "cook": 7685,
      "    ": 7686,
      "habitants": 7687,
      "##cteurs": 7688,
      "appli": 7689,
      "Sam": 7690,
      "Cas": 7691,
      "##aie": 7692,
      "international": 7693,
      "compéten": 7694,
      "langue": 7695,
      "mauv": 7696,
      "##eaux": 7697,
      "Cré": 7698,
      "47": 7699,
      "Gra": 7700,
      "Web": 7701,
      "##alisé": 7702,
      "consul": 7703,
      "pén": 7704,
      "##oncé": 7705,
      "enseigne": 7706,
      "devrait": 7707,
      "archite": 7708,
      "54": 7709,
      "Michel": 7710,
      "dossi": 7711,
      "##ronique": 7712,
      "Min": 7713,
      "six": 7714,
      "Pal": 7715,
      "outils": 7716,
      "complex": 7717,
      "##ules": 7718,
      "lab": 7719,
      "tém": 7720,
      "exist": 7721,
      "Internet": 7722,
      "##sembl": 7723,
      "##émie": 7724,
      "Exp": 7725,
      "occup": 7726,
      "##reur": 7727,
      "##atifs": 7728,
      "##ologiques": 7729,
      "##orn": 7730,
      "parle": 7731,
      "répondre": 7732,
      "##ives": 7733,
      "##ancement": 7734,
      "##èque": 7735,
      "machine": 7736,
      "vivre": 7737,
      "rouge": 7738,
      "mesures": 7739,
      "calcul": 7740,
      "we": 7741,
      "conseils": 7742,
      "vites": 7743,
      "##sements": 7744,
      "sensi": 7745,
      "insp": 7746,
      "ouverture": 7747,
      "##vement": 7748,
      "source": 7749,
      "vert": 7750,
      "##ville": 7751,
      "dispar": 7752,
      "##yl": 7753,
      "ident": 7754,
      "possibilité": 7755,
      "commence": 7756,
      "93": 7757,
      "types": 7758,
      "confiance": 7759,
      "ir": 7760,
      "presque": 7761,
      "Québec": 7762,
      "minim": 7763,
      "64": 7764,
      "spor": 7765,
      "##yon": 7766,
      "Sc": 7767,
      "mém": 7768,
      "cra": 7769,
      "##arité": 7770,
      "sociaux": 7771,
      "couleurs": 7772,
      "94": 7773,
      "##IE": 7774,
      "##cel": 7775,
      "satis": 7776,
      "suivant": 7777,
      "Phili": 7778,
      "##uration": 7779,
      "##estival": 7780,
      "amis": 7781,
      "96": 7782,
      "yeux": 7783,
      "##quête": 7784,
      "chiff": 7785,
      "##ae": 7786,
      "publique": 7787,
      "##qués": 7788,
      "suivi": 7789,
      "57": 7790,
      "##ational": 7791,
      "rê": 7792,
      "excl": 7793,
      "Face": 7794,
      "##rim": 7795,
      "expli": 7796,
      "désormais": 7797,
      "##temps": 7798,
      "John": 7799,
      "voix": 7800,
      "tels": 7801,
      "contenu": 7802,
      "##oré": 7803,
      "##issant": 7804,
      "##get": 7805,
      "pièce": 7806,
      "mondiale": 7807,
      "générale": 7808,
      "53": 7809,
      "Sé": 7810,
      "connu": 7811,
      "troisième": 7812,
      "én": 7813,
      "permettent": 7814,
      "numéro": 7815,
      "##rimer": 7816,
      "dernières": 7817,
      "modèles": 7818,
      "actions": 7819,
      "semaines": 7820,
      "droite": 7821,
      "surface": 7822,
      "manque": 7823,
      "rester": 7824,
      "proche": 7825,
      "##to": 7826,
      "exception": 7827,
      "changement": 7828,
      "stat": 7829,
      "mécan": 7830,
      "##ata": 7831,
      "vacances": 7832,
      "urb": 7833,
      "ital": 7834,
      "électrique": 7835,
      "Res": 7836,
      "##charge": 7837,
      "##ôme": 7838,
      "Tu": 7839,
      "89": 7840,
      "##naire": 7841,
      "réel": 7842,
      "##iteur": 7843,
      "##ID": 7844,
      "concep": 7845,
      "82": 7846,
      "promo": 7847,
      "opération": 7848,
      "##las": 7849,
      "pied": 7850,
      "58": 7851,
      "soient": 7852,
      "##ater": 7853,
      "concent": 7854,
      "##umes": 7855,
      "certaine": 7856,
      "peux": 7857,
      "##bes": 7858,
      "hés": 7859,
      "design": 7860,
      "78": 7861,
      "##ination": 7862,
      "Posté": 7863,
      "capacité": 7864,
      "membre": 7865,
      "##ogle": 7866,
      "##onner": 7867,
      "supplément": 7868,
      "structure": 7869,
      "municip": 7870,
      "interp": 7871,
      "Ital": 7872,
      "disponibles": 7873,
      "Sec": 7874,
      "##raison": 7875,
      "##ical": 7876,
      "réalisé": 7877,
      "cheve": 7878,
      "décision": 7879,
      "##ories": 7880,
      "Cal": 7881,
      "72": 7882,
      "##ung": 7883,
      "observ": 7884,
      "crois": 7885,
      "élèves": 7886,
      "autor": 7887,
      "At": 7888,
      "with": 7889,
      "changer": 7890,
      "##iement": 7891,
      "exc": 7892,
      "##ension": 7893,
      "attention": 7894,
      "hors": 7895,
      "soutien": 7896,
      "##adie": 7897,
      "facilement": 7898,
      "##ualité": 7899,
      "oeu": 7900,
      "##rons": 7901,
      "Fer": 7902,
      "bel": 7903,
      "travailler": 7904,
      "presse": 7905,
      "suivre": 7906,
      "Mac": 7907,
      "pal": 7908,
      "solutions": 7909,
      "derniers": 7910,
      "vérif": 7911,
      "##quence": 7912,
      "Ed": 7913,
      "retrouver": 7914,
      "77": 7915,
      "arrive": 7916,
      "##ctures": 7917,
      "##urant": 7918,
      "tarif": 7919,
      "affir": 7920,
      "Em": 7921,
      "mél": 7922,
      "Centre": 7923,
      "arb": 7924,
      "Wil": 7925,
      "généralement": 7926,
      "CH": 7927,
      "Rou": 7928,
      "##ws": 7929,
      "multip": 7930,
      "##arde": 7931,
      "##oo": 7932,
      "dessous": 7933,
      "diman": 7934,
      "Lau": 7935,
      "Gen": 7936,
      "##llement": 7937,
      "##AU": 7938,
      "Dan": 7939,
      "disposition": 7940,
      "oui": 7941,
      "Anne": 7942,
      "communauté": 7943,
      "joueurs": 7944,
      "entretien": 7945,
      "do": 7946,
      "##ENT": 7947,
      "Nic": 7948,
      "chap": 7949,
      "Ville": 7950,
      "éd": 7951,
      "##lande": 7952,
      "##érap": 7953,
      "Votre": 7954,
      "Jou": 7955,
      "##duit": 7956,
      "##less": 7957,
      "physique": 7958,
      "longtemps": 7959,
      "Nos": 7960,
      "gamme": 7961,
      "devenir": 7962,
      "Enfin": 7963,
      "##tière": 7964,
      "merci": 7965,
      "Mad": 7966,
      "laisser": 7967,
      "##RO": 7968,
      "##tée": 7969,
      "##ouverte": 7970,
      "##chant": 7971,
      "directeur": 7972,
      "vic": 7973,
      "vais": 7974,
      "moyens": 7975,
      "##NE": 7976,
      "importante": 7977,
      "##ritann": 7978,
      "certain": 7979,
      "lecture": 7980,
      "##SE": 7981,
      "88": 7982,
      "Im": 7983,
      "af": 7984,
      "Beau": 7985,
      "isol": 7986,
      "Articles": 7987,
      "##va": 7988,
      "pratiques": 7989,
      "agric": 7990,
      "assurance": 7991,
      "ul": 7992,
      "##rige": 7993,
      "##titution": 7994,
      "total": 7995,
      "groupes": 7996,
      "##magne": 7997,
      "##éral": 7998,
      "responsable": 7999,
      "scol": 8000,
      "influe": 8001,
      "##otte": 8002,
      "##tir": 8003,
      "vict": 8004,
      "Mat": 8005,
      "Sujet": 8006,
      "##old": 8007,
      "mor": 8008,
      "évolution": 8009,
      "67": 8010,
      "République": 8011,
      "historique": 8012,
      "same": 8013,
      "petites": 8014,
      "ancienne": 8015,
      "littéra": 8016,
      "em": 8017,
      "lumière": 8018,
      "Alex": 8019,
      "hyp": 8020,
      "##oil": 8021,
      "entière": 8022,
      "publié": 8023,
      "située": 8024,
      "venir": 8025,
      "##tivité": 8026,
      "Har": 8027,
      "##main": 8028,
      "sang": 8029,
      "##atrice": 8030,
      "réalité": 8031,
      "##mine": 8032,
      "Liste": 8033,
      "huile": 8034,
      "##ube": 8035,
      "##vant": 8036,
      "##rid": 8037,
      "66": 8038,
      "Bra": 8039,
      "crise": 8040,
      "##CH": 8041,
      "Trans": 8042,
      "lesque": 8043,
      "##ciences": 8044,
      "hor": 8045,
      "##lit": 8046,
      "Form": 8047,
      "##ague": 8048,
      "répond": 8049,
      "ferme": 8050,
      "##ège": 8051,
      "##endu": 8052,
      "rencontres": 8053,
      "IN": 8054,
      "Etat": 8055,
      "dix": 8056,
      "autoris": 8057,
      "dimanche": 8058,
      "équipes": 8059,
      "message": 8060,
      "écran": 8061,
      "prêt": 8062,
      "62": 8063,
      "envie": 8064,
      "Geor": 8065,
      "mi": 8066,
      "réseaux": 8067,
      "coû": 8068,
      "ble": 8069,
      "arrivée": 8070,
      "ate": 8071,
      "communes": 8072,
      "proxim": 8073,
      "extérieur": 8074,
      "ang": 8075,
      "téléphone": 8076,
      "##cles": 8077,
      "##ares": 8078,
      "##ilib": 8079,
      "Site": 8080,
      "Dire": 8081,
      "##lage": 8082,
      "lieux": 8083,
      "##sine": 8084,
      "Dav": 8085,
      "faites": 8086,
      "Chine": 8087,
      "##andis": 8088,
      "importe": 8089,
      "effets": 8090,
      "bureau": 8091,
      "##çu": 8092,
      "lorsqu'": 8093,
      "illu": 8094,
      "##riques": 8095,
      "##uté": 8096,
      "##RA": 8097,
      "##urent": 8098,
      "laisse": 8099,
      "##ambres": 8100,
      "##novation": 8101,
      "##ilos": 8102,
      "##iés": 8103,
      "campagne": 8104,
      "##lect": 8105,
      "dipl": 8106,
      "chans": 8107,
      "##tend": 8108,
      "navig": 8109,
      "68": 8110,
      "ressources": 8111,
      "test": 8112,
      "##UE": 8113,
      "##qu’": 8114,
      "86": 8115,
      "Maison": 8116,
      "##ama": 8117,
      "84": 8118,
      "##aci": 8119,
      "##tié": 8120,
      "dépend": 8121,
      "potent": 8122,
      "journal": 8123,
      "71": 8124,
      "76": 8125,
      "carrière": 8126,
      "bud": 8127,
      "exam": 8128,
      "devez": 8129,
      "quotidien": 8130,
      "explique": 8131,
      "Deux": 8132,
      "malgré": 8133,
      "faible": 8134,
      "résultat": 8135,
      "##aliser": 8136,
      "##itant": 8137,
      "##conde": 8138,
      "87": 8139,
      "Emp": 8140,
      "##rich": 8141,
      "##lation": 8142,
      "69": 8143,
      "Hau": 8144,
      "Tro": 8145,
      "caract": 8146,
      "passage": 8147,
      "parties": 8148,
      "séjour": 8149,
      "##érée": 8150,
      "##êche": 8151,
      "glob": 8152,
      "##erté": 8153,
      "patri": 8154,
      "##ME": 8155,
      "##agé": 8156,
      "##gén": 8157,
      "vitesse": 8158,
      "allemand": 8159,
      "propriét": 8160,
      "premières": 8161,
      "pleine": 8162,
      "Off": 8163,
      "suc": 8164,
      "pierre": 8165,
      "sorte": 8166,
      "cependant": 8167,
      "méthode": 8168,
      "améliorer": 8169,
      "##ancé": 8170,
      "83": 8171,
      "##irs": 8172,
      "commerce": 8173,
      "magas": 8174,
      "##ym": 8175,
      "##oign": 8176,
      "top": 8177,
      "81": 8178,
      "##ailles": 8179,
      "proximité": 8180,
      "##istère": 8181,
      "sait": 8182,
      "##CE": 8183,
      "from": 8184,
      "forte": 8185,
      "mission": 8186,
      "##ight": 8187,
      "faisant": 8188,
      "Phot": 8189,
      "puissance": 8190,
      "Voici": 8191,
      "rappel": 8192,
      "train": 8193,
      "##ames": 8194,
      "cookies": 8195,
      "pose": 8196,
      "économie": 8197,
      "ouest": 8198,
      "Mag": 8199,
      "conten": 8200,
      "outil": 8201,
      "##iellement": 8202,
      "##prise": 8203,
      "salari": 8204,
      "Prof": 8205,
      "seconde": 8206,
      "##mettre": 8207,
      "##uler": 8208,
      "bu": 8209,
      "européenne": 8210,
      "Université": 8211,
      "##iée": 8212,
      "dispose": 8213,
      "micro": 8214,
      "Rom": 8215,
      "##ootball": 8216,
      "intervention": 8217,
      "contraire": 8218,
      "finale": 8219,
      "offres": 8220,
      "uniquement": 8221,
      "acteurs": 8222,
      "Ret": 8223,
      "Allemagne": 8224,
      "livres": 8225,
      "##ial": 8226,
      "Union": 8227,
      "Hen": 8228,
      "##DF": 8229,
      "maladie": 8230,
      "joue": 8231,
      "##ruire": 8232,
      "Christ": 8233,
      "##onte": 8234,
      "croissance": 8235,
      "arrê": 8236,
      "fonctionnement": 8237,
      "nett": 8238,
      "##ressi": 8239,
      "somme": 8240,
      "##ste": 8241,
      "##by": 8242,
      "Fre": 8243,
      "quartier": 8244,
      "réussi": 8245,
      "sépar": 8246,
      "immédi": 8247,
      "Qui": 8248,
      "##ood": 8249,
      "consac": 8250,
      "Jacques": 8251,
      "##bon": 8252,
      "combat": 8253,
      "enseign": 8254,
      "température": 8255,
      "Jus": 8256,
      "appareil": 8257,
      "roman": 8258,
      "pages": 8259,
      "TV": 8260,
      "voie": 8261,
      "exerci": 8262,
      "##isé": 8263,
      "##ionnat": 8264,
      "conserv": 8265,
      "Ca": 8266,
      "##vel": 8267,
      "vendredi": 8268,
      "cre": 8269,
      "Her": 8270,
      "##zz": 8271,
      "mail": 8272,
      "démocra": 8273,
      "Cam": 8274,
      "souv": 8275,
      "usage": 8276,
      "t'": 8277,
      "chaî": 8278,
      "##ref": 8279,
      "numérique": 8280,
      "##indows": 8281,
      "Mor": 8282,
      "nour": 8283,
      "##ologies": 8284,
      "74": 8285,
      "accompagn": 8286,
      "Toute": 8287,
      "consommation": 8288,
      "##arch": 8289,
      "##ley": 8290,
      "spectac": 8291,
      "Charles": 8292,
      "samedi": 8293,
      "##uisse": 8294,
      "##tés": 8295,
      "Références": 8296,
      "relations": 8297,
      "##pa": 8298,
      "##ura": 8299,
      "61": 8300,
      "aspect": 8301,
      "63": 8302,
      "PC": 8303,
      "profiter": 8304,
      "##este": 8305,
      "##credi": 8306,
      "puisque": 8307,
      "moteur": 8308,
      "Conf": 8309,
      "meu": 8310,
      "Imp": 8311,
      "##ory": 8312,
      "règles": 8313,
      "dynam": 8314,
      "utilisateurs": 8315,
      "##ark": 8316,
      "##rance": 8317,
      "##cis": 8318,
      "idées": 8319,
      "matériel": 8320,
      "##éder": 8321,
      "quelle": 8322,
      "extr": 8323,
      "##dam": 8324,
      "établissement": 8325,
      "marche": 8326,
      "Google": 8327,
      "##ende": 8328,
      "véritable": 8329,
      "73": 8330,
      "sport": 8331,
      "--": 8332,
      "sole": 8333,
      "##tels": 8334,
      "actuellement": 8335,
      "##bil": 8336,
      "étape": 8337,
      "zones": 8338,
      "roi": 8339,
      "Peu": 8340,
      "armée": 8341,
      "logiciel": 8342,
      "mobil": 8343,
      "##bert": 8344,
      "dév": 8345,
      "##ary": 8346,
      "principal": 8347,
      "##gies": 8348,
      "arrêt": 8349,
      "lundi": 8350,
      "films": 8351,
      "compagnie": 8352,
      "régime": 8353,
      "##chement": 8354,
      "Chris": 8355,
      "Pays": 8356,
      "soins": 8357,
      "mariage": 8358,
      "Non": 8359,
      "parcours": 8360,
      "circul": 8361,
      "approche": 8362,
      "dirige": 8363,
      "riv": 8364,
      "garde": 8365,
      "cab": 8366,
      "distance": 8367,
      "##log": 8368,
      "prot": 8369,
      "roy": 8370,
      "##lymp": 8371,
      "##veill": 8372,
      "Rég": 8373,
      "graph": 8374,
      "##anne": 8375,
      "souhaitez": 8376,
      "ray": 8377,
      "collection": 8378,
      "remplac": 8379,
      "pression": 8380,
      "systèmes": 8381,
      "ri": 8382,
      "##issage": 8383,
      "créé": 8384,
      "endroit": 8385,
      "Dom": 8386,
      "##ty": 8387,
      "île": 8388,
      "##otel": 8389,
      "suffis": 8390,
      "avent": 8391,
      "cinéma": 8392,
      "##iction": 8393,
      "Cro": 8394,
      "gal": 8395,
      "course": 8396,
      "##ône": 8397,
      "professionnelle": 8398,
      "##çons": 8399,
      "##rend": 8400,
      "##SS": 8401,
      "##lim": 8402,
      "##ky": 8403,
      "amén": 8404,
      "support": 8405,
      "##ttre": 8406,
      "retrouve": 8407,
      "danger": 8408,
      "##AG": 8409,
      "den": 8410,
      "##inaire": 8411,
      "##aque": 8412,
      "##cience": 8413,
      "étrang": 8414,
      "##AP": 8415,
      "##DE": 8416,
      "dra": 8417,
      "continue": 8418,
      "demander": 8419,
      "outre": 8420,
      "comprend": 8421,
      "joueur": 8422,
      "voi": 8423,
      "ET": 8424,
      "mur": 8425,
      "##astique": 8426,
      "dent": 8427,
      "trou": 8428,
      "atteint": 8429,
      "séri": 8430,
      "telle": 8431,
      "##titut": 8432,
      "chance": 8433,
      "vin": 8434,
      "demi": 8435,
      "exemp": 8436,
      "constit": 8437,
      "Rh": 8438,
      "##érant": 8439,
      "église": 8440,
      "soleil": 8441,
      "##avi": 8442,
      "fournisse": 8443,
      "79": 8444,
      "villes": 8445,
      "Ro": 8446,
      "Rec": 8447,
      "internationale": 8448,
      "fémin": 8449,
      "dimen": 8450,
      "fonctionn": 8451,
      "dol": 8452,
      "concerne": 8453,
      "##demment": 8454,
      "##alisme": 8455,
      "valeurs": 8456,
      "##érés": 8457,
      "pourtant": 8458,
      "concur": 8459,
      "caf": 8460,
      "court": 8461,
      "cheveux": 8462,
      "compétences": 8463,
      "risques": 8464,
      "We": 8465,
      "Lo": 8466,
      "##ker": 8467,
      "pourrez": 8468,
      "termes": 8469,
      "animaux": 8470,
      "fen": 8471,
      "pourra": 8472,
      "indépend": 8473,
      "##aude": 8474,
      "connaissance": 8475,
      "université": 8476,
      "##car": 8477,
      "##range": 8478,
      "##moine": 8479,
      "commentaire": 8480,
      "##do": 8481,
      "supérieur": 8482,
      "York": 8483,
      "citoy": 8484,
      "couvert": 8485,
      "tran": 8486,
      "mobile": 8487,
      "fre": 8488,
      "Puis": 8489,
      "##anie": 8490,
      "retra": 8491,
      "Elles": 8492,
      "rendez": 8493,
      "##ographique": 8494,
      "Lu": 8495,
      "tandis": 8496,
      "évent": 8497,
      "Oui": 8498,
      "##rement": 8499,
      "trouvé": 8500,
      "développer": 8501,
      "##ilan": 8502,
      "chambres": 8503,
      "Jeux": 8504,
      "conception": 8505,
      "accessi": 8506,
      "PS": 8507,
      "intro": 8508,
      "Parti": 8509,
      "altern": 8510,
      "récup": 8511,
      "Air": 8512,
      "##cé": 8513,
      "coût": 8514,
      "##onné": 8515,
      "Inter": 8516,
      "domicile": 8517,
      "lois": 8518,
      "##tistes": 8519,
      "appelle": 8520,
      "##uter": 8521,
      "##pital": 8522,
      "famili": 8523,
      "##éros": 8524,
      "##nels": 8525,
      "cath": 8526,
      "Del": 8527,
      "stand": 8528,
      "entrep": 8529,
      "impact": 8530,
      "##hi": 8531,
      "##ld": 8532,
      "principale": 8533,
      "mètres": 8534,
      "Bibli": 8535,
      "figure": 8536,
      "formes": 8537,
      "effec": 8538,
      "##être": 8539,
      "compt": 8540,
      "britann": 8541,
      "##iant": 8542,
      "Arch": 8543,
      "métal": 8544,
      ".\"": 8545,
      "enregist": 8546,
      "défense": 8547,
      "défini": 8548,
      "##ario": 8549,
      "objets": 8550,
      "##limin": 8551,
      "##ussie": 8552,
      "Martin": 8553,
      "américaine": 8554,
      "##ocation": 8555,
      "dessin": 8556,
      "classique": 8557,
      "##aix": 8558,
      "siège": 8559,
      "offrir": 8560,
      "choc": 8561,
      "découvert": 8562,
      "Italie": 8563,
      "##OL": 8564,
      "pis": 8565,
      "connaître": 8566,
      "condition": 8567,
      "nécessaires": 8568,
      "##ommage": 8569,
      "concasseur": 8570,
      "conser": 8571,
      "##mont": 8572,
      "bran": 8573,
      "##ociation": 8574,
      "station": 8575,
      "##lication": 8576,
      "communi": 8577,
      "possède": 8578,
      "juridi": 8579,
      "urgence": 8580,
      "Pourquoi": 8581,
      "##urg": 8582,
      "peine": 8583,
      "Aff": 8584,
      "automatique": 8585,
      "##ores": 8586,
      "Bal": 8587,
      "##tence": 8588,
      "finalement": 8589,
      "Gén": 8590,
      "CD": 8591,
      "forum": 8592,
      "naturel": 8593,
      "Découv": 8594,
      "proposer": 8595,
      "ait": 8596,
      "décidé": 8597,
      "consult": 8598,
      "##CI": 8599,
      "étudiants": 8600,
      "gagner": 8601,
      "arrière": 8602,
      "perd": 8603,
      "importance": 8604,
      "mains": 8605,
      "complet": 8606,
      "##rét": 8607,
      "administration": 8608,
      "partage": 8609,
      "tiss": 8610,
      "##user": 8611,
      "certif": 8612,
      "##xe": 8613,
      "adul": 8614,
      "Ve": 8615,
      "bru": 8616,
      "Bonjour": 8617,
      "principalement": 8618,
      "collè": 8619,
      "hiver": 8620,
      "##bourg": 8621,
      "envoy": 8622,
      "##terie": 8623,
      "Philippe": 8624,
      "affaire": 8625,
      "##IR": 8626,
      "inde": 8627,
      "dos": 8628,
      "chauffage": 8629,
      "Cat": 8630,
      "patients": 8631,
      "red": 8632,
      "continu": 8633,
      "béb": 8634,
      "reçu": 8635,
      "perman": 8636,
      "contexte": 8637,
      "Pat": 8638,
      "déch": 8639,
      "soulig": 8640,
      "célè": 8641,
      "##ricité": 8642,
      "##oyage": 8643,
      "Lorsque": 8644,
      "exposition": 8645,
      "##pes": 8646,
      "légère": 8647,
      "principe": 8648,
      "phase": 8649,
      "bande": 8650,
      "##ilosoph": 8651,
      "dossier": 8652,
      "cur": 8653,
      "perte": 8654,
      "##ariat": 8655,
      "lettre": 8656,
      "##ieuse": 8657,
      "mémoire": 8658,
      "##yd": 8659,
      "##ositions": 8660,
      "catégorie": 8661,
      "##yst": 8662,
      "repro": 8663,
      "S'": 8664,
      "dédi": 8665,
      "##alogue": 8666,
      "agence": 8667,
      "Robert": 8668,
      "four": 8669,
      "cartes": 8670,
      "symb": 8671,
      "##arn": 8672,
      "##rès": 8673,
      "immobilier": 8674,
      "##assage": 8675,
      "vas": 8676,
      "ha": 8677,
      "##nth": 8678,
      "##alisée": 8679,
      "liberté": 8680,
      "connexes": 8681,
      "Aujourd": 8682,
      "Bern": 8683,
      "autonom": 8684,
      "dimin": 8685,
      "féd": 8686,
      "majorité": 8687,
      "hauteur": 8688,
      "##itée": 8689,
      "Vie": 8690,
      "San": 8691,
      "##irer": 8692,
      "##lég": 8693,
      "##usé": 8694,
      "courant": 8695,
      "ara": 8696,
      "industrie": 8697,
      "scientifique": 8698,
      "Facebook": 8699,
      "Lyon": 8700,
      "locaux": 8701,
      "##ellig": 8702,
      "police": 8703,
      "commentaires": 8704,
      "relative": 8705,
      "##rages": 8706,
      "publics": 8707,
      "douce": 8708,
      "##olique": 8709,
      "éducation": 8710,
      "paris": 8711,
      "rense": 8712,
      "##lif": 8713,
      "Tur": 8714,
      "fact": 8715,
      "##uxe": 8716,
      "##atur": 8717,
      "David": 8718,
      "avenir": 8719,
      "propres": 8720,
      "##cte": 8721,
      "réflex": 8722,
      "##forme": 8723,
      "magnif": 8724,
      "instant": 8725,
      "contemp": 8726,
      "déclaré": 8727,
      "Avant": 8728,
      "##ll": 8729,
      "desc": 8730,
      "chaleur": 8731,
      "##omie": 8732,
      "poursu": 8733,
      "militaire": 8734,
      "exig": 8735,
      "cade": 8736,
      "Coupe": 8737,
      "##ink": 8738,
      "fonds": 8739,
      "##deur": 8740,
      "tâ": 8741,
      "livraison": 8742,
      "Windows": 8743,
      "Lond": 8744,
      "##keting": 8745,
      "()": 8746,
      "bons": 8747,
      "##ondre": 8748,
      "Luc": 8749,
      "bonnes": 8750,
      "exécu": 8751,
      "##olé": 8752,
      "papier": 8753,
      "##oulez": 8754,
      "##ibilité": 8755,
      "meilleures": 8756,
      "##__": 8757,
      "apprent": 8758,
      "##çant": 8759,
      "therm": 8760,
      "Ali": 8761,
      "##quences": 8762,
      "Hô": 8763,
      "Jo": 8764,
      ".)": 8765,
      "bac": 8766,
      "##mart": 8767,
      "saint": 8768,
      "dér": 8769,
      "Bro": 8770,
      "##vage": 8771,
      "coeur": 8772,
      "wh": 8773,
      "Super": 8774,
      "##MP": 8775,
      "##ader": 8776,
      "arm": 8777,
      "contacter": 8778,
      "Sans": 8779,
      "##own": 8780,
      "toit": 8781,
      "Art": 8782,
      "partager": 8783,
      "##OUR": 8784,
      "effectuer": 8785,
      "déta": 8786,
      "##seurs": 8787,
      "exclus": 8788,
      "Chaque": 8789,
      "accue": 8790,
      "##rand": 8791,
      "assure": 8792,
      "Wh": 8793,
      "##olf": 8794,
      "manifest": 8795,
      "Nom": 8796,
      "amp": 8797,
      "##ulté": 8798,
      "##gée": 8799,
      "##mon": 8800,
      "respec": 8801,
      "émo": 8802,
      "réserv": 8803,
      "impression": 8804,
      "##nelles": 8805,
      "objectifs": 8806,
      "exer": 8807,
      "location": 8808,
      "##olas": 8809,
      "satisf": 8810,
      "représente": 8811,
      "facil": 8812,
      "##uil": 8813,
      "expériment": 8814,
      "##obile": 8815,
      "##RI": 8816,
      "##ni": 8817,
      "sept": 8818,
      "utilisateur": 8819,
      "Pol": 8820,
      "Nouvelle": 8821,
      "tre": 8822,
      "Vol": 8823,
      "raisons": 8824,
      "couple": 8825,
      "dollar": 8826,
      "réalisation": 8827,
      "scén": 8828,
      "Société": 8829,
      "crit": 8830,
      "peur": 8831,
      "réduire": 8832,
      "##ister": 8833,
      "stratégie": 8834,
      "Dou": 8835,
      "simil": 8836,
      "Mes": 8837,
      "Dim": 8838,
      "ache": 8839,
      "rele": 8840,
      "caractère": 8841,
      "différence": 8842,
      "##inon": 8843,
      "moderne": 8844,
      "documents": 8845,
      "extrême": 8846,
      "commencer": 8847,
      "attra": 8848,
      "technologie": 8849,
      "derrière": 8850,
      "jeudi": 8851,
      "tableau": 8852,
      "param": 8853,
      "fig": 8854,
      "serrurier": 8855,
      "suffit": 8856,
      "##ey": 8857,
      "##vés": 8858,
      "auto": 8859,
      "##ulé": 8860,
      "thème": 8861,
      "renouve": 8862,
      "##gés": 8863,
      "##go": 8864,
      "évolu": 8865,
      "tendance": 8866,
      "Biographie": 8867,
      "indic": 8868,
      "chim": 8869,
      "##quet": 8870,
      "sortir": 8871,
      "trib": 8872,
      "##ft": 8873,
      "[...": 8874,
      "##lée": 8875,
      "##olume": 8876,
      "##cule": 8877,
      "Fab": 8878,
      "Fem": 8879,
      "##rasse": 8880,
      "##alise": 8881,
      "##inet": 8882,
      "bless": 8883,
      "exploitation": 8884,
      "##idité": 8885,
      "apprendre": 8886,
      "chin": 8887,
      "section": 8888,
      "phén": 8889,
      "##onge": 8890,
      "enseignement": 8891,
      "##low": 8892,
      "Belgique": 8893,
      "repas": 8894,
      "reti": 8895,
      "commis": 8896,
      "Petit": 8897,
      "maximum": 8898,
      "fonctions": 8899,
      "péd": 8900,
      "équilib": 8901,
      "XV": 8902,
      "##illa": 8903,
      "appartement": 8904,
      "##tilis": 8905,
      "div": 8906,
      "atteindre": 8907,
      "##anges": 8908,
      "##ault": 8909,
      "salon": 8910,
      "Ses": 8911,
      "légis": 8912,
      "bâtiment": 8913,
      "ajouter": 8914,
      "cad": 8915,
      "##assin": 8916,
      "dig": 8917,
      "##alen": 8918,
      "bra": 8919,
      "##égét": 8920,
      "##unis": 8921,
      "Ban": 8922,
      "##disp": 8923,
      "souhaite": 8924,
      "dû": 8925,
      "bus": 8926,
      "XX": 8927,
      "contrô": 8928,
      "suivante": 8929,
      "franc": 8930,
      "applications": 8931,
      "##resser": 8932,
      "pé": 8933,
      "événement": 8934,
      "forces": 8935,
      "renfor": 8936,
      "go": 8937,
      "prim": 8938,
      "Poli": 8939,
      "##enses": 8940,
      "##ingt": 8941,
      "chauss": 8942,
      "N'": 8943,
      "illust": 8944,
      "##airement": 8945,
      "Premi": 8946,
      "telles": 8947,
      "##andes": 8948,
      "access": 8949,
      "##tile": 8950,
      "lic": 8951,
      "prest": 8952,
      "##ET": 8953,
      "voil": 8954,
      "clés": 8955,
      "Commun": 8956,
      "enquête": 8957,
      "Sim": 8958,
      "vide": 8959,
      "aband": 8960,
      "##ian": 8961,
      "fou": 8962,
      "Espagne": 8963,
      "présenter": 8964,
      "quit": 8965,
      "delà": 8966,
      "tax": 8967,
      "neuf": 8968,
      "principaux": 8969,
      "personnages": 8970,
      "option": 8971,
      "##OT": 8972,
      "##crire": 8973,
      "Article": 8974,
      "logement": 8975,
      "ajout": 8976,
      "lu": 8977,
      "boule": 8978,
      "prochain": 8979,
      "veux": 8980,
      "atti": 8981,
      "CV": 8982,
      "mercredi": 8983,
      "acquis": 8984,
      "caractéristiques": 8985,
      "cellu": 8986,
      "Met": 8987,
      "découverte": 8988,
      "format": 8989,
      "##roph": 8990,
      "adh": 8991,
      "exper": 8992,
      "immédiate": 8993,
      "concours": 8994,
      "##avantage": 8995,
      "rest": 8996,
      "##onneur": 8997,
      "##orique": 8998,
      "usine": 8999,
      "favoris": 9000,
      "Fond": 9001,
      "##ding": 9002,
      "Noël": 9003,
      "bour": 9004,
      "##iciels": 9005,
      "mine": 9006,
      "##chent": 9007,
      "parfaitement": 9008,
      "complète": 9009,
      "Journ": 9010,
      "mardi": 9011,
      "ordinateur": 9012,
      "##itent": 9013,
      "Sport": 9014,
      "##king": 9015,
      "local": 9016,
      "lutte": 9017,
      "##odi": 9018,
      "occu": 9019,
      "Tw": 9020,
      "ext": 9021,
      "prochaine": 9022,
      "coord": 9023,
      "Ach": 9024,
      "##osph": 9025,
      "lignes": 9026,
      "déli": 9027,
      "boî": 9028,
      "##anm": 9029,
      "voire": 9030,
      "ti": 9031,
      "Même": 9032,
      "absence": 9033,
      "##semblée": 9034,
      "victoire": 9035,
      "Très": 9036,
      "panne": 9037,
      "enj": 9038,
      "##mation": 9039,
      "deme": 9040,
      "##ket": 9041,
      "élections": 9042,
      "espèce": 9043,
      "##uest": 9044,
      "élément": 9045,
      "partenaires": 9046,
      "portes": 9047,
      "conver": 9048,
      "Né": 9049,
      "##agnos": 9050,
      "##rine": 9051,
      "##intes": 9052,
      "##ca": 9053,
      "Thé": 9054,
      "fe": 9055,
      "##uff": 9056,
      "prati": 9057,
      "porter": 9058,
      "Japon": 9059,
      "##ks": 9060,
      "Bo": 9061,
      "##aises": 9062,
      "justice": 9063,
      "motiv": 9064,
      "choisi": 9065,
      "Mic": 9066,
      "##oft": 9067,
      "montant": 9068,
      "##US": 9069,
      "##venue": 9070,
      "naissance": 9071,
      "devis": 9072,
      "##MA": 9073,
      "cant": 9074,
      "Cô": 9075,
      "football": 9076,
      "concept": 9077,
      "regr": 9078,
      "##ney": 9079,
      "voulez": 9080,
      "##actions": 9081,
      "familles": 9082,
      "##ola": 9083,
      "rét": 9084,
      "régulièrement": 9085,
      "aimer": 9086,
      "installer": 9087,
      "AR": 9088,
      "réuss": 9089,
      "Mai": 9090,
      "lour": 9091,
      "avance": 9092,
      "Tri": 9093,
      "végét": 9094,
      "Inf": 9095,
      "note": 9096,
      "broyeur": 9097,
      "piscine": 9098,
      "performance": 9099,
      "philosoph": 9100,
      "idéal": 9101,
      "pois": 9102,
      "##liquez": 9103,
      "personnage": 9104,
      "week": 9105,
      "##oindre": 9106,
      "##réal": 9107,
      "##rat": 9108,
      "Vis": 9109,
      "davantage": 9110,
      "##anmoins": 9111,
      "étais": 9112,
      "Etats": 9113,
      "##rente": 9114,
      "offic": 9115,
      "##rits": 9116,
      "complément": 9117,
      "##her": 9118,
      "conj": 9119,
      "critique": 9120,
      "Hol": 9121,
      "effectu": 9122,
      "##olie": 9123,
      "statut": 9124,
      "options": 9125,
      "appréci": 9126,
      "ouvrage": 9127,
      "médecin": 9128,
      "Lé": 9129,
      "nommé": 9130,
      "contempor": 9131,
      "fabri": 9132,
      "##vité": 9133,
      "SE": 9134,
      "épisode": 9135,
      "céré": 9136,
      "événements": 9137,
      "Gre": 9138,
      "Intern": 9139,
      "##ica": 9140,
      "artistes": 9141,
      "##rup": 9142,
      "véhicule": 9143,
      "##illons": 9144,
      "aéro": 9145,
      "penser": 9146,
      "Er": 9147,
      "gagn": 9148,
      "Club": 9149,
      "espagn": 9150,
      "serrure": 9151,
      "Suisse": 9152,
      "envis": 9153,
      "perdu": 9154,
      "totalement": 9155,
      "spécial": 9156,
      "perdre": 9157,
      "théâtre": 9158,
      "désign": 9159,
      "guide": 9160,
      "ball": 9161,
      "##isant": 9162,
      "intellig": 9163,
      "##ource": 9164,
      "fall": 9165,
      "utilisés": 9166,
      "pros": 9167,
      "propriété": 9168,
      "##agog": 9169,
      "##istant": 9170,
      "Bret": 9171,
      "Inst": 9172,
      "Li": 9173,
      "rendu": 9174,
      "peuple": 9175,
      "##quées": 9176,
      "apport": 9177,
      "agréable": 9178,
      "expression": 9179,
      "commencé": 9180,
      "alg": 9181,
      "continuer": 9182,
      "limite": 9183,
      "banc": 9184,
      "fisc": 9185,
      "japon": 9186,
      "##chet": 9187,
      "vra": 9188,
      "jau": 9189,
      "soirée": 9190,
      "##illant": 9191,
      "nouvel": 9192,
      "clé": 9193,
      "remb": 9194,
      "budget": 9195,
      "partout": 9196,
      "médias": 9197,
      "château": 9198,
      "alimentation": 9199,
      "##onnées": 9200,
      "##ultés": 9201,
      "hyd": 9202,
      "...)": 9203,
      "##ga": 9204,
      "indisp": 9205,
      "responsabilité": 9206,
      "Marc": 9207,
      "##glise": 9208,
      "##timis": 9209,
      "##angé": 9210,
      "verre": 9211,
      "diverses": 9212,
      "##eureusement": 9213,
      "arriver": 9214,
      "Den": 9215,
      "protéger": 9216,
      "##pt": 9217,
      "Découvrez": 9218,
      "marques": 9219,
      "Plan": 9220,
      "##tements": 9221,
      "Qu'": 9222,
      "lou": 9223,
      "milliards": 9224,
      "britannique": 9225,
      "signifie": 9226,
      "espèces": 9227,
      "##cie": 9228,
      "circu": 9229,
      "dollars": 9230,
      "Grande": 9231,
      "signe": 9232,
      "mut": 9233,
      "fron": 9234,
      "excellent": 9235,
      "appelé": 9236,
      "##inique": 9237,
      "augmentation": 9238,
      "All": 9239,
      "Grâce": 9240,
      "contribu": 9241,
      "volonté": 9242,
      "Liv": 9243,
      "recherches": 9244,
      "##gg": 9245,
      "avantages": 9246,
      "pouvons": 9247,
      "matériaux": 9248,
      "Guerre": 9249,
      "##umé": 9250,
      "kil": 9251,
      "##pri": 9252,
      "##PS": 9253,
      "riches": 9254,
      "##cy": 9255,
      "##apes": 9256,
      "fant": 9257,
      "crédit": 9258,
      "##AD": 9259,
      "bibli": 9260,
      "devenu": 9261,
      "vingt": 9262,
      "mand": 9263,
      "##lés": 9264,
      "toile": 9265,
      "filles": 9266,
      "por": 9267,
      "éto": 9268,
      "entièrement": 9269,
      "##cter": 9270,
      "##aye": 9271,
      "apporter": 9272,
      "Toul": 9273,
      "##ng": 9274,
      "participer": 9275,
      "annoncé": 9276,
      "ryth": 9277,
      "vision": 9278,
      "bébé": 9279,
      "clair": 9280,
      "peinture": 9281,
      "exis": 9282,
      "élimin": 9283,
      "##ham": 9284,
      "bain": 9285,
      "poly": 9286,
      "phénom": 9287,
      "midi": 9288,
      "province": 9289,
      "org": 9290,
      "Recher": 9291,
      "##sons": 9292,
      "##fic": 9293,
      "alli": 9294,
      "##urb": 9295,
      "fabrication": 9296,
      "réduction": 9297,
      "final": 9298,
      "##na": 9299,
      "paiement": 9300,
      "##tienne": 9301,
      "Nicolas": 9302,
      "oeuvre": 9303,
      "ouvrir": 9304,
      "profonde": 9305,
      "fournir": 9306,
      "méthodes": 9307,
      "##onnée": 9308,
      "##duire": 9309,
      "chaîne": 9310,
      "##heur": 9311,
      "manger": 9312,
      "##ott": 9313,
      "march": 9314,
      "##éber": 9315,
      "utilisant": 9316,
      "interpré": 9317,
      "colon": 9318,
      "garder": 9319,
      "accro": 9320,
      "os": 9321,
      "##onses": 9322,
      "engagement": 9323,
      "Max": 9324,
      "participation": 9325,
      "retrouv": 9326,
      "Groupe": 9327,
      "recevoir": 9328,
      "Fl": 9329,
      "distribution": 9330,
      "##sh": 9331,
      "aurez": 9332,
      "sauf": 9333,
      "he": 9334,
      "signal": 9335,
      "acqu": 9336,
      "lance": 9337,
      "##seille": 9338,
      "attendre": 9339,
      "syndic": 9340,
      "##ataire": 9341,
      "Table": 9342,
      "patrimoine": 9343,
      "frère": 9344,
      "##onal": 9345,
      "Russie": 9346,
      "plantes": 9347,
      "AC": 9348,
      "Aj": 9349,
      "##ated": 9350,
      "efficacité": 9351,
      "faite": 9352,
      "engage": 9353,
      "populaire": 9354,
      "pieds": 9355,
      "##cent": 9356,
      "##ouleur": 9357,
      "##oile": 9358,
      "liens": 9359,
      "recon": 9360,
      "honneur": 9361,
      "##urée": 9362,
      "##OM": 9363,
      "iP": 9364,
      "épre": 9365,
      "compter": 9366,
      "terres": 9367,
      "##êtements": 9368,
      "Po": 9369,
      "sources": 9370,
      "décor": 9371,
      "conform": 9372,
      "durable": 9373,
      "##oriz": 9374,
      "méd": 9375,
      "proches": 9376,
      "Gé": 9377,
      "chat": 9378,
      "dirig": 9379,
      "exac": 9380,
      "III": 9381,
      "entend": 9382,
      "volume": 9383,
      "##…]": 9384,
      "échange": 9385,
      "##iels": 9386,
      "artiste": 9387,
      "##ômes": 9388,
      "quantité": 9389,
      "##ortun": 9390,
      "##ms": 9391,
      "##ja": 9392,
      "niveaux": 9393,
      "##ling": 9394,
      "##PE": 9395,
      "Jose": 9396,
      "textes": 9397,
      "détails": 9398,
      "inscrit": 9399,
      "human": 9400,
      "côt": 9401,
      "gross": 9402,
      "fruits": 9403,
      "Claude": 9404,
      "vend": 9405,
      "pom": 9406,
      "ingén": 9407,
      "bras": 9408,
      "##ust": 9409,
      "spécifique": 9410,
      "Joueur": 9411,
      "Oli": 9412,
      "Net": 9413,
      "investissement": 9414,
      "##udes": 9415,
      "ministère": 9416,
      "enregistre": 9417,
      "permettra": 9418,
      "Premier": 9419,
      "anciens": 9420,
      "café": 9421,
      "soin": 9422,
      "Maur": 9423,
      "puisse": 9424,
      "composé": 9425,
      "Mis": 9426,
      "titres": 9427,
      "[…]": 9428,
      "professeur": 9429,
      "##onique": 9430,
      "fera": 9431,
      "Pi": 9432,
      "Toutes": 9433,
      "Rich": 9434,
      "élab": 9435,
      "J’": 9436,
      "##berg": 9437,
      "allez": 9438,
      "##dy": 9439,
      "vidéos": 9440,
      "faits": 9441,
      "centrale": 9442,
      "Dr": 9443,
      "Donc": 9444,
      "Mod": 9445,
      "avoc": 9446,
      "carb": 9447,
      "##omas": 9448,
      "Alexand": 9449,
      "justif": 9450,
      "futur": 9451,
      "coupe": 9452,
      "affich": 9453,
      "poser": 9454,
      "visage": 9455,
      "électricité": 9456,
      "fête": 9457,
      "##ésie": 9458,
      "Sav": 9459,
      "privil": 9460,
      "plateforme": 9461,
      "Mc": 9462,
      "coop": 9463,
      "Top": 9464,
      "toutefois": 9465,
      "échelle": 9466,
      "ro": 9467,
      "mén": 9468,
      "soup": 9469,
      "Président": 9470,
      "pouvait": 9471,
      "favor": 9472,
      "vole": 9473,
      "programmes": 9474,
      "Inde": 9475,
      "her": 9476,
      "##ye": 9477,
      "##annage": 9478,
      "construire": 9479,
      "up": 9480,
      "fonctionne": 9481,
      "actuelle": 9482,
      "espaces": 9483,
      "célèbre": 9484,
      "impossi": 9485,
      "diagnos": 9486,
      "auteurs": 9487,
      "moitié": 9488,
      "solid": 9489,
      "##za": 9490,
      "##ull": 9491,
      "##ématique": 9492,
      "utilisée": 9493,
      "recru": 9494,
      "restaurant": 9495,
      "appareils": 9496,
      "régions": 9497,
      "écriv": 9498,
      "maisons": 9499,
      "élevé": 9500,
      "##dienne": 9501,
      "##onyme": 9502,
      "mondial": 9503,
      "bient": 9504,
      "indique": 9505,
      "indispens": 9506,
      "unité": 9507,
      "largement": 9508,
      "parole": 9509,
      "métier": 9510,
      "émission": 9511,
      "sociétés": 9512,
      "musée": 9513,
      "identité": 9514,
      "probablement": 9515,
      "payer": 9516,
      "##tian": 9517,
      "précise": 9518,
      "télévision": 9519,
      "gratuitement": 9520,
      "capitale": 9521,
      "pron": 9522,
      "##ologue": 9523,
      "bloc": 9524,
      "CE": 9525,
      "lett": 9526,
      "rasse": 9527,
      "##onction": 9528,
      "##atoires": 9529,
      "##othèque": 9530,
      "championnat": 9531,
      "DU": 9532,
      "##oter": 9533,
      "communaut": 9534,
      "olymp": 9535,
      "connaissances": 9536,
      "Reg": 9537,
      "Londres": 9538,
      "mélange": 9539,
      "Att": 9540,
      "],": 9541,
      "radio": 9542,
      "souvenir": 9543,
      "influence": 9544,
      "fichier": 9545,
      "exercice": 9546,
      "optimis": 9547,
      "Techn": 9548,
      "##ateau": 9549,
      "##orp": 9550,
      "Certains": 9551,
      "constitue": 9552,
      "informatique": 9553,
      "##oirs": 9554,
      "Bour": 9555,
      "are": 9556,
      "afric": 9557,
      "révolution": 9558,
      "##osse": 9559,
      "goût": 9560,
      "promotion": 9561,
      "##auff": 9562,
      "rat": 9563,
      "preuve": 9564,
      "sciences": 9565,
      "sociales": 9566,
      "##veille": 9567,
      "officiel": 9568,
      "Env": 9569,
      "##inement": 9570,
      "Mess": 9571,
      "canadi": 9572,
      "Ouest": 9573,
      "##udio": 9574,
      "ouver": 9575,
      "##ériques": 9576,
      "conscience": 9577,
      "riche": 9578,
      "minimum": 9579,
      "##lém": 9580,
      "évaluation": 9581,
      "Sar": 9582,
      "##tiens": 9583,
      "délic": 9584,
      "opérations": 9585,
      "##issez": 9586,
      "plomb": 9587,
      "essentiel": 9588,
      "profil": 9589,
      "##gi": 9590,
      "##chée": 9591,
      "comportement": 9592,
      "reb": 9593,
      "forc": 9594,
      "##iration": 9595,
      "Montréal": 9596,
      "##IG": 9597,
      "AF": 9598,
      "bro": 9599,
      "##rict": 9600,
      "complé": 9601,
      "##semble": 9602,
      "##ètes": 9603,
      "AN": 9604,
      "annon": 9605,
      "discours": 9606,
      "music": 9607,
      "européen": 9608,
      "Trois": 9609,
      "privé": 9610,
      "condam": 9611,
      "avantage": 9612,
      "monu": 9613,
      "##onsieur": 9614,
      "tenu": 9615,
      "présentation": 9616,
      "Pendant": 9617,
      "Cy": 9618,
      "You": 9619,
      "alig": 9620,
      "attaque": 9621,
      "modifier": 9622,
      "##ualités": 9623,
      "pharm": 9624,
      "belles": 9625,
      "électronique": 9626,
      "trouverez": 9627,
      "économiques": 9628,
      "hésitez": 9629,
      "original": 9630,
      "importants": 9631,
      "chanson": 9632,
      "experts": 9633,
      "écoles": 9634,
      "hos": 9635,
      "diver": 9636,
      "infra": 9637,
      "consiste": 9638,
      "humain": 9639,
      "##ted": 9640,
      "tellement": 9641,
      "Royaume": 9642,
      "difficultés": 9643,
      "machines": 9644,
      "Alg": 9645,
      "liés": 9646,
      "that": 9647,
      "complètement": 9648,
      "##ount": 9649,
      "Association": 9650,
      "##asser": 9651,
      "magasin": 9652,
      "énergé": 9653,
      "Parmi": 9654,
      "Seu": 9655,
      "encour": 9656,
      "pert": 9657,
      "montrer": 9658,
      "##ya": 9659,
      "collabor": 9660,
      "esti": 9661,
      "éclai": 9662,
      "considé": 9663,
      "huit": 9664,
      "classement": 9665,
      "bre": 9666,
      "Vict": 9667,
      "sch": 9668,
      "apprentissage": 9669,
      "##IV": 9670,
      "Loire": 9671,
      "paix": 9672,
      "pont": 9673,
      "meur": 9674,
      "kg": 9675,
      "italien": 9676,
      "Dép": 9677,
      "étoiles": 9678,
      "##alisés": 9679,
      "conseiller": 9680,
      "équipements": 9681,
      "aéri": 9682,
      "##zy": 9683,
      "##rad": 9684,
      "dispositif": 9685,
      "Ven": 9686,
      "disting": 9687,
      "Fait": 9688,
      "##ventions": 9689,
      "Vi": 9690,
      "##videmment": 9691,
      "contient": 9692,
      "Ligue": 9693,
      "##ATION": 9694,
      "susp": 9695,
      "réglement": 9696,
      "Institut": 9697,
      "collaboration": 9698,
      "empê": 9699,
      "##ings": 9700,
      "ém": 9701,
      "Service": 9702,
      "##agée": 9703,
      "entier": 9704,
      "##agnes": 9705,
      "##ourt": 9706,
      "utile": 9707,
      "##inture": 9708,
      "existence": 9709,
      "locale": 9710,
      "préparation": 9711,
      "tient": 9712,
      "augmenter": 9713,
      "bénéficier": 9714,
      "Ke": 9715,
      "UN": 9716,
      "écoute": 9717,
      "eaux": 9718,
      "espère": 9719,
      "froid": 9720,
      "sing": 9721,
      "##chi": 9722,
      "privée": 9723,
      "garantie": 9724,
      "Henri": 9725,
      "tiers": 9726,
      "chercher": 9727,
      "dat": 9728,
      "provo": 9729,
      "bleu": 9730,
      "##iendra": 9731,
      "##ound": 9732,
      "My": 9733,
      "SA": 9734,
      "autorités": 9735,
      "concert": 9736,
      "##terre": 9737,
      "Laurent": 9738,
      "##rif": 9739,
      "ES": 9740,
      "supérieure": 9741,
      "Kar": 9742,
      "plage": 9743,
      "Amérique": 9744,
      "radi": 9745,
      "chien": 9746,
      "Bur": 9747,
      "Van": 9748,
      "bientôt": 9749,
      "héber": 9750,
      "##lications": 9751,
      "capable": 9752,
      "profond": 9753,
      "var": 9754,
      "Cli": 9755,
      "##ataires": 9756,
      "Bibliographie": 9757,
      "Inform": 9758,
      "photograph": 9759,
      "réd": 9760,
      "##oureux": 9761,
      "regarder": 9762,
      "##istique": 9763,
      "##ani": 9764,
      "##gements": 9765,
      "russe": 9766,
      "lait": 9767,
      "longueur": 9768,
      "impli": 9769,
      "##don": 9770,
      "inqui": 9771,
      "##agers": 9772,
      "##raine": 9773,
      "Gi": 9774,
      "##MS": 9775,
      "##igneur": 9776,
      "##orld": 9777,
      "##oncer": 9778,
      "##itations": 9779,
      "AP": 9780,
      "essayer": 9781,
      "domaines": 9782,
      "##rise": 9783,
      "FC": 9784,
      "esc": 9785,
      "plans": 9786,
      "FR": 9787,
      "beauté": 9788,
      "AD": 9789,
      "opportun": 9790,
      "ram": 9791,
      "inscription": 9792,
      "CN": 9793,
      "entendu": 9794,
      "Prov": 9795,
      "##oulin": 9796,
      "magnifique": 9797,
      "absolu": 9798,
      "##ael": 9799,
      "Tou": 9800,
      "##verse": 9801,
      "##èche": 9802,
      "exten": 9803,
      "réponses": 9804,
      "voici": 9805,
      "mises": 9806,
      "##cins": 9807,
      "acteur": 9808,
      "##MENT": 9809,
      "dispos": 9810,
      "kilom": 9811,
      "évo": 9812,
      "Wal": 9813,
      "requ": 9814,
      "propriétaire": 9815,
      "Maroc": 9816,
      "Sau": 9817,
      "jusqu’": 9818,
      "##gues": 9819,
      "lac": 9820,
      "présenté": 9821,
      "atelier": 9822,
      "décis": 9823,
      "calme": 9824,
      "prévu": 9825,
      "rencontrer": 9826,
      "han": 9827,
      "mam": 9828,
      "demandé": 9829,
      "marketing": 9830,
      "cru": 9831,
      "hypoth": 9832,
      "anne": 9833,
      "synth": 9834,
      "fichiers": 9835,
      "quas": 9836,
      "mini": 9837,
      "m’": 9838,
      "Marseille": 9839,
      "gérer": 9840,
      "vaut": 9841,
      "diam": 9842,
      "##dent": 9843,
      "Dès": 9844,
      "réserve": 9845,
      "cheval": 9846,
      "##ora": 9847,
      "étapes": 9848,
      "##tenant": 9849,
      "modes": 9850,
      "''": 9851,
      "##eth": 9852,
      "mix": 9853,
      "rav": 9854,
      "véhicules": 9855,
      "quelqu'": 9856,
      "résistance": 9857,
      "œuvres": 9858,
      "Méd": 9859,
      "##ordeaux": 9860,
      "acte": 9861,
      "Angle": 9862,
      "tenir": 9863,
      "ciel": 9864,
      "##lec": 9865,
      "##bo": 9866,
      "Camp": 9867,
      "config": 9868,
      "##rass": 9869,
      "servir": 9870,
      "complexe": 9871,
      "constat": 9872,
      "AU": 9873,
      "Oct": 9874,
      "démarche": 9875,
      "pouvant": 9876,
      "Lab": 9877,
      "sujets": 9878,
      "touche": 9879,
      "##édie": 9880,
      "masse": 9881,
      "Bretagne": 9882,
      "##icien": 9883,
      "##hors": 9884,
      "compli": 9885,
      "##outes": 9886,
      "lancer": 9887,
      "##cemment": 9888,
      "festival": 9889,
      "erreur": 9890,
      "##ols": 9891,
      "IS": 9892,
      "Terre": 9893,
      "proven": 9894,
      "DES": 9895,
      "##rick": 9896,
      "Jan": 9897,
      "construit": 9898,
      "Mi": 9899,
      "##QUE": 9900,
      "participe": 9901,
      "Page": 9902,
      "Personn": 9903,
      "##mann": 9904,
      "lettres": 9905,
      "##sé": 9906,
      "##azine": 9907,
      "maire": 9908,
      "législ": 9909,
      "convient": 9910,
      "fleurs": 9911,
      "statis": 9912,
      "tap": 9913,
      "Code": 9914,
      "naturelle": 9915,
      "étranger": 9916,
      "discip": 9917,
      "##résil": 9918,
      "pét": 9919,
      "Monde": 9920,
      "candidat": 9921,
      "plat": 9922,
      "revient": 9923,
      "##esti": 9924,
      "passant": 9925,
      "prises": 9926,
      "prol": 9927,
      "morce": 9928,
      "lyc": 9929,
      "totale": 9930,
      "##tise": 9931,
      "dynamique": 9932,
      "Sén": 9933,
      "faisait": 9934,
      "performances": 9935,
      "Cong": 9936,
      "##itt": 9937,
      "technologies": 9938,
      "pourraient": 9939,
      "Haute": 9940,
      "##jou": 9941,
      "audi": 9942,
      "Ess": 9943,
      "critères": 9944,
      "##igueur": 9945,
      "##mber": 9946,
      "salariés": 9947,
      "Mil": 9948,
      "AS": 9949,
      "massi": 9950,
      "fib": 9951,
      "blo": 9952,
      "coh": 9953,
      "Thomas": 9954,
      "débat": 9955,
      "##han": 9956,
      "##liam": 9957,
      "Sainte": 9958,
      "André": 9959,
      "##lusion": 9960,
      "##érale": 9961,
      "##isent": 9962,
      "##je": 9963,
      "combin": 9964,
      "biens": 9965,
      "##df": 9966,
      "##reurs": 9967,
      "Organ": 9968,
      "##ror": 9969,
      "ON": 9970,
      "intéressant": 9971,
      "impos": 9972,
      "équipement": 9973,
      "Long": 9974,
      "invent": 9975,
      "accéder": 9976,
      "actuel": 9977,
      "##fort": 9978,
      "inh": 9979,
      "##sif": 9980,
      "côtés": 9981,
      "recette": 9982,
      "ouverte": 9983,
      "témoign": 9984,
      "appa": 9985,
      "fun": 9986,
      "Hotel": 9987,
      "retraite": 9988,
      "rang": 9989,
      "faute": 9990,
      "##iale": 9991,
      "pédagog": 9992,
      "Part": 9993,
      "scolaire": 9994,
      "spectacle": 9995,
      "##ntemps": 9996,
      "##licité": 9997,
      "%.": 9998,
      "aventure": 9999,
      "##vo": 10000,
      "##ctor": 10001,
      "##èce": 10002,
      "##rétaire": 10003,
      "Bre": 10004,
      "préparer": 10005,
      "achet": 10006,
      "##uxelles": 10007,
      "Sous": 10008,
      "suivantes": 10009,
      "chré": 10010,
      "Joseph": 10011,
      "littérature": 10012,
      "##yez": 10013,
      "##tisme": 10014,
      "baisse": 10015,
      "noter": 10016,
      "##bi": 10017,
      "révé": 10018,
      "Lang": 10019,
      "sert": 10020,
      "banque": 10021,
      "sable": 10022,
      "Dra": 10023,
      "procédure": 10024,
      "##my": 10025,
      "##gon": 10026,
      "étend": 10027,
      "##igu": 10028,
      "##times": 10029,
      "bonheur": 10030,
      "envoyer": 10031,
      "aéroport": 10032,
      "associations": 10033,
      "ventes": 10034,
      "boutique": 10035,
      "Santé": 10036,
      "##rén": 10037,
      "##dom": 10038,
      "considéra": 10039,
      "revanche": 10040,
      "commercial": 10041,
      "##illée": 10042,
      "Pra": 10043,
      "##ramme": 10044,
      "changements": 10045,
      "publication": 10046,
      "diz": 10047,
      "Bu": 10048,
      "Commission": 10049,
[...]
