	


 
!
"
#
$
%
&
'
(
)
*
+
,
-
.
/
0
1
2
3
4
5
6
7
8
9
:
;
<
=
>
?
@
A
B
C
D
E
F
G
H
I
J
K
L
M
N
O
P
Q
R
S
T
U
V
W
X
Y
Z
[
\
]
^
_
`
a
b
c
d
e
f
g
h
i
j
k
l
m
n
o
p
q
r
s
t
u
v
w
x
y
z
{
|
}
~













¡
¢
£
¤
¥
¦
§
¨
©
ª
«
¬
®
¯
°
±
²
³
´
µ
¶
·
¸
¹
º
»
¼
½
¾
¿
À
Á
Â
Ã
Ä
Å
Æ
Ç
È
É
Ê
Ë
Ì
Í
Î
Ï
Ð
Ñ
Ò
Ó
Ô
Õ
Ö
×
Ø
Ù
Ú
Û
Ü
Ý
Þ
ß
à
á
â
ã
ä
å
æ
ç
è
é
ê
ë
ì
í
î
ï
ð
ñ
ò
ó
ô
õ
ö
÷
ø
ù
ú
û
ü
ý
þ
ÿ
Ā
ā
Ă
ă
Ą
ą
Ć
ć
ĉ
Č
č
ď
Đ
đ
Ē
ē
ĕ
ė
ę
Ě
ě
ĝ
Ğ
ğ
Ġ
ġ
Ĥ
ħ
Ĩ
ĩ
Ī
ī
ĭ
İ
ı
ĺ
ļ
Ľ
ľ
Ł
ł
ń
ņ
ň
ŋ
Ō
ō
ŏ
Ő
ő
Œ
œ
Ŕ
ŕ
Ř
ř
Ś
ś
Ŝ
ŝ
Ş
ş
Š
š
ţ
ť
ũ
ū
ŭ
ů
ű
ų
ŵ
Ŷ
ŷ
Ÿ
ź
Ż
ż
Ž
ž
ſ
Ɖ
Ƌ
ƌ
Ɛ
ƒ
ƚ
ơ
ư
Ƶ
ǀ
ǎ
ǐ
ǒ
ǔ
ǝ
Ǧ
ǧ
ǫ
ǵ
Ș
ș
Ț
ț
ȝ
ɐ
ɑ
ɓ
ɔ
ɕ
ə
ɛ
ɡ
ɣ
ɦ
ɨ
ɪ
ɯ
ɲ
ɹ
ɾ
ʀ
ʁ
ʂ
ʃ
ʊ
ʌ
ʒ
ʔ
ʰ
ʲ
ʳ
ʷ
ʹ
ʺ
ʻ
ʼ
ʾ
ʿ
ˁ
ˆ
ˇ
ˈ
ˉ
ː
˘
˙
˚
˜
˝
ˮ
̀
́
̂
̃
̄
̅
̇
̈
̣
̧
̩
̯
̲
̶
̸
͏
͕
͘
͛
͡
Ͳ
Α
Β
Γ
Δ
Ε
Ζ
Η
Θ
Ι
Κ
Λ
Μ
Ν
Ξ
Ο
Π
Ρ
Σ
Τ
Υ
Φ
Χ
Ψ
Ω
Ϊ
Ϋ
ά
έ
ή
ί
ΰ
α
β
γ
δ
ε
ζ
η
θ
ι
κ
λ
μ
ν
ξ
ο
π
ρ
ς
σ
τ
υ
φ
χ
ψ
ω
ό
ύ
ώ
ϐ
ϑ
ϕ
Ϟ
ϟ
Ϭ
ϭ
Ϯ
ϯ
ϰ
ϱ
ϵ
Ё
Ђ
Є
Ѕ
І
А
Б
В
Г
Д
Е
Ж
З
И
Й
К
Л
М
Н
О
П
Р
С
Т
У
Ф
Х
Ц
Ч
Ш
Э
Ю
Я
а
б
в
г
д
е
ж
з
и
й
к
л
м
н
о
п
р
с
т
у
ф
х
ц
ч
ш
щ
ъ
ы
ь
э
ю
я
ё
ђ
є
ѕ
і
ї
ј
њ
ћ
Ҩ
ү
ә
ՙ
ա
ե
ի
կ
մ
յ
ն
ո
ս
տ
ր
ւ
֖
֣
֥
ְ
ֲ
ֳ
ִ
ֵ
ֶ
ַ
ָ
ֹ
ּ
ֽ
־
ׁ
ׂ
א
ב
ג
ד
ה
ו
ז
ח
ט
י
ך
כ
ל
ם
מ
ן
נ
ס
ע
פ
צ
ק
ר
ש
ת
،
؟
ء
آ
أ
ؤ
إ
ئ
ا
ب
ة
ت
ث
ج
ح
خ
د
ذ
ر
ز
س
ش
ص
ض
ط
ظ
ع
غ
ـ
ف
ق
ك
ل
م
ن
ه
و
ى
ي
ً
ٌ
ٍ
َ
ُ
ِ
ّ
ْ
ٰ
ٱ
پ
ک
گ
ی
ۡ
ं
क
ग
ज
त
द
न
प
ब
भ
म
य
र
ल
व
श
स
ह
ा
ि
ी
ु
े
ो
्
ন
ব
র
ল
া
ি
্
த
ம
ி
்
ก
ข
ค
ง
จ
ช
ญ
ณ
ด
ต
ถ
ท
ธ
น
บ
ป
ผ
ฝ
พ
ภ
ม
ย
ร
ล
ว
ศ
ษ
ส
ห
อ
ะ
ั
า
ำ
ิ
ี
ื
ุ
ู
เ
แ
โ
ใ
ไ
็
่
้
์
་
ာ
်
ა
ბ
დ
ე
ვ
თ
ი
ლ
მ
ნ
ო
რ
ს
უ
ღ
፡
ᐅ
ក
ន
ប
ម
រ
ស
ា
្
ᴰ
ᴹ
ᵉ
ḍ
ḏ
Ḥ
ḥ
Ḫ
ḫ
ḳ
ḿ
ṁ
ṃ
ṅ
ṇ
ṕ
ṛ
Ṣ
ṣ
Ṭ
ṭ
ṯ
ẋ
ẓ
ạ
ả
ấ
ầ
ậ
ắ
ẽ
ế
ề
ể
ễ
ệ
ị
ọ
ố
ồ
ổ
ộ
ớ
ờ
ở
ợ
ụ
ủ
ứ
ử
ữ
ự
ỹ
ἀ
ἄ
Ἀ
ἐ
ἑ
ἔ
ἡ
ἰ
ἱ
ἴ
ἶ
ἷ
Ἰ
ὀ
ὁ
ὄ
ὅ
ὐ
ὑ
ὕ
ὡ
ὰ
ὲ
ὴ
ὶ
ὸ
ὺ
ᾶ
᾽
ῃ
ῆ
ῇ
ῖ
ῦ
ῳ
ῶ
ῷ
‐
‑
‒
–
—
―
‖
‘
’
‚
“
”
„
‟
†
‡
•
‣
…
‧
‰
′
″
‹
›
※
‼
‿
⁃
⁄
⁉
⁰
₂
₪
€
₽
⃗
⃣
ℂ
℃
ℎ
ℓ
№
ℚ
ℝ
™
ℤ
℮
ℹ
⅓
←
↑
→
↓
↔
↕
↖
↗
↘
↙
↠
↩
↪
↳
↵
⇐
⇑
⇒
⇔
⇢
⇤
⇥
⇨
∀
∂
∃
∅
∆
∇
∈
∏
∑
−
∗
∙
√
∝
∞
∟
∥
∧
∨
∩
∪
∫
∴
∼
≃
≈
≠
≡
≤
≥
≪
≫
⊂
⊆
⊕
⊗
⊤
⊥
⊱
⊹
⋅
⋆
⋙
⌘
⌚
⌛
⌨
⎜
⎪
⎯
⏏
⏩
⏪
⏫
⏬
⏭
⏮
⏯
⏰
⏱
⏲
⏳
⏸
⏹
⏺
␣
①
②
③
Ⓜ
─
━
│
└
├
═
║
▀
▄
█
░
▓
■
□
▢
▪
▫
▬
▲
△
▴
▶
▷
▸
►
▻
▼
▽
◀
◄
◆
◇
◈
◉
◊
○
●
◕
◗
◘
◦
◻
◼
◽
◾
☀
☁
☂
☃
☄
★
☆
☎
☐
☑
☔
☕
☘
☛
☝
☞
☠
☢
☣
☦
☪
☮
☯
☰
☸
☹
☺
☻
☼
☾
♀
♂
♈
♉
♊
♋
♌
♍
♎
♏
♐
♑
♒
♓
♔
♕
♙
♛
♟
♠
♡
♢
♣
♥
♦
♨
♪
♫
♬
♭
♯
♻
♾
♿
⚒
⚓
⚔
⚕
⚖
⚗
⚙
⚛
⚜
⚠
⚡
⚧
⚪
⚫
⚰
⚱
⚽
⚾
⛄
⛅
⛈
⛎
⛏
⛑
⛓
⛔
⛩
⛪
⛰
⛱
⛲
⛳
⛴
⛵
⛷
⛸
⛹
⛺
⛽
✂
✅
✇
✈
✉
✊
✋
✌
✍
✎
✏
✐
✒
✓
✔
✕
✖
✗
✘
✛
✜
✝
✡
✤
✦
✧
✨
✩
✪
✬
✭
✮
✰
✱
✲
✳
✴
✵
✶
✷
✸
✹
✺
✻
✼
✽
✾
✿
❀
❄
❆
❇
❈
❉
❊
❋
❌
❍
❎
❏
❑
❓
❔
❕
❖
❗
❙
❚
❛
❜
❝
❞
❡
❢
❣
❤
❥
❦
❧
❬
❯
➔
➕
➖
➗
➙
➜
➡
➢
➣
➤
➰
➳
➽
➿
⟨
⟩
⟶
⠀
⤴
⤵
⦁
⬅
⬆
⬇
⬛
⬜
⭐
⭕
ⴰ
ⵉ
ⵍ
ⵎ
ⵏ
ⵓ
ⵔ
ⵜ
⸱
、
。
〈
〉
《
》
「
」
『
』
【
】
〜
〰
〽
あ
い
う
え
お
か
が
き
く
け
こ
ご
さ
し
じ
す
せ
そ
た
だ
ち
っ
つ
て
で
と
ど
な
に
の
は
ば
ひ
へ
ま
み
め
も
ゃ
や
よ
ら
り
る
れ
ろ
わ
を
ん
ァ
ア
ィ
イ
ウ
ェ
エ
オ
カ
ガ
キ
ク
グ
ケ
コ
ゴ
サ
ザ
シ
ジ
ス
ズ
セ
ソ
タ
ダ
チ
ッ
ツ
テ
デ
ト
ド
ナ
ニ
ネ
ノ
ハ
バ
パ
ビ
ピ
フ
ブ
プ
ベ
ペ
ホ
ボ
ポ
マ
ミ
ム
メ
モ
ャ
ュ
ョ
ラ
リ
ル
レ
ロ
ワ
ン
ヴ
・
ー
㊗
㊙
一
七
三
上
下
不
与
世
业
东
个
中
为
主
么
之
乐
九
也
书
了
事
二
于
五
井
交
京
人
今
他
代
以
们
件
价
伊
会
位
住
体
何
作
你
使
保
信
元
先
光
克
入
全
八
公
六
共
关
其
内
出
分
切
利
到
制
前
力
加
动
動
化
北
区
十
千
华
南
博
原
去
县
及
友
发
取
口
古
可
台
史
号
司
合
吉
同
名
后
向
周
和
品
商
四
回
国
國
園
土
在
地
型
城
基
堂
場
士
夏
外
多
夜
大
天
太
夫
套
女
好
如
子
字
存
学
學
安
宗
定
实
客
室
宮
家
宿
寓
对
寺
小
少
尔
就
屋
山
島
川
州
工
巴
市
布
帝
常
平
年
店
度
建
开
式
张
張
当
形
影
很
後
得
御
德
心
志
思
性
情
想
意
愛
感
成
我
戦
房
所
手
拉
提
放
政
教
数
整
文
料
斯
新
方
旅
族
无
日
时
明
星
春
是
時
景
更
書
最
月
有
朝
期
木
本
机
李
村
条
来
東
松
林
果
校
格
楽
次
歌
正
武
比
民
気
水
永
江
没
河
治
法
洞
活
流
海
清
港
源
灣
火
点
無
然
版
物
特
玉
王
现
理
生
用
田
由
电
男
町
画
界
白
百
的
皇
目
相
看
真
着
知
石
研
社
神
福
私
科
租
究
空
立
站
竹
第
等
简
类
系
繁
经
网
置
美
義
老
者
而
育
能
自
良
色
花
英
茅
茶
草
華
藤
行
術
街
表
西
要
見
解
言
記
語
语
说
谷
起
超
路
身
軍
车
过
近
这
通
道
那
郎
部
都
酒
里
重
野
金
長
长
門
間
间
阳
阿
院
陽
集
青
非
面
音
風
食
館
香
馬
马
體
高
龍
가
고
구
국
그
기
김
나
눇
눉
는
니
다
대
도
동
드
라
로
리
마
문
민
보
사
산
상
서
선
성
소
수
스
시
신
아
어
에
역
영
오
요
우
원
은
을
의
이
인
일
자
장
전
정
제
조
주
지
트
하
한
해
화
ﬁ
ﬂ
ﷺ
︎
ﺎ
ﺔ
ﻟ
！
（
）
，
：
～
￼
�
𝐀
𝐂
𝐄
𝐈
𝐋
𝐍
𝐎
𝐑
𝐒
𝐓
𝐚
𝐜
𝐝
𝐞
𝐢
𝐥
𝐦
𝐧
𝐨
𝐩
𝐫
𝐬
𝐭
𝐮
𝐴
𝐵
𝐶
𝐷
𝐸
𝐹
𝐺
𝐻
𝐼
𝐽
𝐾
𝐿
𝑀
𝑁
𝑂
𝑃
𝑄
𝑅
𝑆
𝑇
𝑈
𝑉
𝑊
𝑋
𝑌
𝑍
𝑎
𝑏
𝑐
𝑑
𝑒
𝑓
𝑔
𝑖
𝑗
𝑘
𝑙
𝑚
𝑛
𝑜
𝑝
𝑞
𝑟
𝑠
𝑡
𝑢
𝑣
𝑤
𝑥
𝑦
𝑧
𝑪
𝒂
𝒄
𝒅
𝒆
𝒊
𝒍
𝒎
𝒏
𝒐
𝒑
𝒓
𝒔
𝒕
𝒖
𝒙
𝗔
𝗘
𝗜
𝗡
𝗥
𝗦
𝗧
𝗮
𝗰
𝗱
𝗲
𝗶
𝗹
𝗺
𝗻
𝗼
𝗿
𝘀
𝘁
𝘂
𝘦
𝙚
𝛥
𝛼
𝛽
𝛾
𝛿
𝜀
𝜂
𝜃
𝜆
𝜇
𝜈
𝜉
𝜋
𝜌
𝜎
𝜏
𝜑
𝜒
𝜓
𝜔
𝜕
𝜖
𝜙
🀄
🃏
🅰
🅱
🅾
🅿
🆎
🆑
🆒
🆓
🆔
🆕
🆖
🆗
🆘
🆙
🆚
🇦
🇧
🇨
🇩
🇪
🇫
🇬
🇭
🇮
🇯
🇰
🇱
🇲
🇳
🇴
🇵
🇶
🇷
🇸
🇹
🇺
🇻
🇼
🇽
🇾
🇿
🈁
🈂
🈚
🈯
🈲
🈳
🈴
🈵
🈶
🈷
🈸
🈹
🈺
🉐
🉑
🌀
🌁
🌂
🌃
🌄
🌅
🌆
🌇
🌈
🌉
🌊
🌋
🌌
🌍
🌎
🌏
🌐
🌑
🌒
🌓
🌔
🌕
🌖
🌗
🌘
🌙
🌚
🌛
🌜
🌝
🌞
🌟
🌠
🌡
🌤
🌥
🌦
🌧
🌨
🌩
🌪
🌫
🌬
🌭
🌮
🌯
🌰
🌱
🌲
🌳
🌴
🌵
🌶
🌷
🌸
🌹
🌺
🌻
🌼
🌽
🌾
🌿
🍀
🍁
🍂
🍃
🍄
🍅
🍆
🍇
🍈
🍉
🍊
🍋
🍌
🍍
🍎
🍏
🍐
🍑
🍒
🍓
🍔
🍕
🍖
🍗
🍘
🍙
🍚
🍛
🍜
🍝
🍞
🍟
🍠
🍡
🍢
🍣
🍤
🍥
🍦
🍧
🍨
🍩
🍪
🍫
🍬
🍭
🍮
🍯
🍰
🍱
🍲
🍳
🍴
🍵
🍶
🍷
🍸
🍹
🍺
🍻
🍼
🍽
🍾
🍿
🎀
🎁
🎂
🎃
🎄
🎅
🎆
🎇
🎈
🎉
🎊
🎋
🎌
🎍
🎎
🎏
🎐
🎑
🎒
🎓
🎖
🎗
🎙
🎚
🎛
🎞
🎟
🎠
🎡
🎢
🎣
🎤
🎥
🎦
🎧
🎨
🎩
🎪
🎫
🎬
🎭
🎮
🎯
🎰
🎱
🎲
🎳
🎴
🎵
🎶
🎷
🎸
🎹
🎺
🎻
🎼
🎽
🎾
🎿
🏀
🏁
🏂
🏃
🏄
🏅
🏆
🏇
🏈
🏉
🏊
🏋
🏌
🏍
🏎
🏏
🏐
🏑
🏒
🏓
🏔
🏕
🏖
🏗
🏘
🏙
🏚
🏛
🏜
🏝
🏞
🏟
🏠
🏡
🏢
🏣
🏤
🏥
🏦
🏧
🏨
🏩
🏪
🏫
🏬
🏭
🏮
🏯
🏰
🏳
🏴
🏵
🏷
🏸
🏹
🏺
🏻
🏼
🏽
🏾
🏿
🐀
🐁
🐂
🐃
🐄
🐅
🐆
🐇
🐈
🐉
🐊
🐋
🐌
🐍
🐎
🐏
🐐
🐑
🐒
🐓
🐔
🐕
🐖
🐗
🐘
🐙
🐚
🐛
🐜
🐝
🐞
🐟
🐠
🐡
🐢
🐣
🐤
🐥
🐦
🐧
🐨
🐩
🐪
🐫
🐬
🐭
🐮
🐯
🐰
🐱
🐲
🐳
🐴
🐵
🐶
🐷
🐸
🐹
🐺
🐻
🐼
🐽
🐾
🐿
👀
👁
👂
👃
👄
👅
👆
👇
👈
👉
👊
👋
👌
👍
👎
👏
👐
👑
👒
👓
👔
👕
👖
👗
👘
👙
👚
👛
👜
👝
👞
👟
👠
👡
👢
👣
👤
👥
👦
👧
👨
👩
👪
👫
👬
👭
👮
👯
👰
👱
👲
👳
👴
👵
👶
👷
👸
👹
👺
👻
👼
👽
👾
👿
💀
💁
💂
💃
💄
💅
💆
💇
💈
💉
💊
💋
💌
💍
💎
💏
💐
💑
💒
💓
💔
💕
💖
💗
💘
💙
💚
💛
💜
💝
💞
💟
💠
💡
💢
💣
💤
💥
💦
💧
💨
💩
💪
💫
💬
💭
💮
💯
💰
💱
💲
💳
💴
💵
💶
💷
💸
💹
💺
💻
💼
💽
💾
💿
📀
📁
📂
📃
📄
📅
📆
📇
📈
📉
📊
📋
📌
📍
📎
📏
📐
📑
📒
📓
📔
📕
📖
📗
📘
📙
📚
📛
📜
📝
📞
📟
📠
📡
📢
📣
📤
📥
📦
📧
📨
📩
📪
📫
📬
📭
📮
📯
📰
📱
📲
📳
📴
📵
📶
📷
📸
📹
📺
📻
📼
📽
📿
🔀
🔁
🔂
🔃
🔄
🔅
🔆
🔇
🔈
🔉
🔊
🔋
🔌
🔍
🔎
🔏
🔐
🔑
🔒
🔓
🔔
🔕
🔖
🔗
🔘
🔙
🔚
🔛
🔜
🔝
🔞
🔟
🔠
🔡
🔢
🔣
🔤
🔥
🔦
🔧
🔨
🔩
🔪
🔫
🔬
🔭
🔮
🔯
🔰
🔱
🔲
🔳
🔴
🔵
🔶
🔷
🔸
🔹
🔺
🔻
🔼
🔽
🕉
🕊
🕋
🕌
🕍
🕎
🕐
🕑
🕒
🕓
🕔
🕕
🕖
🕗
🕘
🕙
🕚
🕛
🕜
🕝
🕞
🕟
🕠
🕡
🕢
🕣
🕤
🕥
🕦
🕧
🕯
🕰
🕳
🕴
🕵
🕶
🕷
🕸
🕹
🕺
🖇
🖊
🖋
🖌
🖍
🖐
🖕
🖖
🖤
🖥
🖨
🖱
🖲
🖼
🗂
🗃
🗄
🗑
🗒
🗓
🗜
🗝
🗞
🗡
🗣
🗨
🗯
🗳
🗺
🗻
🗼
🗽
🗾
🗿
😀
😁
😂
😃
😄
😅
😆
😇
😈
😉
😊
😋
😌
😍
😎
😏
😐
😑
😒
😓
😔
😕
😖
😗
😘
😙
😚
😛
😜
😝
😞
😟
😠
😡
😢
😣
😤
😥
😦
😧
😨
😩
😪
😫
😬
😭
😮
😯
😰
😱
😲
😳
😴
😵
😶
😷
😸
😹
😺
😻
😼
😽
😾
😿
🙀
🙁
🙂
🙃
🙄
🙅
🙆
🙇
🙈
🙉
🙊
🙋
🙌
🙍
🙎
🙏
🚀
🚁
🚂
🚃
🚄
🚅
🚆
🚇
🚈
🚉
🚊
🚋
🚌
🚍
🚎
🚏
🚐
🚑
🚒
🚓
🚔
🚕
🚖
🚗
🚘
🚙
🚚
🚛
🚜
🚝
🚞
🚟
🚠
🚡
🚢
🚣
🚤
🚥
🚦
🚧
🚨
🚩
🚪
🚫
🚬
🚭
🚮
🚯
🚰
🚱
🚲
🚳
🚴
🚵
🚶
🚷
🚸
🚹
🚺
🚻
🚼
🚽
🚾
🚿
🛀
🛁
🛂
🛃
🛄
🛅
🛋
🛌
🛍
🛎
🛏
🛐
🛑
🛒
🛕
🛖
🛗
🛝
🛞
🛟
🛠
🛡
🛢
🛣
🛤
🛥
🛩
🛫
🛬
🛰
🛳
🛴
🛵
🛶
🛷
🛸
🛹
🛺
🛻
🛼
🟠
🟡
🟢
🟣
🟤
🟥
🟦
🟧
🟨
🟩
🟪
🟫
🟰
🤌
🤍
🤎
🤏
🤐
🤑
🤒
🤓
🤔
🤕
🤖
🤗
🤘
🤙
🤚
🤛
🤜
🤝
🤞
🤟
🤠
🤡
🤢
🤣
🤤
🤥
🤦
🤧
🤨
🤩
🤪
🤫
🤬
🤭
🤮
🤯
🤰
🤱
🤲
🤳
🤴
🤵
🤶
🤷
🤸
🤹
🤺
🤼
🤽
🤾
🤿
🥀
🥁
🥂
🥃
🥄
🥅
🥇
🥈
🥉
🥊
🥋
🥌
🥍
🥎
🥏
🥐
🥑
🥒
🥓
🥔
🥕
🥖
🥗
🥘
🥙
🥚
🥛
🥜
🥝
🥞
🥟
🥠
🥡
🥢
🥣
🥤
🥥
🥦
🥧
🥨
🥩
🥪
🥫
🥬
🥭
🥮
🥯
🥰
🥱
🥲
🥳
🥴
🥵
🥶
🥷
🥸
🥹
🥺
🥻
🥼
🥽
🥾
🥿
🦀
🦁
🦂
🦃
🦄
🦅
🦆
🦇
🦈
🦉
🦊
🦋
🦌
🦍
🦎
🦏
🦐
🦑
🦒
🦓
🦔
🦕
🦖
🦗
🦘
🦙
🦚
🦛
🦜
🦝
🦞
🦟
🦠
🦡
🦢
🦣
🦤
🦥
🦦
🦧
🦨
🦩
🦪
🦫
🦬
🦭
🦮
🦯
🦰
🦱
🦲
🦳
🦴
🦵
🦶
🦷
🦸
🦹
🦺
🦻
🦼
🦽
🦾
🦿
🧀
🧁
🧂
🧃
🧄
🧅
🧆
🧇
🧈
🧉
🧊
🧋
🧌
🧍
🧎
🧏
🧐
🧑
🧒
🧓
🧔
🧕
🧖
🧗
🧘
🧙
🧚
🧛
🧜
🧝
🧞
🧟
🧠
🧡
🧢
🧣
🧤
🧥
🧦
🧧
🧨
🧩
🧪
🧫
🧬
🧭
🧮
🧯
🧰
🧱
🧲
🧳
🧴
🧵
🧶
🧷
🧸
🧹
🧺
🧻
🧼
🧽
🧾
🧿
🩰
🩱
🩲
🩳
🩴
🩸
🩹
🩺
🩻
🩼
🪀
🪁
🪂
🪃
🪄
🪅
🪆
🪐
🪑
🪒
🪓
🪔
🪕
🪖
🪗
🪘
🪙
🪚
🪛
🪜
🪝
🪞
🪟
🪠
🪡
🪢
🪣
🪤
🪥
🪦
🪧
🪨
🪩
🪪
🪫
🪬
🪰
🪱
🪲
🪳
🪴
🪵
🪶
🪷
🪸
🪹
🪺
🫀
🫁
🫂
🫃
🫄
🫅
🫐
🫑
🫒
🫓
🫔
🫕
🫖
🫗
🫘
🫙
🫠
🫡
🫢
🫣
🫤
🫥
🫦
🫧
🫰
🫱
🫲
🫳
🫴
🫵
🫶
de
la
et
le
en
l'
d'
un
au
qu
du
dé
pl
ch
in
re
20
il
ré
se
ou
ex
an
av
Le
su
ce
di
pr
19
tr
ét
ne
La
ar
00
ac
mo
sa
Il
si
te
n'
En
s'
al
Ch
l’
je
so
on
me
d’
mé
  
éc
st
ai
po
th
L'
10
ad
ma
18
Un
).
or
ob
am
pe
Je
co
),
c'
es
ca
cl
De
ph
sé
ag
ég
sp
ab
ra
12
15
év
17
sy
An
gr
Ce
Ar
In
im
Al
j'
16
at
11
Et
Au
14
Th
Re
où
13
ju
op
ép
vi
fa
as
C'
21
id
Si
ni
30
St
Dé
né
of
Ré
Pl
On
bl
22
sc
tu
no
Qu
fr
Su
»,
ça
pi
va
ci
50
RE
J'
Ét
li
bi
24
25
».
Se
Cl
09
Ne
Ph
pa
23
là
is
Ex
m'
08
s’
to
40
01
cv
07
n’
06
Me
Bl
",
cr
Sh
Am
cô
05
Or
hô
fl
er
aj
oc
eu
Tr
04
Te
vo
60
EN
br
02
26
us
03
80
Es
Ad
27
vé
28
ur
D'
œu
Gu
29
".
90
Ju
ST
Gr
hy
pu
!!
DE
31
No
Du
70
Pe
Ma
Sa
L’
35
45
Ab
km
Is
cy
As
Av
be
c’
sh
Di
Ac
Ou
Sp
Sy
Af
vu
bâ
sû
Ge
cm
Go
.,
32
gé
gu
Be
36
Ag
99
33
..
CO
Br
Co
75
].
lo
ap
mê
34
44
Bi
Mo
48
mm
95
38
55
42
39
US
37
Ob
97
bo
ve
fé
LE
Pr
's
Op
by
He
41
ta
fi
El
cu
Mé
nu
92
43
98
51
j’
cé
91
65
49
52
C’
LA
46
85
II
56
59
47
54
we
93
ir
64
Sc
94
96
57
rê
53
Sé
én
Tu
89
82
58
78
72
At
Ed
77
Em
CH
do
éd
88
Im
af
ul
67
em
66
IN
62
mi
68
86
84
71
76
87
69
83
81
bu
TV
Ca
t'
74
61
63
PC
73
--
ri
ET
Rh
79
Ro
We
Lo
Lu
PS
."
CD
Ve
S'
ha
tâ
()
Hô
Jo
.)
wh
Wh
XV
dû
XX
pé
go
N'
lu
CV
Tw
ti
Né
fe
Bo
Cô
AR
Lé
SE
Er
Li
os
Fl
he
AC
Aj
iP
Po
Gé
Pi
J’
Dr
Mc
ro
up
CE
DU
],
AF
AN
Cy
kg
Vi
ém
Ke
UN
My
SA
ES
Gi
AP
FC
FR
AD
CN
m’
''
AU
IS
Mi
AS
ON
%.
Bu
Ah
MA
Hu
ox
él
PL
AM
mâ
GR
Fe
pâ
Az
Ça
??
Os
gl
Ur
][
câ
Kh
it
IV
Hy
el
Ap
AL
Sw
Py
Ir
Cr
SP
.-
hi
Iv
%,
Sm
rh
UE
ge
VI
Éc
hé
%)
dr
CA
Ép
HD
Do
mg
CL
Ev
hu
ly
CP
Ni
Ec
CR
my
**
CC
IP
SN
DV
Id
ml
Ib
tw
):
Ep
AB
EP
…)
CS
Aw
RD
Sk
ME
….
SU
Gh
MO
Ul
Fi
Cu
Oc
Bé
CB
CG
AV
FA
(«
Hé
!)
PE
SC
D’
Pa
Pé
It
UR
To
.»
Dj
té
EX
MP
NE
ru
Uk
Ha
TH
Là
Où
Wi
AG
TE
SS
py
lâ
Ri
»)
By
Ly
QU
PH
:)
Gl
Oh
AT
cf
PR
sk
So
Mr
Ak
SO
CF
DS
);
Év
Ra
PD
Fr
az
Pu
CM
Ti
pp
OU
ax
Mu
gê
mu
BD
Bâ
RT
MS
Ze
Hi
PV
ya
BR
Up
EC
ov
TR
ic
Us
!"
PA
OS
BE
Ry
éb
RC
Ci
uk
Ga
Ok
ec
TF
Vé
fu
IR
("
DC
Œu
Ol
',
//
Ox
NO
SD
OR
Eh
vs
RO
Ay
aî
::
JE
DI
HP
iv
Ba
da
om
HT
Nu
BO
VF
na
mn
VO
IM
Kn
ID
")
BM
PM
SM
(†
Ki
Ky
LG
ep
RP
?"
PO
sw
Ts
Na
GP
BL
Vu
WC
pc
IG
Ta
ps
RH
jp
ED
ER
FN
OP
SH
Ko
Ho
Zé
Pâ
pm
if
Sn
sn
Ty
DJ
IC
DR
Da
-,
":
Cé
Mb
Fé
?)
GT
DA
BA
PN
Fu
FF
[#
Ru
Of
OC
RS
EL
Va
LC
Ye
MC
sm
LO
IL
ye
Ka
Vl
IT
RA
FL
gâ
DH
OM
))
ed
DÉ
lé
ty
FI
ib
ah
't
IF
;)
LN
Fa
FO
NF
(-
JO
PU
IA
GO
mp
Ég
UV
ke
SI
GU
wc
kW
HC
FS
MM
Eg
TO
ol
TP
tv
ال
ok
Éd
'.
(@
HE
mû
DG
DO
XL
Ax
SF
GS
cd
ts
FM
nd
OK
Eu
PP
RF
S’
RÉ
sl
Om
TC
Ya
TN
t’
TG
TS
BP
?!
Ku
RN
OL
BN
Od
Ey
GE
GM
OT
BB
d´
CI
Cd
Zh
SK
Sl
N’
If
;"
l´
’s
TA
,…
bé
ms
Ny
EH
zo
rd
SG
SL
”,
Té
nm
)-
pê
)(
WW
ev
BC
ds
FE
WE
SV
SR
EU
EV
,.
pH
EM
HO
ML
Ji
:.
Mü
*,
.:
Zo
UK
Eb
SW
XP
BI
IX
!,
px
MD
DN
dj
SY
cc
LR
oh
GB
MB
}}
Zi
pv
râ
Ps
GL
VR
wp
HS
LP
?,
Vo
AE
&#
GN
)[
.(
Dh
Cf
VA
(*
jo
MT
VE
,,
Jr
(,
M'
sv
NC
""
\'
Rw
rô
Rê
gh
”.
:-
GA
ay
Hz
ot
Wo
DL
DM
MW
Sz
çà
!.
AA
CT
{{
ga
.[
ii
Ub
RM
AI
ny
JP
LM
Yu
.]
UC
UA
NR
eg
Mâ
ki
MI
T'
,"
HU
Gy
sr
Ng
OF
UP
__
Câ
MG
NA
Ém
AJ
Iz
Yv
KO
DD
PT
Ek
LU
PI
Aï
od
JC
MR
])
»…
bû
XI
kh
µm
UL
kn
iT
)"
HA
Xi
EF
CU
Ot
LS
DP
HR
GD
NY
Nd
mA
fo
eh
Gn
ba
Yo
-)
Pf
TI
Km
mL
JU
Kr
tt
NB
MV
Gö
–,
rp
IB
QC
TU
')
NS
zé
ji
gn
bê
-.
BY
qq
ss
Gw
Kl
VS
BU
('
og
EA
/-
ip
Dy
Wu
BS
TM
!»
Og
JS
(?
Oz
fâ
ft
zi
HY
NP
TD
:#
bg
TL
LI
FP
*.
rs
OV
Wy
ns
Ig
./
OB
)…
dB
?.
OH
dî
bb
zu
MJ
GC
MÉ
eB
EI
AK
gy
PK
Io
[/
MN
LT
'm
DB
LY
TT
wa
Bh
ko
hd
FD
.;
MK
Ai
ka
/.
AZ
EB
AX
FB
RV
cs
Ja
Kw
»[
Wa
uc
´m
n´
’d
´s
’t
c´
s´
’m
m´
j´
´t
t´
'd
´d
##e
##s
##t
##q
##u
##i
##a
##v
##n
##r
##y
##o
##m
##l
##c
##h
##d
##G
##ï
##é
##g
##ô
##ε
##ρ
##γ
##ί
##ν
##α
##ς
##ş
##k
##z
##p
##D
##I
##F
##Y
##b
##L
##A
##N
##ل
##ت
##ق
##ي
##x
##S
##P
##ù
##у
##и
##з
##а
##f
##j
##w
##Z
##E
##O
##ø
##æ
##C
##B
##R
##U
##è
##н
##т
##о
##в
##і
##ч
##T
##H
##W
##Q
##M
##ā
##à
##ē
##J
##X
##ῷ
##م
##ط
##ا
##ب
##ة
##V
##ç
##â
##K
##м
##ë
##É
##ê
##𝑠
##𝑒
##𝑛
##𝑐
##ö
##า
##น
##Ν
##Р
##î
##Г
##š
##á
##β
##λ
##η
##θ
##έ
##τ
##ω
##ä
##行
##一
##次
##י
##ש
##)
##*
##外
##国
##用
##和
##于
##非
##商
##业
##目
##的
##政
##ה
##כ
##ל
##\
##'
##𝗻
##𝗰
##𝗲
##𝗶
##𝘁
##じ
##う
##つ
##に
##δ
##פ
##ט
##ר
##然
##是
##有
##点
##û
##О
##ə
##由
##之
##г
##니
##다
##民
##星
##ŝ
##ŵ
##ď
##ƌ
##Ă
##ر
##د
##ș
##ı
##里
##ι
##к
##大
##ñ
##画
##を
##書
##く
##海
##ó
##φ
##ή
##μ
##영
##주
##س
##ن
##Ђ
###
##!
##ɣ
##ſ
##р
##ь
##ю
##с
##𝑓
##𝑡
##𝑟
##𝑙
##Õ
##б
##д
##л
##ʾ
##е
##й
##お
##と
##め
##я
##ʺ
##ف
##ß
##ą
##Š
##ü
##𝑘
##&
##ʀ
##ɔ
##ú
##ḥ
##Ş
##.
##ł
##แ
##ผ
##ท
##å
##ř
##Ó
##ę
##ы
##ц
##»
##«
##し
##い
##で
##す
##が
##%
##"
##,
##[
##ã
##ո
##ւ
##տ
##ի
##ค
##ว
##ม
##:
##ō
##ج
##و
##ض
##È
##ʹ
##Π
##ж
##č
##者
##道
##也
##У
##ї
##中
##文
##ш
##π
##ά
##χ
##ο
##υ
##Ø
##ύ
##ū
##σ
##ɑ
##字
##門
##µ
##ǔ
##ʁ
##ث
##ī
##ʼ
##ă
##西
##出
##店
##は
##Æ
##平
##野
##õ
##Ä
##í
##ℓ
##九
##个
##成
##就
##れ
##ひ
##思
##福
##代
##Ł
##ʻ
##ー
##ト
##ル
##ĕ
##ð
##ˁ
##ː
##خ
##ه
##ế
##Œ
##ع
##Ê
##한
##상
##기
##山
##院
##家
##Ç
##ὴ
##ž
##가
##ﬁ
##𝐚
##𝐞
##ė
##ῆ
##主
##義
##世
##界
##の
##𝘦
##ˈ
##ὰ
##{
##Í
##𝒂
##𝒊
##𝒏
##𝒕
##ὶ
##ɕ
##ŋ
##А
##Н
##Ц
##З
##С
##К
##М
##ต
##ล
##อ
##ด
##เ
##茅
##没
##κ
##存
##在
##治
##新
##市
##な
##か
##っ
##た
##ら
##Γ
##Ι
##Ο
##Υ
##ย
##食
##事
##À
##𝗦
##𝗧
##화
##로
##ő
##Ϋ
##子
##上
##很
##好
##𝐺
##_
##ɛ
##ǐ
##ě
##신
##ز
##田
##多
##州
##河
##东
##部
##ủ
##Ô
##º
##き
##り
##𝑎
##ʊ
##أ
##ش
##理
##𝑥
##𝑖
##ì
##ǎ
##원
##은
##本
##音
##楽
##え
##ʌ
##-
##(
##ɾ
##п
##ˮ
##Ï
##ξ
##х
##区
##水
##北
##南
##城
##英
##语
##使
##情
##þ
##ʿ
##高
##ん
##人
##だ
##イ
##ガ
##シ
##ラ
##ホ
##オ
##ジ
##ロ
##全
##動
##東
##э
##不
##能
##无
##も
##ό
##ร
##Ö
##א
##ו
##ס
##ま
##ﺎ
##𝘀
##元
##天
##江
##路
##ϕ
##ח
##נ
##阳
##プ
##ム
##𝜆
##ɪ
##ʒ
##ś
##ṭ
##ò
##ス
##म
##स
##ע
##ת
##ק
##ѕ
##ņ
##果
##斯
##基
##知
##ナ
##比
##ば
##少
##八
##小
##时
##可
##以
##到
##二
##口
##要
##数
##ῖ
##京
##法
##学
##Ą
##心
##花
##Ã
##記
##ğ
##所
##发
##方
##מ
##Ò
##Ϊ
##ح
##ý
##了
##ى
##族
##館
##分
##利
##马
##ὐ
##立
##房
##间
##ك
##하
##?
##生
##あ
##る
##ک
##百
##春
##ص
##ห
##ก
##ศ
##ġ
##け
##年
##ć
##園
##¼
##Ÿ
##눇
##Î
##ำ
##ф
##ů
##Е
##И
##ƒ
##及
##て
##…
##/
##こ
##Ρ
##Ω
##Τ
##Κ
##Σ
##ț
##𝑜
##𝑚
##𝑔
##ง
##ṅ
##景
##林
##ﻟ
##ḫ
##ώ
##œ
##𝑣
##Ü
##İ
##Ú
##合
##会
##手
##加
##ё
##ĭ
##这
##グ
##ン
##]
##フ
##タ
##マ
##ケ
##ッ
##地
##ウ
##ד
##チ
##那
##后
##我
##ظ
##ב
##ـ
##先
##𝑂
##堂
##实
##ᾶ
##ち
##ろ
##王
##如
##자
##ἱ
##7
##Ƌ
##ľ
##ป
##ะ
##동
##テ
##Л
##Ш
##Я
##レ
##Ž
##고
##𝐍
##𝐈
##𝐑
##𝐎
##𝐄
##𝐓
##ń
##Ф
##ษ
##Ч
##Т
##ャ
##ク
##ż
##ạ
##ị
##ɨ
##;
##’
##щ
##リ
##ニ
##國
##宮
##術
##品
##美
##作
##戦
##Χ
##Θ
##ῶ
##ṕ
##ṛ
##何
##غ
##网
##他
##放
##格
##特
##𝜏
##@
##த
##ṣ
##𝐶
##ℎ
##よ
##内
##Û
##ი
##ა
##ŏ
##ی
##宿
##ュ
##バ
##提
##取
##ɲ
##ψ
##국
##𝐢
##𝐬
##𝐭
##𝐨
##𝐫
##𝐮
##千
##ア
##ũ
##Ë
##ɡ
##」
##（
##Φ
##ក
##武
##自
##车
##旅
##下
##名
##朝
##近
##你
##わ
##В
##𝑤
##ソ
##ペ
##十
##ṃ
##Ŷ
##ъ
##•
##스
##石
##Μ
##ζ
##女
##阿
##拉
##𝑏
##今
##永
##明
##ذ
##县
##Ɛ
##Д
##რ
##ე
##ბ
##ს
##ọ
##常
##ṇ
##บ
##期
##ワ
##灣
##–
##四
##志
##号
##们
##更
##松
##Â
##み
##へ
##إ
##𝐥
##动
##Ā
##จ
##简
##体
##Č
##Ε
##日
##語
##어
##繁
##體
##清
##ئ
##ן
##入
##უ
##ლ
##ო
##Ƶ
##Đ
##Ś
##ϭ
##ϱ
##ʲ
##感
##布
##等
##社
##集
##𝗼
##𝗿
##ء
##デ
##โ
##ใ
##屋
##Á
##ョ
##科
##尔
##島
##ˆ
##Ġ
##Ɖ
##Ğ
##ƚ
##Ѕ
##드
##表
##化
##对
##来
##キ
##パ
##公
##机
##经
##度
##原
##風
##선
##}
##ố
##צ
##华
##수
##三
##长
##六
##ג
##𝛾
##Þ
##现
##想
##同
##看
##의
##ĉ
##や
##ァ
##ɐ
##𝐴
##ʃ
##나
##ゴ
##ῇ
##白
##ˇ
##共
##金
##ゃ
##𝑃
##建
##史
##ј
##ể
##Ț
##空
##港
##Α
##过
##活
##最
##月
##長
##言
##价
##리
##住
##意
##Б
##ợ
##에
##지
##德
##𝘂
##𝗮
##而
##無
##𝑧
##‹
##ณ
##Ð
##მ
##Ё
##向
##ם
##开
##】
##𝑇
##𝑢
##ǝ
##𝐦
##𝐧
##ช
##ǧ
##ţ
##đ
##着
##吉
##影
##超
##古
##老
##式
##ェ
##ビ
##Ő
##Ě
##є
##ⴰ
##ⵏ
##光
##ĩ
##𝒅
##𝒓
##𝒐
##𝒄
##𝒔
##李
##宗
##第
##当
##起
##서
##ḍ
##을
##ὺ
##𝑦
##는
##П
##𝑑
##대
##전
##ÿ
##ň
##ћ
##प
##न
##य
##ส
##保
##馬
##真
##そ
##𝐼
##都
##站
##ベ
##ؤ
##ვ
##件
##香
##Λ
##Ì
##さ
##ど
##土
##𝑈
##𝐿
##𝑀
##𝑋
##ন
##町
##通
##ブ
##†
##博
##物
##系
##ա
##谷
##村
##마
##台
##歌
##𝐝
##ザ
##Ŕ
##与
##流
##ª
##ẓ
##𝑆
##𝑉
##역
##ﺔ
##教
##育
##安
##街
##𝑝
##司
##ῳ
##ʂ
##Δ
##Ξ
##𝐸
##Ṭ
##時
##ű
##正
##说
##Ψ
##ụ
##І
##𝑁
##𝐻
##Ĩ
##ồ
##研
##么
##定
##ΰ
##重
##位
##性
##ǒ
##相
##ὁ
##ῦ
##ź
##得
##사
##制
##산
##为
##其
##〉
##ῃ
##室
##私
##‘
##士
##版
##Ͳ
##条
##ә
##Å
##交
##間
##竹
##해
##回
##𝑅
##七
##𝑪
##𝒎
##𝒆
##メ
##ὸ
##성
##아
##트
##巴
##آ
##이
##ἴ
##ἷ
##ὀ
##ϐ
##皇
##帝
##川
##ⵉ
##ⵔ
##ⵜ
##面
##𝙚
##𝐷
##일
##力
##”
##ἰ
##ὲ
##Ć
##校
##Х
##寺
##ἀ
##电
##𝗱
##酒
##寓
##ไ
##ɯ
##우
##พ
##𝜇
##ז
##¶
##𝜋
##ť
##前
##ὑ
##구
##克
##ṯ
##ถ
##“
##ḿ
##ՙ
##ご
##민
##気
##神
##置
##切
##Ҩ
##·
##ŷ
##木
##ն
##Η
##解
##料
##⟩
##0
##𝑞
##色
##ր
##մ
##𝗹
##ˉ
##گ
##ィ
##ᐅ
##ђ
##Ý
##Ñ
##モ
##ツ
##型
##Й
##𝒍
##𝒖
##究
##ʔ
##ŕ
##ネ
##𝐋
##𝐀
##見
##夫
##乐
##ド
##夜
##サ
##軍
##ズ
##Ù
##თ
##𝜃
##エ
##男
##ธ
##书
##草
##Э
##ḏ
##五
##𝗜
##𝗘
##ϑ
##ⵓ
##ⵍ
##র
##場
##ŭ
##ヴ
##セ
##ᵉ
##ấ
##Ē
##요
##소
##ả
##ϰ
##क
##र
##ἶ
##인
##租
##套
##良
##ⵎ
##𝗡
##𝗥
##Ō
##Ж
##կ
##友
##张
##시
##문
##《
##》
##）
##라
##‡
##‰
##信
##ภ
##伊
##せ
##ნ
##″
##華
##김
##ὡ
##客
##Ḫ
##ข
##カ
##ệ
##ल
##ɹ
##〈
##ǫ
##工
##學
##ư
##ở
##𝐜
##井
##关
##Є
##ダ
##ǵ
##𝐩
##ハ
##ญ
##도
##정
##洞
##ノ
##ậ
##郎
##ʰ
##ȝ
##დ
##յ
##ս
##ե
##ų
##玉
##ộ
##ボ
##ℤ
##𝜔
##𝜀
##1
##御
##조
##身
##源
##ϯ
##ḳ
##藤
##ĺ
##ピ
##ẽ
##ơ
##ϵ
##𝐵
##њ
##ᴹ
##ᴰ
##Β
##𝛼
##』
##コ
##ү
##周
##𝜙
##火
##𝑗
##त
##張
##ļ
##ề
##𝐒
##ℂ
##§
##Ϯ
##𝜑
##整
##ĝ
##제
##去
##太
##茶
##ʳ
##。
##𝐾
##ग
##व
##द
##ễ
##夏
##𝗺
##形
##ʷ
##پ
##Ḥ
##、
##Ϭ
##Ἰ
##¡
##青
##𝜌
##𝒑
##ポ
##ὄ
##ὅ
##ך
##—
##「
##ħ
##Ř
##¿
##ἐ
##ミ
##後
##类
##𝑌
##그
##ब
##장
##『
##ម
##𝑊
##Ī
##【
##ღ
##보
##ฝ
##ﬂ
##ờ
##𝑄
##𝗔
##愛
##ɓ
##𝜎
##𝛿
##Ǧ
##陽
##⁰
##ổ
##・
##រ
##Ζ
##؟
##›
##ṁ
##ớ
##𝑍
##오
##ắ
##ǀ
##龍
##‐
##𝛽
##‿
##ầ
##！
##‑
##𝐹
##भ
##𝒙
##‖
##ம
##ἄ
##𝐂
##Ю
##ὕ
##„
##³
##ল
##Ľ
##ह
##ỹ
##¹
##½
##𝜒
##5
##―
##𝜖
##ស
##′
##ន
##8
##ữ
##𝐽
##，
##Ș
##ϟ
##ज
##𝜉
##𝜂
##𝜈
##Ἀ
##ប
##ứ
##ℝ
##2
##〜
##ব
##⟨
##3
##Ż
##ɦ
##ℚ
##Ŝ
##4
##‒
##Ϟ
##ٱ
##₂
##②
##ự
##①
##،
##𝜓
##श
##ἑ
##：
##⁃
##ἡ
##´
##𝛥
##※
##፡
##‟
##ẋ
##־
##Ṣ
##ἔ
##ử
##9
##Ĥ
##❯
##‚
##6
##²
##‣
##ﷺ
##‧
##་
##❬
##⅓
##¾
##③
## 
##⸱
des
les
est
par
con
une
com
que
pro
sur
qui
pas
ave
int
ent
app
son
peu
tra
Les
qu'
ser
aux
aut
per
mar
pré
mon
...
res
dis
imp
exp
ont
déc
été
car
ses
Par
ann
nom
pre
uti
acc
cel
rés
ren
tou
eff
fin
for
inf
Mar
Com
ter
ces
ass
pri
sou
dev
col
min
rec
pos
rég
cha
tro
man
env
pub
off
jus
mes
gra
lui
ils
ans
cas
der
dép
fil
gén
jeu
cré
ret
vos
vis
cor
vie
sit
éle
fon
emp
aff
mil
ins
rép
seu
pay
Une
the
non
esp
mal
enf
réf
att
bas
déb
sec
met
inc
nos
Pro
hom
dro
mat
rel
cap
cli
jou
ver
sal
rep
Con
mod
étu
dés
ouv
not
che
ven
bon
mus
Des
fer
cro
loc
déf
fem
ess
fam
exe
can
and
aur
hui
Car
liv
dur
hab
gar
eur
déj
lib
dom
eau
lég
act
dou
mis
reg
moi
moy
bes
sol
Int
mom
qu’
éch
ant
fra
vol
som
pra
ach
dit
hum
cet
tel
rap
ten
fut
REF
bou
The
pop
siè
Mon
voy
sep
cin
eng
cal
ici
mot
all
dém
Eur
sem
sub
rou
Cha
mai
log
dét
Ces
sau
mer
end
ris
ple
men
soi
num
imm
Déc
Ils
lim
arr
ref
tot
viv
piè
hau
occ
Sur
bar
ali
Can
Cel
oct
fac
Col
htt
tex
://
réc
maj
cir
bat
cat
mob
rev
lit
mag
pol
mul
thé
cou
inv
abs
veu
fab
etc
gen
Bar
cri
Cor
eux
ord
but
val
Que
App
Pri
rom
Son
Mal
vue
élé
dès
Man
opp
règ
doi
rem
www
plu
Pub
Ren
Ent
Ant
emb
air
cer
loi
Acc
feu
tes
Tra
sci
Pre
Aut
Ser
Rép
vit
Bon
vac
art
sup
Pas
pie
Ass
New
ton
équ
poi
fau
Bel
reç
toi
sus
END
pan
lum
enc
Lou
amb
net
cit
Est
tri
fai
vér
nég
rac
Mus
sud
tar
Rés
web
pot
élè
And
neu
aim
rue
typ
rév
   
Mer
sac
Sal
pap
Fil
Esp
Rob
fix
ban
Ter
sex
Per
sim
Ang
idé
fav
maî
Réf
fré
ème
Sch
évé
bal
âge
oub
Gar
Ins
Fin
dég
civ
syn
tit
mét
gam
Joh
Sud
iss
jur
del
!!!
via
fle
rej
rob
Jac
écl
pil
Ber
gaz
pat
mic
sûr
Ver
For
Ann
Val
lut
Ben
Roy
Lib
ami
Jeu
Act
ast
fru
Pré
sav
cam
Bou
san
nav
pou
Dis
Cap
Bas
cop
Che
cul
dén
dél
Cet
Gal
vir
Ste
mas
Sam
Cas
Cré
Gra
Web
pén
Min
six
Pal
lab
tém
Exp
mém
cra
urb
Res
hés
Sec
Cal
exc
oeu
Fer
bel
Mac
pal
mél
arb
Wil
Rou
Lau
Gen
Dan
oui
Nic
Jou
Nos
Mad
vic
Mat
mor
hyp
Har
Bra
hor
dix
coû
ble
ate
ang
Dav
bud
Emp
Hau
Tro
Off
suc
top
Mag
Rom
Ret
Hen
Fre
Qui
Jus
cre
Her
Cam
Mor
meu
Imp
roi
Peu
dév
Non
riv
cab
roy
Rég
ray
Dom
île
Cro
gal
den
dra
voi
mur
vin
Rec
dol
caf
fen
fre
Oui
Air
Del
pis
Aff
Bal
Gén
ait
bru
dos
Cat
red
béb
Pat
cur
vas
féd
Vie
San
ara
Tur
Luc
Ali
bac
dér
Bro
arm
Art
Nom
amp
émo
Pol
tre
Vol
Dou
Mes
Dim
fig
Fab
Fem
péd
div
Ses
cad
dig
bra
Ban
bus
lic
Sim
fou
tax
Met
adh
ext
Ach
boî
enj
Thé
Mic
rét
Mai
Tri
Inf
Vis
Hol
Gre
alg
vra
jau
clé
hyd
Den
Qu'
lou
mut
All
Liv
kil
por
éto
org
Max
méd
III
côt
pom
Oli
Net
Mis
Mod
Sav
Top
mén
her
Reg
Att
are
rat
Env
Sar
reb
bro
You
hos
Alg
Seu
bre
sch
Dép
Ven
dat
Kar
Bur
Van
var
Cli
réd
esc
ram
Tou
évo
Wal
Sau
lac
han
mam
cru
Dès
mix
rav
Méd
Oct
Lab
DES
Jan
tap
pét
lyc
Sén
Ess
Mil
fib
blo
coh
inh
fun
Bre
Dra
Pra
diz
Sou
pur
Tar
mig
Sol
CON
tôt
don
Rue
faç
Bri
aci
ore
rub
Uni
Cer
Eff
née
Sep
lar
mac
has
Cre
fus
ind
May
mou
adj
Mét
Bat
Dém
élu
Ara
Mme
Loc
Let
len
pau
Moy
Cin
Tru
Sit
fit
Jés
Gab
tab
bio
Neu
LES
van
Log
Ham
fro
Tor
Fré
Tag
Nov
Enf
sel
jet
rig
Syn
Rep
you
PRO
Sac
ign
gri
bét
asp
Sil
Mul
Ast
ère
Mot
flu
Cov
far
rur
Ray
Aux
Lac
ber
Pan
lin
Mas
Lég
mol
htm
cos
brû
aid
Lim
Bay
Dés
Ouv
Fam
Moi
bis
Men
inj
Pau
Flo
Pos
Ble
Bru
sil
pel
Mur
Guy
---
abb
PAR
was
âme
Rem
Red
Pap
aqu
bén
hon
Déb
Vos
War
Mos
ath
pdf
obs
foi
Hom
Tom
Gir
Mel
jui
Don
fid
Tre
Lin
Nor
Rev
Fig
uns
Sté
EUR
pla
lié
Lun
Rel
doc
Jul
Hum
Ros
PDF
Nav
sty
tur
box
One
coc
océ
out
pul
sén
fol
Hor
Die
Cou
clo
voc
pne
œil
spe
asc
Vir
fas
Eng
pen
pon
ski
vul
Bus
rup
Exe
Rog
Hab
Syl
Cab
Arm
gre
Pic
axe
nar
Pop
vib
Hal
nul
vou
rot
Fra
Aub
Fau
tac
Div
Hug
tir
Ath
Cop
gel
sor
hér
Num
Dub
Ger
Bab
Rap
Ici
tom
bet
Jér
fan
Déf
Der
tor
lot
MAR
Cra
Moh
Ram
Riv
anc
lis
XXe
Aqu
%),
goû
Dur
XIX
Nap
Cur
Bes
sté
cle
Los
Lar
ine
éth
use
Inc
Big
arc
Amb
Lit
cyc
Gau
Arn
Lum
max
fur
deb
Rol
bag
fir
Lis
cum
ong
gro
Lot
DVD
sin
Dam
inu
Sab
Imm
Poi
Mou
USB
Dar
oxy
dot
Pou
Mah
Hel
cib
Loi
Cri
AFP
nov
ger
new
von
asi
mit
Aug
glu
Cir
COM
pic
eut
Han
ben
Bor
Vit
ens
Gér
.),
deg
tub
Arc
USA
Pet
oli
Bob
%).
nat
sév
Île
Bac
tut
Tit
enn
nez
tuy
LED
pes
due
Pen
Cit
Lor
pav
Ari
Jon
Ate
Not
épr
Leg
kit
cog
fum
cla
Spe
Dét
duc
dor
(),
Far
Tok
Dre
.).
Mam
rab
EDF
Tel
Wik
har
Sun
Tex
???
Fri
Rod
Roi
alé
Win
Out
Aur
raj
Las
Rab
Doc
sab
tox
Dig
Gil
Bir
obt
Bos
foc
Gro
noy
Vin
Als
bri
réé
raf
Dun
riz
set
Var
bor
MON
ste
pun
Alb
hém
Sub
inn
php
Ple
Pie
coe
Mun
our
vig
Pot
Viv
Maj
orb
Voy
Rac
vag
Veu
Bud
aud
bil
Gaz
Séb
Tim
Tot
fri
Eli
heb
chi
one
sph
hal
dys
SUR
und
dil
Bio
Fac
pér
Pil
Âge
gla
Tes
Pay
Ref
Nat
How
rit
bit
cig
nor
Ott
lav
arg
Som
Ken
Cos
***
job
tué
tun
châ
Dol
But
tal
vel
duo
Bol
Lee
ais
Ont
TVA
Jui
éte
Bet
mos
Lam
Hub
Pok
Jim
bul
Ard
Dor
Bad
Mém
Tch
bol
Ile
Kit
Bul
Déj
dir
ONU
Abb
Maz
Nam
Fal
Vac
Ker
Meu
Deb
bot
…).
Rub
Caf
dep
biz
Lan
PME
Aix
nob
emm
Chi
pli
Lag
bur
joy
Nik
sug
Tan
Cle
Sem
Dev
Boy
Med
Ris
Bit
Bah
Duc
Blo
hol
Avr
éti
Hon
naz
Pin
Feu
pin
Arr
Vér
Kim
Tal
Vil
Fév
gay
Occ
Sel
Sui
Eau
Jer
Mid
hel
gly
Day
erg
méc
jac
Idé
PAS
ras
tch
Règ
Coc
Mol
dec
Fun
God
Mél
Six
Vel
Ale
Kur
UNE
lun
Joe
Tam
Sus
dan
Dal
Eug
cub
FOR
Pom
Nar
Ton
rad
Rio
las
néo
Lui
Fou
fal
Kel
cut
Box
éro
Amé
Cub
CAR
laï
Hos
Lev
tag
Pét
Sky
Hou
Bis
âgé
CBD
lol
Bén
Dip
Iss
End
Tab
Jam
Fed
Bag
PSG
def
vid
Esc
éco
ADN
Squ
Sup
GPS
luc
nan
CAP
Fas
eme
Vau
gré
mad
Emb
vec
Gui
VPN
Sah
Lud
Mau
Fle
Clo
Cru
lan
soc
Kam
jal
Mik
Lav
Ric
Tay
tim
Sum
Réc
iOS
She
die
Wes
bec
Hil
Sin
rez
Pel
Lut
Jud
Haw
Fir
Aoû
Laf
Châ
EST
Bau
cho
Dup
Dec
tas
Pis
tol
SER
Kal
ISO
Hay
aig
Deu
Cah
Cad
hop
Lic
Civ
RES
Kon
Via
ONG
Cup
Abd
Mig
Ele
may
Kat
bad
flè
lev
Vic
jpg
iso
Inn
Tap
-),
fat
obé
Sor
Mak
Gri
lux
Fut
Mut
Haï
SEO
Law
»).
ail
sap
gir
bob
Kir
Run
Dum
Ami
lig
Had
bic
Nob
cot
éli
jan
dun
cac
Suz
().
SAR
vot
Rot
Set
imb
CDI
fes
réh
blé
McC
ved
Seb
did
put
Fon
lip
Wat
Bot
tue
Ash
PVC
CAN
Jes
Get
Fol
gig
Tél
Océ
Hyd
Tém
Moz
tam
vif
Age
sax
los
Yam
bin
Joy
Spr
pix
Pow
Kaz
Lyc
Toy
sat
SMS
Bow
Mix
»),
PAC
Hot
squ
pod
Ech
Jun
Tib
Pav
Lap
osc
Lew
bib
Gon
Wel
tén
Lub
Rav
Sie
boy
spé
Tak
!).
sui
two
Gas
lés
cbd
maç
Hit
Dix
spa
its
abe
Bil
ner
nés
Spa
RDC
XIV
PER
séj
Puy
rai
adm
UMP
din
Sen
lob
nit
Kan
URL
Sig
Sof
Voi
(…)
age
ing
Ped
Raf
Jur
fic
wid
Vue
TRA
Bun
Naz
ard
PDG
INF
gab
Reu
Pur
Din
TER
Sir
Len
bug
MER
low
vén
TTC
big
Sul
Eco
Rad
Def
Way
SAS
Are
flé
Dep
Coh
évê
Gel
Béb
Lem
Tax
bos
mys
Lat
BMW
pow
Lie
VII
Job
Qu’
fût
Rat
déç
run
thr
Ler
Inv
Nel
Fit
mun
Roc
…),
Bec
gue
piv
Gib
sam
Ten
get
PIB
Apr
mel
mec
Ans
CGT
Pon
Vén
REN
Sci
Por
Fox
abî
Our
coé
Abs
CAS
BTS
vap
fév
NAS
ham
Agn
Gam
Cav
crâ
Blu
éme
lès
Fav
sco
det
Key
ion
Pad
NBA
Sat
ASS
Rém
Mir
Tah
Asc
Jau
Mem
Ind
Tré
syl
AVE
ide
Tai
hép
dri
NGC
Clé
Hav
Fis
tré
Lyn
méf
Rib
Gor
COL
Pod
equ
mee
Réd
Kle
PRE
Amp
Gun
pig
Buc
dam
Zur
Fay
Fru
tum
MIN
Hyp
LNH
Cau
Boh
Eve
Tol
Equ
bav
VTT
ele
més
RSS
Fly
lie
Zen
Nou
Saf
Mén
dup
Ron
ira
Hur
Cot
Fur
Old
Enc
gui
BBC
Vik
dal
USD
Kab
Wol
Laz
Fan
Ing
Sid
hex
Bak
Ade
Rid
Gue
Kos
Ltd
Fen
seg
Pit
dop
ICI
any
XVI
Pul
Rey
OMS
Bry
Gay
MAN
Ség
loy
Rai
Sib
Dri
how
Dég
Jet
Évé
sar
Ier
Thi
Syd
SFR
gor
Mee
had
Fel
Gou
RAM
dog
Kre
flo
dim
Aig
Aim
Rej
ete
Baz
cod
QUE
tib
vil
DEL
naï
ott
Hop
Nan
Dem
Asi
add
Pix
Ain
Rén
leg
exh
enr
CFA
").
Low
Sex
Det
Gol
VIH
THE
séc
Bey
Lil
hur
ecc
Cyc
Mob
Dat
Has
Ene
féc
CAM
Soc
SOL
Bed
Vas
cis
COR
Opp
bah
Cyr
avr
CER
Jap
day
OFF
Jay
Tod
Cry
Mit
Tig
CRE
Équ
PRI
omb
Dro
;-)
ado
VER
Fro
Heb
Isa
dus
vus
lus
McG
Nag
Boc
APP
œuv
Bin
rus
Nie
lex
Jos
Biz
Leu
Sty
œuf
Ran
nou
uni
gau
Jar
Céd
Aus
Kra
CES
SEC
GAR
nue
Alt
BOU
nid
Sak
Cul
See
Rig
POL
kar
Feb
Ord
IMP
Vig
Arg
Tut
!),
nef
haï
FAQ
Cay
Sho
Now
pcs
ile
wil
Kay
ose
API
Alz
tét
see
Jup
Typ
arn
tan
Yah
Duf
ral
nic
Dog
CHF
hot
BAR
IGN
Dut
Ski
DIY
Lex
Xia
Map
pts
boi
lor
FIN
crê
Plu
Lef
Sap
alb
ARN
cav
Raj
MAG
dic
vom
Cie
POS
CHU
Ore
Kol
Yan
SIM
ABC
Tob
Asp
SAM
………
Slo
néf
jai
led
Sad
Lal
Pes
Koh
Bog
Dos
SOS
Ras
sig
lub
nas
hip
Nak
prê
Ign
:-)
Roh
MAC
Cob
Eva
MAT
Dén
Bib
gyn
Urb
FIG
img
DIS
Fix
rin
Rud
Kun
SAL
Ais
Ral
Reb
Sea
Els
Kid
Tau
wal
cyt
CAF
Kas
RDV
sir
Stu
jud
kay
AUX
Rét
ACC
édu
Lux
idi
Kou
nau
Fat
Eth
Cis
TOP
MET
psy
Shi
még
Ark
Mgr
Ted
ROU
Ges
Bam
kms
ATT
Nas
tig
bém
Cog
pié
zen
roc
pép
Led
Nin
Fai
cov
LCD
cic
Bug
São
COP
BER
Ame
RGP
Hex
SCI
sic
CDD
Sco
ond
Léo
Jen
LIV
way
Bod
ful
Éch
Éth
jeû
Mom
dem
Pén
TGV
NON
Piz
Meg
apl
CCI
Boe
BAC
ago
INS
Dau
BAS
Aul
COU
ric
Dru
CET
Kil
ESS
aus
RTL
Kin
EXP
REP
XII
Hai
für
who
Soi
VAL
Ern
McD
Daw
lap
url
bab
Ian
CAC
pad
ads
lag
Two
alu
QUI
Fid
Sag
nap
his
Toi
SON
pag
GEN
Lév
uté
wat
bip
ori
Bré
Bai
Dah
iné
sos
map
mau
Kap
Ful
Ves
Jin
"),
Swe
sis
agr
DOM
SAV
BTP
mem
pvc
vêt
Tac
Row
win
Pru
Ice
CHE
FER
AUT
Who
VIS
sép
Lip
Kaw
Tun
Sri
Flu
Jas
RCS
Vib
ari
als
rip
Alf
war
NET
cup
mid
key
REG
ATP
rug
maf
Say
TIC
Leb
ABS
MAS
gad
Suc
kWh
Hob
BFM
Hat
fug
mim
Rah
rée
CSS
Pac
Gob
Meh
Him
sid
CAD
CHR
Haz
Ibn
tph
Hul
Kor
thy
Hun
Cow
wik
Nég
FIL
ESP
FMI
Aer
Rim
BON
ros
Pey
Nau
TPE
MAL
gas
cue
pep
sop
Das
CAL
PCF
Gom
néc
Sai
RSE
Adj
usb
Dow
cah
Gru
Jai
cry
Wii
IND
cyn
nus
VIP
Nog
Rez
gib
oss
Tin
UTC
Nul
Dir
Seg
ébl
Lig
GES
Tav
tog
],[
tru
bir
Edu
bcp
mue
'',
jés
now
VIE
Ney
blu
lif
Nab
MOD
Féd
alt
bov
…..
she
éru
Amy
png
Wit
Arb
Béz
déd
Ost
ere
fui
vét
neg
Nil
cét
Aud
apr
GHz
SSD
Péd
Ars
Lob
Ide
Oul
Sed
Tas
Sli
Gig
gru
ran
twe
McK
pai
Rup
saf
Kai
fly
TRI
EAN
MHz
BIO
Ana
prô
Zel
Nex
Mec
Liz
AND
ALL
LLC
PHP
dar
Tik
Fuk
RPG
Nol
Abu
Whe
Léa
CRM
kur
cid
Vid
Adh
Soy
lat
MES
svp
ISS
Ave
Wed
IBM
MAX
Sic
Zem
Gav
una
IDE
Raz
ANN
XVe
Mim
PCR
CIA
NAT
RER
BCE
tau
SAP
tat
ART
sum
euh
Lys
bât
hit
MEN
Tir
aub
Hem
Plé
Eis
RAP
Loï
Kom
Mug
Alo
ENS
Lif
hub
câb
Gis
Hey
das
Gem
Pne
SQL
Tad
MRC
Zag
ame
Spl
ROM
Oil
cui
boh
DEC
Leo
dut
gif
Oub
ego
Hak
CLC
Jal
sev
Vul
LIB
osé
Maï
FRE
bed
Ank
sms
eth
ech
CNC
FON
adi
GMT
BNP
Bez
Add
tis
pac
DRO
Alc
BEL
]).
SUV
Rie
Eps
Fax
Cec
izi
’re
beu
wsh
fdp
mdr
've
iep
´ll
´re
ouf
tof
oim
yèp
kom
jte
're
ièp
oit
qu´
’ll
zic
tkt
´ve
’ve
wam
ché
raï
oqp
sws
'll
uil
yep
##es
##on
##nt
##er
##ou
##re
##ti
##is
##an
##le
##it
##ar
##ur
##ne
##ue
##te
##in
##or
##en
##om
##ra
##st
##al
##il
##ro
##ri
##us
##ce
##ve
##as
##ch
##me
##ie
##ai
##au
##és
pour
##oi
##li
##ag
##se
##qu
##si
##at
##ci
##et
##de
##eu
##ol
dans
##el
##ée
##mp
##os
##di
##ff
##ré
##ab
##pp
##té
##ac
plus
##am
##ir
##ic
##ot
##ul
vous
avec
##ig
##ès
##ct
##ux
##ge
##pe
##du
comp
##og
sont
##iv
##mb
##ut
##pr
##un
##id
##ap
##um
##oc
##ui
##ss
##..
##lé
mais
##én
##op
tout
##ub
nous
##ay
comm
##lo
##tt
##im
##ib
être
##ph
##ad
fait
##ru
##mi
bien
##ég
##oy
##if
##vi
cons
##cu
elle
pers
même
##co
prop
deux
prés
trav
##ér
peut
Fran
cont
##ls
leur
gran
##ts
très
##av
##ez
diff
Pour
##éd
sans
conc
prof
conf
##ec
##ob
dire
##ét
tous
fran
quel
soci
##em
puis
sous
donn
##ém
##lè
form
disp
##th
lors
dern
donc
dont
##cc
site
inst
part
cert
fois
équi
cour
##od
Dans
Nous
conn
Vous
##ok
##lu
##ov
pren
rapp
cent
suiv
beau
##az
indi
poli
soit
long
prin
Elle
ense
pres
hist
pays
Mais
port
prix
pouv
##mé
situ
jour
vers
préc
##ES
##ôt
##ow
##ak
pass
##ps
prob
sera
##êt
arri
mont
repr
cela
##AR
##yp
télé
prog
chez
##aî
suis
##ON
##ER
mois
##ia
syst
faut
##ta
##ds
coup
fond
##eb
##dé
phot
##vé
##ah
supp
##ix
nive
##ly
dess
##gn
voir
parf
orig
serv
afin
doit
##cl
cher
sign
##ed
Jean
déjà
##ût
plan
remp
grat
vrai
##éb
avez
lieu
##AN
##ud
tour
film
##ug
chau
##év
##ry
char
trop
##gl
mise
mati
##EN
##uc
##ax
##TI
comb
##ik
##ox
resp
retr
péri
##gé
##yn
anim
dist
tant
ceux
fais
##UR
##be
mort
prom
##èg
voit
sour
rien
sens
étab
##oh
Mont
face
type
adap
posi
vale
##la
éner
aide
##ke
Gran
rédu
##//
##IN
##IS
Avec
pris
indu
faci
mode
base
vidé
Tout
juin
mars
proc
préf
pens
##RE
temp
vari
agit
ress
simp
##ip
près
##ié
##ze
##fs
post
sais
disc
parc
bois
rece
serr
##gu
côté
Char
lang
Plus
inté
état
camp
Comp
fort
sent
seul
font
##II
béné
avis
atte
cuis
##pl
##ww
##io
##LE
prov
##TE
docu
alle
êtes
suff
....
haut
méth
##sy
tête
##aï
soir
Unis
Lors
arch
##af
mach
Mich
Voir
atta
norm
médi
stru
prév
##né
Cela
page
plut
pati
rôle
sein
##OU
Hist
couv
##iz
quoi
voul
stra
Cent
main
août
mess
mari
angl
club
##AL
##AS
gros
conv
##ki
quar
anci
##),
succ
jeux
tard
rend
Comm
##tr
##AC
bout
chac
Bien
gens
##of
##).
Cont
ques
idée
aime
##ël
##mo
##he
État
chef
tend
méde
##OR
##aw
date
Alle
fils
nuit
Post
taux
indé
déci
anti
tomb
##IC
poss
ment
##ys
veut
##éc
##ek
père
bâti
loin
##ma
##up
nord
tent
noir
##IT
aura
priv
zone
espè
clim
Nord
blog
réun
##ué
cinq
##IL
##ck
##EL
éval
bord
http
lire
##OS
sort
agré
rais
écri
Cons
régu
##AT
rent
Cour
lien
symp
bure
Prix
Prés
vont
Port
Quel
##we
renf
mère
##ha
##AM
fich
cœur
soli
##yc
code
Lire
plac
broy
##da
Film
Dieu
magn
##uy
Pers
gard
Soci
Conc
vois
vent
imag
##ka
Télé
épis
Tous
mots
##gh
Québ
Paul
vite
##cs
peau
Cert
Tour
adop
cook
    
mauv
insp
vert
##yl
spor
##IE
amis
yeux
##ae
excl
Face
John
voix
tels
##to
stat
ital
réel
##ID
pied
peux
Ital
with
hors
##ws
##oo
##AU
Anne
chap
##RO
vais
##NE
##SE
Beau
isol
##va
scol
vict
same
Alex
sang
##CH
Form
Etat
prêt
Geor
Site
Dire
##çu
illu
##RA
dipl
test
##UE
exam
Deux
glob
##ME
##ym
sait
##CE
from
Phot
pose
Prof
##DF
joue
arrê
nett
##by
voie
##zz
mail
souv
chaî
nour
##pa
Conf
extr
sole
Pays
prot
créé
##ty
##SS
##ky
amén
##AG
##AP
##DE
dent
trou
séri
demi
##do
York
tran
Puis
Jeux
##cé
coût
lois
cath
##hi
##ld
Arch
choc
##OL
bran
##CI
perd
tiss
##xe
adul
##IR
inde
reçu
déch
célè
##yd
dédi
four
symb
Bern
Lyon
fact
##ll
desc
exig
cade
Lond
bons
##__
##MP
Sans
toit
déta
exer
##RI
##ni
sept
scén
crit
peur
ache
rele
##ey
auto
##go
chim
trib
##ft
[...
chin
phén
reti
prim
Poli
##ET
voil
clés
vide
quit
delà
neuf
##OT
veux
atti
rest
Fond
Noël
bour
mine
occu
déli
Même
Très
deme
##ca
##ks
##US
##MA
cant
regr
lour
note
pois
week
conj
céré
aéro
gagn
Club
ball
fall
pros
Bret
Inst
banc
fisc
remb
...)
##ga
Marc
##pt
Plan
fron
##gg
##PS
##cy
fant
##AD
mand
Toul
##ng
ryth
bébé
exis
bain
poly
midi
alli
##na
##sh
sauf
acqu
##OM
épre
chat
exac
##…]
##ms
##ja
##PE
Jose
vend
bras
café
soin
Maur
fera
Rich
élab
##dy
Donc
avoc
carb
fête
coop
soup
vole
Inde
##ye
##za
pron
bloc
lett
Bour
goût
Mess
##gi
forc
##IG
monu
tenu
alig
liés
that
pert
##ya
esti
huit
Vict
##IV
paix
pont
meur
aéri
##zy
Fait
susp
empê
eaux
sing
bleu
radi
lait
##MS
Prov
requ
anne
quas
mini
vaut
diam
acte
ciel
##bo
Camp
Page
##sé
Code
plat
prol
Cong
audi
##je
##df
Long
appa
rang
Part
##vo
Sous
chré
##bi
révé
Lang
sert
##my
##ko
##ji
fini
##AB
##TS
hier
virt
##CO
émer
Rome
expl
suit
viol
##bl
Norm
gare
Isra
Serv
Afin
émis
Dern
mens
##IX
##tm
juge
crée
cité
conç
vain
Parc
Sant
chem
Chap
surp
##DI
déte
Cath
(...
enne
arts
pous
Cher
##FA
amen
math
Math
Bois
vélo
##VE
##no
Voil
rand
noms
##OC
rêve
Jack
oise
Prog
cart
alco
##IM
esth
Vers
navi
sold
stre
Mach
Vinc
vote
sols
##ny
expé
scul
murs
##xt
dois
éche
Star
joli
flux
incl
cout
##uf
chir
surf
surv
Avis
agir
Côte
rose
joué
##él
auth
##FF
##ii
Dist
ence
coin
Radi
aper
frag
grec
Noir
élég
##OP
déri
Mars
Brun
assi
info
Play
Home
Rapp
harm
subs
récl
reli
##ba
lune
corp
opin
trés
rare
this
neur
argu
!!!!
ench
guit
Ceci
##ht
file
##SI
renv
Leur
diss
Rest
mété
Date
##TC
éloi
stim
modu
##mn
Peut
ceci
cuir
pare
doig
vise
Sign
monn
croy
myth
Chez
appr
News
orth
racc
truc
##TT
vice
luxe
sexe
cong
coll
jamb
##hn
Prin
path
ling
irré
faux
Stre
##uk
Sand
perf
fins
##aj
quin
##GE
pure
gent
boul
sugg
##UL
bron
élus
coff
Amer
dure
gout
##oï
myst
doux
##TA
##QU
Juin
fati
Comb
news
fame
Asie
City
bomb
dest
Pont
éduc
Supp
##IA
brut
vécu
côte
menu
Mode
fixe
rédi
édif
##IB
robe
liée
##ep
buts
enle
##ao
cult
batt
gris
Diff
Gren
basé
Anim
Blog
Lien
rock
abou
##ón
dram
appu
Rose
plaf
Arts
cost
enqu
cell
Bert
gour
réac
Dame
dens
html
rass
caus
##CA
aimé
Syst
gras
Nice
Blue
tort
##gr
##IP
guer
pain
pâte
épar
joie
Mari
pomp
réag
Haut
arme
plas
blan
Stra
Hong
Fréd
venu
flex
Disp
mang
Retr
pire
____
Orig
glis
rues
----
##ît
Cuis
défi
fans
fraî
Gold
Prom
astu
##gy
aver
Barb
unif
décl
Soph
Eric
ride
peup
##fe
cryp
vols
##zo
Bref
clic
##ns
Fort
îles
Rock
Land
soud
##MI
répé
tira
Open
dégu
pand
coul
More
Vidé
West
Luxe
cens
##UN
semi
Sing
bref
##OG
Phil
##BA
évac
susc
aigu
Yves
québ
Bure
clin
Mise
##kh
Type
tome
rond
tire
your
mass
King
meme
Miss
allé
Park
élar
Pres
clôt
moto
vins
look
Resp
Ques
saur
Mark
dite
Rien
##ça
##IF
Wash
Prop
gast
liqu
lead
etre
inéd
##RS
cord
exéc
##mm
beur
vues
##CT
Word
##DA
sœur
cass
Anti
dorm
barb
perp
##wn
Coup
##PN
cous
abus
Disc
##yo
Grat
##LA
tele
Bill
délé
pack
Tags
maît
##fa
##ho
##SA
René
isra
Trip
##NA
##UM
data
Camb
Note
Sole
sovi
POUR
épau
doub
##MC
lent
sûre
Cant
anth
Made
flam
tres
fine
Mass
parl
##rè
écar
Font
Père
Gard
Rece
euro
grav
plur
dose
Cost
Flor
diab
Alli
Ceux
éché
Free
amie
tuer
ethn
Nath
Magn
Trib
,...
inse
have
aven
Jour
horm
gren
escl
back
Cast
##œu
Isab
##ua
budg
Iran
star
abri
sure
amus
##so
Angl
qual
play
Cook
##Ie
This
hygi
logo
##aa
aire
chou
soul
were
Test
fier
##TR
étro
##fi
inte
Indi
Chic
rire
cime
guid
issu
Arth
##PA
Léon
Chef
##CF
##xp
Boul
Réun
Broy
Wall
trom
Mary
live
Lune
XIXe
José
cris
paie
paru
raff
free
##hy
gonf
golf
more
perç
Auto
##oz
Bleu
Anth
Brig
déco
show
Four
sond
admi
over
##nd
Mini
écou
##MO
oeil
hôte
calc
##BC
Love
##FR
Sams
édit
néer
mène
cond
high
cann
mira
gain
word
Book
##PR
##sp
pape
Same
##UB
comé
Game
##Le
Mali
actu
zéro
prud
modé
High
liné
##yr
loup
vuln
##jo
clar
lave
Docu
Ener
##zi
Hall
YouT
Ense
##yt
coté
Live
cycl
##In
##ee
Germ
Ball
Suiv
Real
##án
sinc
lanc
hiér
book
##pé
Chac
##rs
##IO
posé
Glob
taxe
fixé
Perm
Oise
perc
time
##Ad
honn
##AF
tube
dégâ
mate
maqu
bret
turb
mené
Mort
Conn
Mans
préj
##VA
réin
sacs
##sa
##TO
mets
case
##dd
guér
##xi
Cler
##ão
##EC
Stan
Link
##wa
pant
##oe
doté
rect
Aide
hect
Lion
hété
visu
Fant
vern
moul
Didi
vété
aise
Alph
brig
##tz
mous
work
##ïv
voud
Fern
Vert
quad
##LO
Paci
voïv
dict
Euro
inég
Rand
alph
fidé
##oû
céra
verb
##UX
Roch
##GC
rive
##ür
Cass
##FC
Monu
Couv
race
##UC
acad
Mand
Hill
baie
pira
Quoi
text
Mots
mâch
Benj
Fire
brun
coqu
Pass
subi
##EM
Dess
Orlé
jury
open
pair
##TP
Vend
Péri
Adam
##PH
Louv
Ache
##Ch
égal
solo
Bang
Médi
band
lits
Lamb
##-)
inac
seni
Tele
Vent
miel
surn
Lieu
épid
redé
##Hô
asse
Team
Temp
##LC
éman
Gene
foot
Juil
jazz
rede
pôle
mout
Bach
suéd
Lois
left
amor
##UT
Golf
memb
##vu
capt
Scén
dame
Rach
élas
Clim
faim
ludi
sons
Gare
Vide
##ía
saut
Audi
##ép
noix
game
œufs
scru
Nive
##nn
Bran
épic
chev
unes
##TV
vies
Mété
litt
Read
##BN
Méde
bris
Life
doul
foss
Rhin
ther
Côté
flot
tiré
hall
Quar
axes
Hans
##hé
héri
Fred
##ML
flor
Xbox
Norv
Gros
##ÉS
soph
Cité
Metz
will
##hr
Chat
recr
Ford
Kong
Cond
home
Pack
roul
ciné
Remp
Serr
Hugo
##pi
feux
dieu
Data
##bs
Wood
arra
cave
clip
Ress
mait
Arri
coco
Corp
Litt
Août
From
Soit
##uz
##GA
alté
aval
Préf
soix
Vain
Sony
##CL
Coop
##bd
##PI
onde
curi
Déjà
Juan
aidé
Anna
##La
Prob
Chau
##ST
cool
chic
##gs
Time
agro
vive
Diam
Poly
Jord
##ïs
Pant
Chan
Leon
émet
nuis
sale
égyp
intr
##BO
SNCF
pist
Best
brou
wiki
foie
plug
Main
Gast
Blan
Vill
##HE
Bons
roue
Jane
payé
Sauf
plai
##AA
dons
bail
Good
rall
bass
Irak
poit
line
##…)
trip
romp
chan
nage
East
Yann
hong
malh
##MB
Zone
Seul
iPad
doct
Fils
Band
camb
étan
Trop
Être
Nett
aile
Chem
porn
yoga
mélo
Guer
âgés
ISBN
arom
insu
Expl
élig
inex
##PC
##rh
parv
Avez
ayez
sand
ajus
..."
gars
chor
papa
##……
Jeff
Info
jugé
sédu
##DR
hame
tron
##sk
Hard
prit
also
##BS
heur
Fête
##ïn
jean
stup
Tony
Java
##ju
Gris
Midi
Gust
##St
used
Mira
Voit
théâ
##PP
##hu
##ED
gère
##VO
gram
exil
Actu
Tant
Dipl
Pôle
Dark
rach
clos
Pier
Tech
##Hz
bann
jume
Mike
onze
Pomp
Stru
Work
mour
##RC
XXIe
pari
##Te
Neuf
Pois
Marg
Bost
tram
lame
Gour
naît
##YS
écho
Béné
maux
Imag
Laus
Illu
buff
Show
iran
##GP
mett
Vari
Faut
##BI
unis
Flam
canc
spac
Cinq
COMP
anxi
##uu
bars
somm
apos
prép
##xx
##ij
##DS
hâte
pend
Jenn
Caen
##xy
Féli
dign
Moto
maig
éoli
Spor
laté
miss
abat
inat
Éric
sulf
abbé
best
Hier
sain
noté
relâ
ours
GRAT
##td
made
Azur
tick
Nuit
pizz
Nick
##TU
traî
Wolf
sexy
Road
tric
Thaï
Greg
Bell
util
CNRS
Karl
dits
gang
Adap
Vall
Méth
Wars
Café
Tome
caps
Pris
Back
opus
##GO
##EE
Gall
Sach
secs
##GM
phil
poil
Hand
âges
Nike
##ei
bête
cite
Medi
Mose
Aéro
Week
than
adep
user
érig
Mati
Carl
biom
Robe
soft
Will
like
##ev
hand
lith
cote
gymn
Soud
trah
wall
Cham
oxyd
carn
rois
bouc
Ange
Coll
frig
tamp
pole
##DC
anec
##bu
voté
Cout
##rr
pile
anom
muni
mâle
Emma
link
##BM
Héra
Faso
ange
##Re
tués
lots
nave
Faci
maïs
Cade
Stat
verd
Plut
appé
Fich
Hors
Penn
fiss
Lind
poup
vall
Près
Sang
Your
inév
past
Cris
Harm
tirs
been
sere
visa
merc
Berg
Lady
âgée
Grég
##AV
saga
Soft
Ferr
Over
Bord
Luis
wifi
Base
icon
##WS
Call
Sont
bata
piét
COMM
sage
redi
Bout
hard
prém
****
Trés
##ín
##AY
acid
taxi
folk
Schw
Cuba
Next
Line
Buff
##DM
Sept
Ross
Clau
tume
only
cuve
Sher
Mill
##Ar
dune
##KE
team
##éo
##hh
##ÉR
soie
trio
oral
fres
Sens
Colu
aust
URSS
read
Vice
Vale
juif
encl
##Cl
Soul
impl
Cole
abst
clan
Bank
gene
pais
##PL
Wiki
Salv
déçu
cône
héli
Sent
##oa
quai
Wild
##hl
Soir
Bart
Vern
Dead
Edit
fuir
embl
Prot
Mond
Cord
##po
cure
Giov
meub
arth
"...
With
##ör
osté
Moul
##BL
Jazz
Mine
Baby
trad
PLUS
##BE
Nant
énig
empi
tige
Loup
Chab
Chev
##ÉE
Town
Rédi
étal
anat
Ever
roch
janv
Carn
hipp
abré
##ât
bits
Sour
vire
Thib
perm
##nb
dise
puce
##TH
harc
insi
poiv
clef
vign
##PO
lacs
##bé
arti
aîné
size
gile
##ÉL
géré
goth
VOUS
dues
norv
Gram
napp
????
##Fi
Matt
vamp
some
sati
DANS
##BT
ener
Ivan
Lord
Boud
ravi
XIII
Stef
herb
Choc
durs
##DD
Mast
Fact
Foot
Sorb
Pape
Chal
Mail
rate
hein
minu
Ment
Herm
turc
##FM
Song
Full
##éf
méri
Togo
noeu
Priv
Écri
Case
Bond
boit
Ryan
Corn
pèse
toul
tech
Bonn
glyc
armé
Eure
gasp
##HA
glac
they
medi
##SC
Alan
atyp
cage
lève
Clar
Vrai
Core
épée
into
Bébé
Tarn
cend
phon
tamb
inad
Mère
Hamb
Cuir
##ów
âmes
)...
émig
Coff
Mons
pard
Menu
Fore
Arte
view
sois
##QL
Rain
lact
Cœur
Perp
culp
Tiss
Care
stip
bapt
rame
Oper
invo
Bras
zinc
amer
molé
Mack
cest
pulv
sédi
préd
para
élue
Herz
Gand
Fall
airs
Jura
Taux
enzy
Voix
doré
pots
Last
list
cire
dira
##fr
Kate
Gord
Lake
fous
féri
Ling
very
...,
Ibid
##Sh
Gent
Avoc
love
synt
gîte
flag
##GR
##TF
AVEC
Aude
juil
##En
rage
bous
ridi
Bomb
dors
frit
self
##DL
Amis
boss
Plat
##kt
##TM
Astu
porc
Etre
esqu
Bron
baby
chen
Dick
Abra
zoom
slog
Insp
neve
Fron
Nich
Kath
food
Food
Pren
exon
blue
garn
géné
inox
rhum
Anat
Merc
méch
pond
gène
stop
Hein
févr
ivoi
élan
Ther
bond
##KA
osse
tier
Fres
Chen
coïn
noci
##CC
soja
Zoom
Chel
Pros
pans
Bain
Troy
Bass
aube
mena
Hart
tape
panc
Schm
VIII
lion
amov
##DT
Aire
Meur
fout
File
full
##UD
diap
Kris
Guit
such
when
Vélo
sque
##ás
tril
Crée
FRAN
##LM
Vars
dést
land
Mois
Shin
Girl
JOUR
Dent
Just
Chim
jack
Kent
##ex
each
What
Adri
Ciel
sûrs
PRES
prag
Hipp
surg
ados
assu
SARL
Mate
##ën
Lomb
tons
life
##FI
réci
Sauv
lass
fasc
##lv
écra
Brad
##wi
##DP
omni
Hass
Grec
well
exag
XVIe
##HL
##ïd
pédi
Gamb
Paix
good
scie
orph
phyt
Jéré
bais
##cp
##FE
Spar
##fo
##KO
most
HTML
flou
Trou
ores
Fais
##hs
nois
Navy
Magh
Moon
##Un
##FO
crus
OTAN
Gaza
##DH
Bull
body
Rent
Cart
must
##ön
Yoga
Étab
Shop
scel
Mann
FIFA
boue
vœux
olig
Parf
énum
Brit
Gonz
real
huis
grad
Tang
Pose
##Et
Simp
Mour
Thor
##OO
Baie
Easy
##SL
Ride
tang
poul
##De
plén
##dr
frai
évap
tuto
Roth
Prim
##kn
méta
Down
##FP
addi
##UP
lesb
Calv
Rick
hack
Hann
Pors
Lour
Card
TOUT
Méri
Mare
Fair
##SP
Pure
dort
oran
brod
Rail
CONS
##HO
flat
émin
Neur
mono
##CR
Chaî
pull
View
Vich
Baud
gêne
name
scep
Lisa
##NO
Aver
gage
Vanc
Pati
Cine
ador
Mong
Pent
Îles
Lock
jupe
Scar
duel
Path
miti
Glen
Amaz
corn
Buen
Hell
gouv
Grey
##är
Kind
enco
déce
Bush
Must
lomb
Scul
Lens
Mous
Pare
Andy
héré
Ster
them
Bloc
Gagn
opté
Poit
raté
utop
Benz
Buil
##HS
##zu
Lili
paye
make
duré
jeté
kits
Pira
Loin
##SM
Virt
cler
Luci
Dall
siff
Loir
iner
cuit
Mang
Fiat
hach
##añ
buil
Iron
help
##vd
##Ne
iron
know
acry
June
Reyn
oeuf
ions
Dion
Snow
fore
acné
SERV
pneu
inch
Mart
TÉLÉ
here
soif
brus
Iris
Sara
rééd
Tomb
mien
démo
##ku
shop
cash
CONT
Emer
Créé
flow
Sall
deja
cors
road
Chlo
curé
Suis
##XX
Mick
Guil
Qual
Khan
Grim
Somm
Hend
levé
Coin
vant
Dave
Souv
Shar
Linc
Marx
Rois
##EP
vase
Saxe
##NI
##br
Nove
Paie
Symp
mast
vrac
Bâle
lamb
boxe
ster
Beth
Rémy
noël
rats
vaud
Cult
Sidi
Shad
Flex
Beat
pict
RGPD
Coul
Quad
paup
##cz
Josh
CHAR
NOUS
Casa
Malo
oper
down
enra
Race
poud
Wang
lond
Ober
spot
WiFi
##ân
afro
girl
Past
déra
Dies
Boli
Reti
LGBT
##Me
mamm
Gary
Gira
pige
##än
Boss
Snap
Demi
CENT
then
maxi
role
what
Wind
lier
Maît
cosm
Omar
Well
feed
Gasp
Chré
crib
##WA
Mire
Tran
Hero
##MR
visé
oser
Head
Extr
Tête
##fl
Kodi
Proc
pitt
NASA
lyon
pars
##GS
volé
trot
rail
Nour
rude
Rosa
##wh
Aven
##KS
Frib
Capt
Amar
daté
cast
muet
brin
##kk
Shaw
Bent
cerv
mers
Orth
Cann
mich
Aper
##eg
gaul
Papa
raid
Kiev
peri
Sche
Oran
##PT
cess
thaï
…………
Cell
unit
Joli
Voie
Thom
vint
marx
Body
Perf
Roux
Plas
##lr
piég
arte
quer
both
UEFA
Hunt
Wifi
PHOT
##TÉ
PROD
spam
Vaud
bêta
Stop
Vive
Ping
##DO
Sais
Tend
Gile
city
Scre
crue
Bris
TECH
Fast
Frid
lant
biod
Roub
spin
Auré
Tomm
Arti
punk
abra
##zé
homé
Whit
anal
Leip
bœuf
Fati
Surf
Edge
Cote
Look
Joël
Seni
##KI
Bene
asym
Visa
sauc
aisé
nuls
last
Apol
Sard
york
##GB
Glas
isot
sion
##CP
Manh
##GU
term
Myst
Rémi
stud
pent
Gray
buzz
mêle
irak
Cryp
Ille
Eiff
Yang
Délé
Tché
Chir
Chou
Hold
Rive
cint
pics
##YE
Adop
cafe
##Ou
fast
sien
foul
##HD
VIDE
malé
##BR
##ов
Flow
Déco
quil
maur
cube
Sacs
Bard
Abou
Bros
sect
CHAM
##HT
Deep
That
##rô
nauf
chag
Prêt
item
scre
rhét
épin
Cruz
Pink
LIRE
Desc
##yg
visc
bruy
zomb
cède
Dest
!...
réam
Cool
Gers
##FS
room
##VI
thor
##ZE
fice
##VM
pâle
quot
méda
Cycl
just
palé
Goth
##Ph
Ohio
Etab
Rein
Burg
##ih
nant
Scot
Cust
Symb
##ÉN
Ciné
TOUS
étin
Aman
Most
acét
veau
glor
Dece
Cors
aout
roll
Isle
locu
Gaut
Mind
bati
prie
Beck
floc
Pend
##OD
stic
crép
Agen
Aube
cale
Otto
Pain
buis
Acte
Muse
loué
Tint
Nina
Rall
##ст
Brie
ring
##Ex
Pand
Bren
Sund
##fu
year
valu
salé
allè
mord
broc
Rica
##FT
Hels
Dôme
Lope
Lach
Sale
Tamp
solv
Agré
égoï
grès
##FL
avan
bacs
cort
##YL
vulg
##ZZ
itin
##GL
Myth
Cave
Poul
repe
##ef
Cort
pipe
Vand
pléb
##AK
styl
chal
Quin
Chin
flan
Quer
##Mo
##XT
##dt
Mits
Clin
Nova
feat
##éa
##Ac
revu
torp
loge
Luke
EURO
nœud
rêvé
need
Vols
repê
Coût
Male
HDMI
Hain
Mant
sets
Laff
Eden
phen
fris
Susp
carc
scal
cils
care
arro
Trin
##JE
Than
##dh
Lead
Aure
Hers
Bamb
Pist
DIRE
Mall
Logo
surs
CONC
card
##ün
##OK
Opin
Here
Walt
étui
Plou
cise
OCDE
##!!
plis
Carb
Neil
PERS
Cash
Moss
Scan
##AO
##wo
Raff
ends
Ring
##ët
clou
Mens
Kids
Tong
masc
Like
endi
frot
glam
hind
Shel
Side
Huit
Tall
Clos
##ár
flic
Brow
##ни
roum
hang
rech
Tric
Noel
noun
call
Crus
Rele
bist
Laur
Roll
Saul
Joan
gold
Sean
ping
##UF
Kant
amas
cran
Nest
expo
obsc
Nois
mecs
Trek
TOUR
Stri
MICH
ordi
dras
sant
rééc
##oë
geek
Este
alla
Rond
Navi
sida
Eaux
July
Arab
SOCI
bene
core
##ра
null
Lamp
next
Expo
trig
Hoff
does
PUBL
Lait
fret
rain
apte
PROF
prac
##ск
Lost
clow
Lily
acce
mezz
Tanz
rhin
Éthi
nest
Crit
chât
Mist
Glor
serp
Pire
Fitz
days
Mauv
sche
dépe
Gerv
Vues
déro
Dell
dévi
Epic
haie
gant
Haye
bios
pout
géol
bise
Lanc
##87
##85
oide
##24
##97
##31
##34
##11
tmtc
##30
##67
##76
##57
teuf
##21
sisi
reup
saws
jeuf
##38
##46
ziva
reuf
némo
##93
##27
##99
##90
jure
wesh
mifa
##73
oinj
##51
tofo
naze
tepu
##45
tema
##81
##75
meuf
reum
##65
boug
##29
##47
laid
##41
##19
##17
feuj
zyva
##94
##43
##64
##91
##95
##10
##55
fami
zouz
téma
##58
##84
keus
##37
##68
##20
##71
##00
##15
##40
##13
ouam
##53
##60
##44
##33
keuf
##80
tebé
##36
##70
##02
##74
##62
##69
##14
##50
##82
méfu
##86
keum
##04
##78
##98
##89
##83
ptdr
##48
##32
beuh
##77
hène
avou
##92
flip
##49
##61
##16
##59
seum
ouat
##35
##52
##56
##22
##28
eins
##72
tavu
oklm
##23
##42
##25
##88
tess
auch
##03
##66
reul
##63
##18
##39
keut
##12
##96
##54
teub
téci
garo
##79
##26
##01
##ent
##our
##ant
##que
##ans
##ous
##tre
##res
##ais
##ont
##ait
##les
##ers
##lle
##ité
##ran
##ons
##urs
##ale
##age
##ure
##ère
##ite
##ien
##ort
##out
##ces
##onn
##ois
##ier
##ouv
##éri
##oir
##ées
##che
##ist
##ain
##ati
##and
##ion
##aux
##orm
##ren
##ise
##ert
##dre
##ine
##uis
##ate
##éra
##ors
##ter
##mes
parti
##ace
##ill
entre
##ard
votre
##ten
##end
##ens
##lis
##ins
comme
cette
##ond
##ing
##ême
##eur
##nes
inter
##tit
##bre
##ord
##ang
##tin
##tif
##oup
faire
##par
##tes
##lic
aussi
##ire
##ème
##jet
nouve
##its
##onc
##iss
##all
##min
##mps
##eux
##tiv
##ail
##ble
##ign
produ
##use
##cip
##ose
##ult
##ver
##man
##ong
##aut
##fin
##ats
##des
##tic
##rit
##ies
##eau
##oit
##ser
##ler
perme
était
##ner
##qui
##olu
temps
##ves
notre
##ole
##uer
trans
##anc
après
avant
##ass
##ari
##int
##tis
avoir
##one
##ric
##ris
##ieu
##cep
##are
##con
##ues
##élé
##rig
ainsi
##agn
##oul
##ron
premi
##mis
##gan
autre
##ern
##qu'
##ven
##oci
##omm
##osi
##lig
##rer
##rai
##ich
##ici
##est
grand
##uit
##chn
petit
moins
leurs
##ête
alors
monde
##ide
##iel
point
##été
##rib
##per
const
##ché
##ode
##éci
##omp
##vis
organ
##uel
avait
##oin
toute
##tte
##ram
##mer
trois
place
##ger
##ade
##act
Saint
techn
##mar
spéci
Paris
##ges
effet
Cette
possi
##ath
##dic
artic
##omb
##une
##ore
##cri
année
ligne
##ène
activ
##ros
##ect
##rée
##cur
##oix
envir
##ile
ville
cours
##tel
##rez
##cul
##ôle
élect
##cle
##qué
##rir
##uss
##iti
##rés
##ast
##oli
##lex
jours
##gie
quand
##tra
appel
##ili
avons
##ach
suite
##vre
##ock
##amb
##rie
##èle
##aly
habit
journ
##idé
colle
milli
##ann
##oph
appar
selon
##nce
##ost
##éli
##ype
##éro
maint
##erv
##ras
assur
sorti
##era
##ame
##tal
##ori
forme
dépar
##ack
début
##âce
celui
popul
elles
##sez
sécur
porte
##çon
##lar
##oth
##ira
homme
##adi
chois
fourn
##jec
##ane
bonne
##ret
droit
##lin
##ule
##vez
##éré
##dif
reste
consi
##ome
mieux
Après
celle
répon
##cid
##ith
##lié
##ice
##oût
##vée
atten
##ril
##vec
appro
##éné
exter
##opé
##ook
##ope
choix
##dit
série
##ocu
analy
##enc
conne
##art
##cup
coule
femme
##dra
grâce
##lie
##xim
##let
champ
santé
cadre
défin
##ime
##lab
offre
##idi
##loi
##duc
##ind
sujet
titre
##roy
intég
##gré
contr
objec
heure
table
##aul
##tez
Notes
##nel
autom
objet
##son
chose
corps
##met
##nez
super
puiss
abord
##erm
façon
##mbl
##ses
ayant
effic
##cun
laiss
##ète
étudi
##mée
##âte
##til
artis
##ive
compé
écrit
avril
##ils
parce
reven
inves
##cre
passe
##ity
mondi
bénéf
##ase
##ict
assez
##dez
large
équip
Liens
##ysi
tourn
améli
##ton
aller
##reg
##aît
conte
##uni
##...
étant
##ART
entra
modif
direc
donne
livre
jeune
##oot
condu
accès
obser
##air
explo
##val
##net
##tim
##rop
##ets
##yle
proch
##ber
##pec
euros
##app
juste
initi
##arm
##dio
##œur
quant
##oti
##oun
Comme
##can
##der
##lir
##igh
##ote
pense
##loy
moyen
##èse
médic
intér
##did
##nov
##ada
##cin
START
Artic
salle
vente
étran
##ork
États
aucun
carte
oblig
##ède
vidéo
##bum
##isc
resta
##ral
##lac
étude
Notre
multi
##rom
trouv
prise
liste
##auv
physi
aider
##uve
mouve
##ash
proté
consé
terme
accep
peint
image
##ini
##amp
##ony
cause
créer
seule
belle
Alors
Nouve
sites
prend
match
##vid
plate
école
##ess
##oud
ordre
Merci
##ina
##tie
répar
réser
trava
plais
passé
##ude
œuvre
quoti
##ute
##ève
##men
démar
##rou
##ick
##len
photo
##ino
fille
##aud
Ainsi
vient
##ape
enreg
##hic
##iff
terre
##cer
##els
##lam
##ana
##iez
blanc
frais
Grand
conse
##ots
##éma
##ppe
##ell
##ave
album
##lue
##lus
##oie
##dia
opéra
##dis
spect
genre
##ume
##yth
##nte
chant
##ays
##ano
route
parmi
Selon
Marie
style
##iné
deven
capit
plein
scène
##lob
appré
catég
donné
avais
essay
publi
##att
##rog
véhic
psych
##ars
Entre
##oux
libre
Champ
hôtel
##rec
##gne
##êts
##ara
##inc
##osé
extra
##gue
stock
##vie
maxim
texte
force
ordin
matin
Louis
achat
mêmes
amour
situé
pours
##cal
enfin
haute
##ige
chale
class
##lor
##uré
souff
##enn
doute
durée
##ows
jouer
relig
viole
https
##och
poste
manif
##udi
##ere
Décès
##ple
##oss
remar
poids
##écu
##xte
Quand
appli
##aie
dossi
exist
occup
##orn
parle
vivre
rouge
vites
sensi
ident
types
minim
##yon
##cel
satis
Phili
chiff
suivi
##rim
expli
##oré
##get
pièce
connu
mécan
##ata
##ôme
promo
##las
##bes
Posté
cheve
##ung
crois
autor
vérif
tarif
affir
diman
##ENT
Ville
Votre
gamme
Enfin
merci
##tée
agric
total
##tir
Sujet
##old
##oil
venir
Liste
huile
##ube
##rid
crise
Trans
##lit
ferme
##ège
écran
envie
lieux
Chine
##uté
##iés
chans
navig
##qu’
##ama
##aci
##tié
devez
patri
##agé
##gén
sorte
##irs
magas
forte
Voici
train
ouest
outil
##iée
micro
##ial
Union
somme
##ste
sépar
##ood
##bon
roman
pages
##isé
##vel
usage
##ref
Toute
##ley
##tés
##ura
##ory
dynam
##ark
##cis
idées
##dam
sport
##bil
étape
zones
armée
mobil
##ary
arrêt
lundi
films
Chris
soins
garde
##log
graph
avent
##ône
##lim
outre
telle
exemp
##avi
fémin
dimen
court
##ker
##car
citoy
retra
Elles
évent
intro
Parti
récup
Inter
stand
Bibli
effec
compt
métal
##aix
siège
##urg
peine
forum
mains
##rét
collè
hiver
envoy
##pes
phase
bande
perte
##yst
repro
##arn
##rès
##nth
dimin
##lég
##usé
douce
paris
rense
##lif
##uxe
David
##cte
Avant
Coupe
##ink
fonds
exécu
##olé
therm
saint
coeur
Super
##own
##OUR
accue
##olf
##gée
##mon
facil
##uil
simil
attra
jeudi
param
##vés
##ulé
thème
##gés
évolu
indic
##lée
bless
##low
repas
Petit
salon
légis
franc
Premi
prest
aband
##ian
ajout
boule
cellu
exper
usine
Journ
mardi
Sport
local
lutte
##odi
coord
##anm
voire
panne
##ket
##uff
prati
Japon
motiv
##oft
devis
##ney
##ola
aimer
réuss
végét
idéal
##rat
étais
Etats
offic
##her
nommé
fabri
##ica
##rup
envis
perdu
guide
rendu
japon
verre
##cie
circu
signe
Grâce
##umé
##pri
bibli
vingt
##lés
toile
##aye
clair
##ham
##fic
##urb
final
##ott
march
colon
accro
aurez
lance
Table
frère
faite
pieds
liens
recon
décor
dirig
human
gross
ingén
##ust
allez
faits
futur
coupe
poser
favor
solid
##ull
recru
écriv
élevé
bient
unité
musée
payer
rasse
olymp
radio
Techn
##orp
afric
Ouest
ouver
riche
##lém
délic
plomb
annon
music
Trois
privé
pharm
diver
infra
##ted
Parmi
éclai
Loire
##rad
Ligue
utile
tient
froid
##chi
Henri
tiers
provo
##rif
plage
chien
héber
##ani
russe
impli
##don
inqui
plans
##ael
exten
voici
mises
kilom
Maroc
décis
calme
prévu
synth
gérer
##ora
modes
##eth
Angle
tenir
##lec
masse
##ols
Terre
##QUE
maire
Monde
morce
##itt
Haute
##jou
massi
débat
##han
André
biens
Organ
##ror
impos
##sif
côtés
Hotel
faute
##èce
achet
##yez
noter
sable
##gon
étend
##igu
Santé
##rén
##dom
##tig
Black
##sis
vieux
Seine
ouvre
issue
##xes
équiv
##réh
armes
##nés
déjeu
estim
liées
résid
Homme
lancé
innov
##nom
délai
##pin
##ake
##oue
civil
smart
##IRE
##ita
chaud
##iat
islam
##arc
major
pêche
empru
sembl
##ala
##née
##aff
##ére
avion
voilà
optim
beaux
règle
cycle
##vin
##oll
domin
##ico
##nis
tenue
front
##équ
labor
élève
##ban
essai
revue
basse
pouss
##gin
horiz
##die
##ium
##IER
##més
céléb
##ish
expos
débar
morts
##ray
##cou
##pit
##III
stade
corre
intit
acier
##aph
Alpes
##und
##cia
##ics
créée
décid
##ool
boîte
sauve
Femme
capac
Quant
hyper
Jésus
##orb
tests
roule
bilan
##rin
nuclé
##kin
##azz
Alain
musul
danse
stage
forêt
Apple
Blanc
fleur
Bonne
refus
Hôtel
ultra
##ush
##onf
James
décès
Point
##gar
repos
oppos
##ike
agent
démon
##ual
sucre
notes
sympt
Angel
Produ
adore
divis
réflé
coûts
##opp
Musée
##ago
##ato
seuls
##gra
##ôts
étage
crème
virus
situe
sinon
##dir
##aur
conçu
Emman
##iki
##rol
préal
servi
Analy
##édé
Photo
arbre
rejet
##aug
##way
Forum
Autre
Maint
actes
##ias
lende
##off
Covid
##lia
barre
École
hydra
plant
##pel
Tunis
Guill
manip
coups
actif
tissu
##den
chute
tente
spati
jaune
Faire
##box
prote
##als
inclu
belge
World
glace
noire
##lon
##RES
##INE
artif
##uée
coûte
Denis
Voilà
piste
##gen
devra
##ami
héros
Celui
pollu
escal
pétro
Belle
vaste
Bourg
##mie
voulu
grave
frapp
##itz
##lot
meurt
##aro
viens
vraie
##mpe
color
épais
bruit
##mun
tombe
Moyen
porté
email
maîtr
dérou
joint
serez
nutri
récit
égard
préoc
signé
boute
##ITE
finir
appuy
align
affec
##___
##ycl
incon
biais
##bie
##TER
hydro
##eck
clubs
##olo
rares
léger
##cha
Parce
bases
##ali
pompe
remis
radic
démén
Aussi
tirer
tradu
##iré
##asp
Rhône
neige
##del
voies
angle
##gyp
pluie
dédié
Envir
béton
vendu
savez
##ANT
lycée
embar
##any
récol
tours
##rob
appui
##lip
accus
Guide
plong
morte
label
##gre
##mph
chefs
##ife
bains
##ona
mener
score
Place
Stéph
##aga
comté
sculp
Radio
##ado
##cop
désir
##lan
dépôt
Royal
##los
tâche
thèse
##bri
Chois
audio
infos
plats
fondé
##ero
Patri
##lez
Lille
souci
Quels
Conne
##the
Vente
Titre
Porte
issus
nette
##AND
exige
fiche
##eni
décri
Catég
##fer
cible
##dou
quasi
##AGE
##ota
quels
##oni
Andre
basée
bonus
débit
##ffe
prêts
##aid
déliv
inaug
index
##OUS
infir
cesse
Livre
accum
Rouge
surpr
Aucun
##eng
arabe
##fre
placé
détru
urban
Peter
soign
coiff
énorm
maroc
##ida
fréqu
Outre
gagne
##rém
##nam
océan
mille
##unt
##uts
cylin
##vet
coach
##ied
quart
arché
jolie
Spéci
fêtes
écart
##inf
intèg
envoi
immun
##aya
canal
immig
poule
Calif
Franc
senti
concl
recev
sympa
maman
Press
Frank
##awa
oubli
Suite
##ild
rémun
Simon
##ese
##osh
##feu
##VID
carré
##esp
Salon
déplo
##ava
##vén
degré
norme
##din
Elect
fuite
poign
latin
échec
##nie
volet
dents
crist
décro
Artis
##ouc
prior
range
##URE
impôt
Anton
##eil
##uge
Série
Celle
##ury
##hou
acide
##cts
##ily
Appar
ombre
cache
Carte
##ody
tapis
Objet
dépos
Marne
relie
##cif
##cée
##com
formé
##asy
piano
##ifi
elect
Album
soyez
avanc
vérit
adéqu
louer
forts
croix
Croix
chers
réfug
Fiche
##col
##ams
dates
états
fruit
##ouf
parlé
coton
##rég
Green
##ARD
repar
##aco
##oga
domes
##irt
Grèce
##rak
chron
Afric
prime
##ank
##wer
atout
##lix
comte
##van
##pro
Sinon
aides
codes
assis
poche
désac
Cours
célib
##rus
##jan
motif
Trump
##éen
polon
##iro
Ligne
##jon
verte
##oub
##hip
sèche
bénév
Maria
bulle
coute
##ANS
Olymp
citer
##gué
carre
##ILL
remer
Henry
finit
##erb
##oué
##ena
##rac
COVID
scand
##oto
##mat
##sen
ronde
Bruno
pensé
trait
##ula
vague
menée
défis
vesti
honor
##ilé
##omo
métro
##phe
alent
copie
pseud
baign
##lay
Droit
##uen
##now
##iew
Chant
##obe
abond
quête
##raî
incap
##aki
enter
##ués
prête
gagné
Roger
##bor
##wan
mange
aient
##ifs
Salle
foyer
##set
##ize
mette
menac
admis
blind
reine
##ald
diplô
venue
ratta
##bel
hôtes
##med
Venez
règne
monte
fermé
illég
câble
press
ondes
Temps
##agi
éclat
##eum
union
rugby
##lem
dissi
start
stric
adapt
##îte
céles
dites
Syrie
##aka
Durée
digit
Resta
Modif
Autom
colis
##ova
précé
Music
ponct
Revue
dress
longs
rêves
délég
Achat
##ila
occas
venus
Power
##ING
roues
marin
témoi
##fil
Milan
geste
envah
##éch
récep
##yer
Corée
rétab
##cus
##lys
varie
douze
fibre
paire
magie
pause
arbit
trace
Tourn
linge
ample
lourd
##pre
##TRE
Sorti
##rot
relax
Congo
Group
enfer
##udy
Front
##ima
brill
impré
compe
##ulf
décol
##uet
marge
##êle
Ordre
êtres
##ERS
inond
âgées
##LES
Roche
##ORT
dette
nuits
##vey
##ISE
natur
incar
Jules
hauts
rôles
fasse
##mit
##cht
fonde
météo
suici
noirs
boite
plaît
grève
mines
##uez
##mel
débou
casse
coque
##zer
culte
voile
Harry
##apé
poète
encad
##opt
##lum
Suède
boire
balle
##oom
Colle
seuil
laver
élarg
Ecole
Smith
model
Monte
lever
##ogo
robot
intim
Corse
Obser
rétro
enjeu
testé
édité
recul
##tip
laser
décal
roche
odeur
tenté
hybri
##uma
soupe
Fourn
Vidéo
Sarko
mérit
empre
sauce
Défin
congé
Stade
##éth
##ded
villa
croit
sémin
polyv
Roman
##oly
paras
##sid
Steph
rayon
immer
verts
Tokyo
##rue
##ION
votes
Force
Stock
##hib
imper
Smart
Nancy
##ism
Serge
pénét
théor
Avril
mixte
##oma
livré
manus
fixer
##cho
impro
North
tiens
##gas
##gal
vertu
White
foule
flash
##apt
Inves
criti
inser
##auf
avoue
Fonds
Galax
##top
video
apais
##ito
which
chère
##oxe
défic
aimez
rénov
Villa
##akh
group
##ria
génie
caval
##tia
stars
##oxy
##win
Alger
##via
House
Tours
Sénat
biodi
pomme
récip
géant
assim
figur
ciném
bleue
##INT
tunis
Julie
##see
##hol
teint
avère
Psych
##CHE
amont
##yme
parag
##fel
##oît
pince
##gel
serre
Niger
cogni
révol
immat
bourg
##opa
##row
##bec
##aps
##sel
Chamb
##éry
abatt
vrais
Situé
bière
##bur
intui
autoc
##ims
##cio
Canal
laine
##asa
Initi
neufs
Pharm
salut
crime
lampe
Libre
South
mince
##xic
audit
##hai
antib
canon
##lav
Santa
Jeudi
Lundi
sages
moral
##uth
##rap
épous
##obi
##org
##dem
Stand
chats
Genre
##êté
jeter
##zen
morph
##str
##ymn
regre
##ERT
proph
##dor
récur
digne
##roï
sacré
tuyau
Salut
##aba
Comté
animé
##rip
emmen
fores
acous
drame
Amour
##IEN
##bus
excès
savon
##dum
indés
venez
##AUX
Maire
singu
trous
##amé
voter
insta
Mardi
cosmé
##ûte
tabac
black
resté
Créer
intra
félic
Jacob
ignor
Socie
pneus
camar
##nec
Rouen
voyez
aveug
réjou
trent
##hod
traum
##aby
subli
parcs
queue
cuire
##sté
Beach
##nac
silen
speci
royal
têtes
##tén
chang
gener
##IDE
##led
March
Fleur
Alice
##ops
Mario
##ken
Armée
Juifs
under
nomme
blocs
céréb
haine
socio
Liège
fallu
Agric
##OUT
##osa
##ski
##oro
délib
chrom
nerve
##ree
shirt
dîner
Jones
##UIT
Total
parts
Cloud
##CES
goûts
##lio
Météo
guère
##ocy
Micro
##uck
##ICE
##mét
enver
vigil
olive
##tex
inhib
aggra
soule
doigt
##had
verra
déter
##cés
taxes
Laval
##hel
préco
##mir
##pal
bague
##axe
phare
Sarah
subir
##oke
##hal
opter
tromp
Image
drôle
Promo
##ett
Hauts
##mas
##gny
Human
##êne
gorge
##aha
côtes
Conse
nourr
##uri
Poste
incer
Contr
Habit
parad
##ido
##céd
égale
Juste
antic
amène
Mouve
##ONS
Scott
cumul
##ids
amené
Route
##cir
conqu
litté
Basse
prédé
Solid
saine
accou
their
Films
##abl
héroï
hotel
phras
##dep
Urban
chair
##lat
bords
honte
médit
Ingén
herbe
pique
recue
##TIC
##rah
Bravo
occur
Steve
anime
##iga
soeur
tombé
limit
##vue
##TIN
##omi
ailes
juger
Bulle
Effec
étonn
Brest
saura
##IIe
péren
illim
##aib
Store
Vérif
##nay
juifs
Dossi
sangu
Light
##tem
Islam
rêver
attén
##bar
battu
infec
##lib
Liban
galax
Allez
Leurs
rural
Dijon
plume
nulle
Enreg
cross
Match
Bible
Multi
##GER
atter
cités
Avent
Appel
époux
Media
Opéra
vétér
##uki
légal
Accès
##END
Devis
corré
##sia
Brown
pente
##ALE
folie
trucs
##IST
##key
crédi
Reims
démis
Peint
Ultra
gains
poêle
noyau
Marti
Offre
cockt
##rar
##uto
Boule
##chy
lisse
encre
stagi
ajust
puits
gants
##vil
brass
créés
using
monté
arriv
procl
allée
ports
Texas
chris
bébés
convo
Linux
##qua
juges
Compé
Extra
Début
##ift
mètre
Garde
estiv
##erc
Répar
##aïs
##oyé
marie
##ced
mères
tasse
dépit
discu
posté
admin
##ove
##ISS
##cev
##rui
télés
emplo
réels
loint
tubes
sœurs
##nen
metal
##EST
prosp
pacif
Écrit
##gos
vélos
store
Russe
##agu
monop
##oui
##ASS
cardi
##acy
minor
##rey
aurai
coins
Style
vitre
ligue
média
##rik
Chili
persu
Matth
Corps
Costa
camps
durer
filet
Court
Capit
##TEL
valid
Soyez
élite
apres
estom
##rov
about
fumée
Jeune
coupé
faune
##cue
##raf
Young
César
fines
manœu
##uan
serai
posée
Rapha
Water
voler
Poids
subit
Times
Unies
Vieux
poème
Spect
pouce
unies
neuve
évite
##ALL
frein
Kevin
##ryp
notif
manga
##cos
Large
##abi
##App
Labor
cutan
##rix
pèler
##ika
Color
##har
Hervé
détes
##IGN
Saône
Ferme
polym
remet
##ecc
Allah
remor
vigne
innoc
épuis
##isp
Réser
Games
Avoir
insol
##ONT
##ius
study
##kes
grade
Flash
ponts
triom
##reb
pneum
Ayant
adoré
agran
grain
abrit
abdom
##ITÉ
##ief
blogs
dégra
##arl
Holly
##ovo
juive
Cross
lumin
Fried
infil
##ONN
Navig
##INS
Poser
Video
##kel
##abo
marié
icône
perso
corde
vieil
##ios
écras
other
Acade
cloud
Count
caché
stéré
##VER
##oum
##oms
poils
tardi
Bilan
PARIS
surpl
##atu
##dun
##cro
Bains
Intég
gramm
kilos
##oko
aperç
##ICH
##ACE
##bul
Bande
usure
##tor
Night
cotis
##bit
Mieux
##nik
##rum
boudd
##ful
baies
mails
##TIF
##rag
sérén
révis
injus
##bou
cyber
##lov
drain
alter
poker
##roi
fixée
Obama
##mus
Chron
essor
##cas
these
veste
##sch
##zon
##enh
liber
Dakar
Félix
Abdel
##aze
divin
défav
##ums
Reine
chœur
Pékin
pâtes
tracé
value
##day
Vladi
first
illum
Année
INTER
Unité
oncle
trône
flamb
count
##una
block
##ben
##oba
mexic
oeufs
Plage
levée
##ved
roses
noble
dotée
écout
Moham
cessé
Tarif
##alo
rangs
State
##mba
Robin
peaux
laiti
Porto
##doc
Award
loyer
milit
spons
power
splen
Excel
irrit
impar
Graph
Param
##acé
refer
dynas
Hello
orale
##mad
Shang
Beaux
water
grise
##bal
soupç
Laura
entré
##uls
Brand
solde
Insee
##bin
breve
vents
##URS
Aller
##aza
##oda
Mount
diges
##lyn
arros
Therm
##anz
Somme
Infos
décon
##dae
Laure
allég
##taï
Siège
tremp
shamp
ennuy
##ouk
##até
##euf
##phy
##ako
athlé
##Les
mater
fixes
fière
Lucas
volum
réapp
Space
##run
##fes
Deuts
##bis
world
River
délim
manne
dieux
foncé
Fland
Conte
mythe
right
Ernes
Prise
Idéal
faill
##kov
dense
chlor
tatou
dénom
Moins
désin
##inn
Reich
based
voila
doses
crypt
Train
basil
##hor
##cté
clics
prodi
Possi
Carlo
##tta
sanct
Oscar
chocs
excur
inval
Noire
orgue
bombe
tonne
firme
##ogn
##gio
Coord
moule
gènes
primi
aires
étang
dames
bravo
lames
##rys
leçon
##for
##gné
genou
Barre
plait
Story
##unk
##roc
réuni
Passe
brise
##cut
Fabri
allié
##sta
cents
##zzi
ratio
Élect
paroi
fosse
immob
##mos
stopp
flore
Barth
etait
judic
##aks
##ESS
##ird
##umi
Huile
Natur
##wen
##odo
##osc
plain
Massi
##aku
Améli
##zel
embau
asile
Texte
Fille
verbe
robes
##ELL
##agh
Miami
Haïti
Reste
gardé
bijou
Lieux
Maxim
##ENS
##zac
Kenne
relég
gliss
isolé
Lewis
creux
régén
deuil
Sites
jette
marty
adhés
Émile
##quo
charm
Pales
Watch
écoss
Rugby
Étant
Pérou
pénal
Isère
Exper
Maine
lente
tenus
pesti
after
##ACH
##ask
Brook
bleus
Stage
##pad
##fox
##ANG
Essay
##sey
##Pro
##OUL
##utt
exact
##gou
Brian
title
Havre
téles
basés
SAINT
##ONE
Bénin
canne
Libye
Médic
##ogg
guise
lymph
usées
rétra
préle
##aou
Plate
fêter
##pez
Explo
##aïd
ruban
##uro
exclu
Prime
First
chêne
sélec
Marco
promu
Intel
jambe
aéron
##dle
Nîmes
##ned
##omy
Mette
armés
##cam
Email
Étape
Satur
fonte
##iev
Gross
Seuls
infin
antiv
bouge
absor
##ïde
##kan
messe
saisi
Gabon
macro
##gor
Mille
##adé
Domin
Diego
##lux
##zig
Manif
##ENE
anecd
nuage
Metal
causé
reçus
diale
piège
anglo
Pièce
media
##zan
déblo
parap
##igi
##ikh
##uli
##imi
Plomb
##MAN
Share
##ixe
doubl
##enz
revêt
absur
gmina
##oku
clefs
Major
escar
sobre
vives
éphém
##PER
tribu
gares
##OUV
event
Davis
##yne
check
##dan
Seule
Qatar
##oen
catal
symét
Vegas
fixés
bross
##mal
barbe
redéc
Pages
##téb
résol
##red
baron
rende
Lycée
##tan
##pan
menus
Œuvre
tarte
socle
Cadre
##TIS
Forme
Occup
##abe
Boris
anorm
alpin
##chs
alias
XVIIe
anges
Alpha
auber
##éon
##loc
Valen
##tet
Quint
sonde
millé
extin
##omé
corro
Ahmed
lauré
Coque
##bot
serbe
céder
##iko
width
Under
Plant
Choix
Dream
##mix
##lag
Cyril
enquê
fouet
Allen
éclip
Annie
proth
Stone
cassé
topic
Etude
Caraï
there
bâtir
##iac
##aim
épidé
Relig
sourc
Agnès
invol
Vivre
pluvi
break
##MES
volon
##mif
opère
##wal
arran
acqué
##tar
Magas
##hon
##oté
ambul
##ema
délin
vides
Atlas
clois
##iet
forcé
short
rétic
réint
watch
Magic
##tag
Danse
##oon
piles
China
chaos
Dauph
touch
Rouss
##sea
Honor
ramen
##oid
revis
tronc
Lance
track
##ene
Whats
##œux
tchat
azote
panel
Women
empar
payés
##uie
##osp
irrig
Faune
cases
##oka
perçu
lapin
apost
Speed
Colon
divul
Georg
pairs
##eta
confr
Appro
##tus
where
indén
##hen
cacao
Great
Agent
spira
Forêt
##TIL
##lli
##wig
effor
Crist
flanc
Lucie
Cover
incre
fumer
amies
river
Queen
Viole
fluct
Usine
##ulu
embry
Notez
##orf
Dates
écris
perce
Euros
Panne
Audio
gazon
resse
régal
veuve
##upp
éléph
rides
drone
Frais
pères
##avy
##aqu
##ïse
##pot
Canon
dauph
arist
order
récon
Coach
Maman
races
##pré
Kenya
Jason
##ouz
péché
coinc
##dex
fusil
Corne
##ged
Hyper
antid
##vol
Rense
Turin
##ahn
Coran
marti
Pedro
grimp
mâles
litre
Citro
##erg
Mécan
crain
borne
cells
caric
##yan
brefs
reçue
##vus
##aël
Outil
Crois
Bénéf
covid
Volks
Franz
Nobel
##aca
peupl
Caléd
Physi
Boîte
cafés
Bruce
pôles
ferai
##bag
##dad
censé
Paulo
prost
visée
##ads
Dynam
print
jouet
Démar
Envie
##IES
Comte
Infra
aviez
##ERE
Grace
##boy
répan
seins
dalle
donna
repli
Sound
staff
pinel
ravis
Clark
réaff
##voy
Mobil
##AIS
##yen
embel
##yre
anony
Adobe
Marsh
blues
sucré
éping
##œuf
Toile
Jimmy
##uch
Marin
##asi
##hum
##OND
##nil
Liver
gmail
Julia
autel
dotés
Party
##urn
Carol
Index
light
chari
Gener
finis
Actes
Start
jolis
reflé
sauvé
lisez
Break
armén
##êta
Kelly
Aires
menés
##AUL
calib
Soins
della
Gérer
seize
chine
Pinel
##TIV
Berne
recyc
Verts
Honda
pelle
##oua
##ilo
##fri
Mines
books
##cat
Essai
redes
balay
Rasse
Drive
##kar
##ORD
##gez
Earth
Prest
éveil
Lampe
Price
sapin
mangé
brève
##iva
insou
##jac
Santi
##oya
aiguë
##amo
Jolie
Geoff
frigo
aliné
##cet
views
##lau
##ÉLÉ
impul
##LET
cœurs
bâton
Tapis
ravie
categ
##eri
caill
Tchad
Océan
taper
##bet
Synth
Coton
Blues
expul
broch
symph
Vénus
Trava
level
trame
##ery
##TES
##aïa
Boute
Daily
patin
optez
borde
poire
Symph
polar
Proté
##aft
relay
allés
pizza
Étude
chôme
Brass
Côtes
sirop
##gro
Caire
Prote
incen
Moore
posts
Colin
hélas
puces
nique
##oln
proie
Roule
##adh
jusqu
house
Cyber
forex
trott
##AUD
##aus
##mic
Rabat
Arist
haric
vache
story
neveu
globe
divor
brute
troub
##bro
Recru
incur
foire
##éle
longe
patch
bêtes
##aig
rives
##nat
crâne
##sim
##odé
##xit
##aru
cohab
Found
Loren
##LEC
bancs
flott
Panth
blond
auras
Créez
agréé
pivot
Motor
pacte
##lla
radar
##ACT
Broad
famil
joign
Stars
Ibrah
malad
Billy
##Pub
escro
framb
Arles
Chiff
relié
Local
vôtre
Touch
Acier
Raoul
tomes
selle
invas
reman
accru
##OSS
suggé
Vichy
speed
##pas
Meuse
porno
##iba
Clair
balné
faces
##éga
##ele
prêté
Child
##mia
##ULT
##gis
##ioc
vital
Horiz
##ANC
##hes
##var
lâche
##hem
##bnb
##iza
miner
réglé
##oeu
tuber
domic
brûle
Event
Matin
récré
frust
##cra
verse
fiers
##anç
##NES
Indre
Passi
tiges
habil
##ahu
onére
##yss
Élève
Phase
nuire
ances
##owa
Namur
péril
Proph
##ANE
Golfe
varié
Suivi
Caval
##ups
##sse
Pêche
dédic
Héber
Récup
Idées
abris
ratif
could
Schne
Faute
##èze
##tro
terti
accél
Crème
calif
Death
##umb
close
cuite
Malte
Voila
orage
ENTRE
tabou
satur
obses
Diane
Pompe
April
décap
years
Forex
niche
Jours
motos
sains
escad
Ghana
##mne
plaid
##raz
Compt
##Con
##wth
ennui
##eun
##ebe
##vić
apéri
Cohen
##ICA
ebook
Accep
fioul
sache
chars
charn
jugée
Pelle
sompt
carav
##web
chaux
Miche
tirés
Coeur
Model
##mag
##eto
##ATS
Poule
##viv
erron
Sebas
Feder
##rio
Happy
##rod
##aré
divid
amuse
bémol
dissu
duché
incub
Barry
accré
Hiver
Final
##dal
##tik
Plein
Seuil
Sauve
After
files
Range
Anjou
golfe
rater
audac
Mitch
##châ
##tto
brune
nôtre
##alt
vider
Clara
##UBL
##ono
antis
Swiss
égout
##IEU
serré
ravit
engin
stigm
purif
Consi
loups
plane
##vic
excéd
peser
##BIL
##ÈRE
Bleus
clips
greff
perle
Tibet
price
Label
dérog
Parad
Terra
soirs
##ARE
tourb
ronge
bilat
##ATA
talon
évier
Engie
délit
##cit
Isaac
polyn
Heart
##cot
répét
tache
clavi
sonne
Coiff
##vir
ARTIC
achar
##sky
##bat
##eti
Léger
Damas
tueur
frame
Bient
versé
Vista
##esh
Delta
Giuse
diété
Messi
Belge
Catal
survé
##ohn
Trail
##VEN
##put
éques
haies
mural
monoc
rires
incul
##say
Polyn
##ppé
Monts
Imper
Books
inexp
pires
Enter
sauna
Leroy
creer
Verne
##hme
vocal
lobby
##cum
Roque
##ATE
##CON
prier
##rel
Veste
siens
Métal
dépla
##lik
Drôme
Field
Assur
conve
##usa
nœuds
réagi
##uta
small
pénis
toits
Focus
tendu
##SEE
Neuve
Ocean
##eda
pensi
##sir
Karim
VOTRE
Dubaï
##def
passa
recré
Rossi
would
##ela
Berry
truff
focus
##éna
##nal
##teo
Plais
##uda
Hydro
Auber
Véhic
cubes
Moïse
incom
quint
aille
Jouer
socie
##esa
Pablo
lacun
##kok
Cycle
tante
gradi
dépou
##BER
Valls
Etant
Carré
injec
solen
nazis
Casse
vitic
bouff
found
##dha
redev
coude
scrup
##œud
agrég
Verre
Lions
##zes
##mur
Géral
##cil
Bosch
Quick
courb
avois
tibét
rails
##arz
green
Elite
##zed
beige
Jaune
##loo
Heure
stylo
rival
régie
réélu
Ecrit
##ior
fluvi
Echos
Biden
marée
Civil
Blood
kayak
Edgar
alpha
There
antip
Aisne
##afi
Stein
moine
##TRA
share
##fle
déser
étiez
purée
These
loger
bâtis
Mater
##mbo
Alban
GRAND
hypoc
gynéc
créez
XVIII
aléas
échel
##hab
Pseud
##kea
Baker
Fémin
Japan
space
peurs
exhib
admet
lamin
dorée
Baron
Amand
Griff
Quoti
Emile
Condé
tweet
##TIE
##vas
sexes
jugés
ruine
Arrêt
##RET
##aia
##Par
##VEL
Morin
items
Meyer
Lisez
tirée
agira
##sec
Grant
poing
##lee
##jeu
oxyde
vécue
Block
solub
##cap
Fanny
logos
##zin
Châte
maths
again
Effet
state
##bau
reins
Freud
jadis
defin
##BLE
three
##JET
décla
Thème
antig
##oki
aisée
immin
Arbre
Chien
amant
Mande
Titan
Dance
allie
Ident
posés
##jus
##chw
élire
##erd
##uir
jouée
Indic
Ordin
##ety
marre
voûte
##coh
##mez
Manga
Kings
##jar
Macéd
Ultim
Pearl
Armor
subdi
Short
Chloé
##ïté
Infin
##ely
parue
##gir
Tesla
##hop
pains
escap
##tch
##hof
Reply
endoc
##wel
Klein
salué
corse
##tré
Pours
##REM
chamb
Tissu
Poche
douan
##fit
##tah
Grecs
déçue
affin
##afa
##atz
latex
##uru
aînés
demie
étoil
Touss
##oso
draps
##ppi
##ILE
arron
salue
adjac
tamis
Silva
##dar
protè
prédi
##leb
Poker
peste
##hyd
##nan
Vinci
##ady
##dos
Chang
Adapt
kinés
##lah
##cks
Scand
Sculp
##ACK
Faits
##his
sente
Indes
nerfs
Montb
Noirs
##ELS
quais
rente
##kir
fondu
voeux
##uke
##ppa
##PAD
toxic
reçut
natal
Vingt
serve
Arena
modul
##alg
envol
avéré
Ralph
parab
Nokia
numér
Voice
Sémin
Globe
##mod
##leg
Gaill
Créée
fruct
Foire
##VPN
##tid
stupé
##uka
rends
Flore
##OST
##ûts
palme
intox
##emy
Riche
Sofia
plier
Antib
salée
tyran
taire
##ght
nappe
##Des
##icz
grecs
inhum
annex
métab
Lutte
##cen
obsol
natif
semis
cadet
reflè
numer
##nau
désar
Ghost
Girls
pendu
jeûne
patte
soude
Etape
##bay
opéré
child
collé
Paolo
Gants
##kas
##isl
##lyc
Jerry
##idt
Félic
##ych
Masse
Weber
##cor
ferez
citée
##IDA
##RIC
Categ
##OSE
échar
brisé
Ernst
cicat
Miner
incoh
Bonus
##INA
Europ
##pie
posez
Aless
autos
Sahel
##oge
Utile
Perso
flûte
Ronde
Adams
##uiv
Danny
Récip
benne
asper
##non
éblou
finie
pitié
##tio
##uba
reval
##eté
Fêtes
field
antim
enfou
##gow
strat
écrou
##igo
trail
##xis
##oce
##mam
##uin
Recon
déver
##oco
Plaza
Manon
##IVE
Sacré
miser
##SSI
Evans
grace
crête
Marty
##dig
medic
bosse
Doubs
Print
sante
##imp
vivez
bizar
viser
vogue
Chrom
rabat
bouts
##tec
Ajout
##ûre
volée
gérée
##ANA
monts
About
##imo
great
##oca
Chrys
Luigi
teste
datée
crier
Hydra
##NET
Tweet
décré
##eul
mélan
##ÉES
Optez
dispo
##ITS
Sweet
Audit
##zou
Lopez
gilet
Phone
##AME
tiède
Autor
aéros
##urf
ronds
Yonne
##gus
Lanka
Forte
integ
##êve
Basil
##ech
##bow
Movie
malin
Andal
Ronal
Steam
while
Emily
Hebdo
veine
crous
jouez
irrés
pâtis
##ahl
VIDEO
Reven
taxis
Futur
inapp
Barbe
logis
vitro
##AMA
Tommy
Génie
dirai
Jorge
Séoul
TRANS
ellip
sales
pores
##vio
Allée
Avion
##FOR
Opera
doter
##tat
virtu
hymne
permé
clign
vicom
joues
Escal
seras
party
Régis
##isa
Faure
mœurs
crash
tipeu
kospa
géman
zarma
vegra
reuss
cheub
crari
tarpé
pétri
zicmu
tismé
teubé
javou
ketru
moche
naimo
retba
veuch
oilpe
leuch
rébou
cheul
pepon
taspé
ouais
bleta
abusé
teuma
renoi
plaiz
golri
relou
demer
remps
pécho
geura
tigen
skeud
zarbi
kiffe
rebeu
rotca
tarba
scred
rempa
reuch
loool
ranpa
tromé
iench
tipar
teuch
keumé
peura
teufé
daron
teubi
posey
turfu
kebla
teupu
cimer
keuss
askip
cheum
mdrrr
ceuci
jéman
ramps
bebon
tijan
zique
zarbe
ptdrr
noich
ripou
##tion
##ment
##aire
##ille
##ques
##ique
##otre
##ance
##ouve
##ette
##onne
##able
##ours
##ants
##alis
##sion
##ence
##ussi
##teur
##oire
##rent
##vent
##lles
##aine
##près
##cher
##ités
##ourn
##ante
utilis
##ages
##aint
##olog
##iste
##ente
##ères
##ales
##ures
autres
##ière
##mbre
##orte
##elle
##igne
##insi
##oint
##éren
France
##puis
##ents
##ches
##asse
##ains
nombre
##core
##çais
##enne
##oule
##mple
##ieux
commun
##oupe
encore
##cess
##aiss
##raph
contre
##mble
depuis
##iter
##oute
généra
##rait
##isse
##tive
##velo
##ions
##erci
##ines
inform
##mier
##voir
##jour
##iens
##arge
permet
profes
##eure
##agne
##iers
meille
import
##lier
réalis
projet
##titu
##ises
toutes
##elon
partie
##quer
##ange
##ress
##uses
##onom
recher
##ense
##pect
propos
##mand
public
##coup
##vice
##ande
##uite
##ites
équipe
##form
années
##érie
##orti
contra
nation
chaque
##ices
##seil
##bles
compte
##vers
##erne
jusqu'
##port
nature
grande
##erie
##itre
##cien
pouvez
##isme
##tifs
groupe
nécess
##éric
##rier
##ième
économ
représ
##tres
##atif
savoir
##ueil
partir
maison
##tien
##nent
niveau
##oris
région
##ager
expéri
associ
##atri
moment
##ribu
##anté
##vier
##ttes
##iles
découv
##otes
contin
mettre
intern
##atis
##ible
##hait
rapide
##ture
##enir
##crip
##gent
##érer
résult
##assi
##oles
##tier
améric
##orme
jamais
gouver
##yant
##ront
demand
applic
##tant
##ting
##tout
accomp
##rant
compos
dispon
##tite
##ionn
##oins
##lace
besoin
##aise
##rage
##ider
trouve
##obre
marché
##oque
##rain
##lise
ouvert
##quoi
##atre
jeunes
##téri
traite
##aces
centre
##eurs
femmes
matéri
change
saison
##ossi
##alle
##cont
effect
##ones
##eter
simple
unique
##tenu
mesure
petite
##ensi
europé
##land
##utes
propri
charge
accord
Europe
raison
heures
territ
passer
indust
sommes
##anci
##lème
##rais
##orer
seront
reconn
consid
second
quatre
##ital
##oses
semble
##iche
##ards
retour
siècle
##ourg
##seur
##line
##acté
serait
points
collec
action
##onde
espace
Pierre
divers
##erts
devant
##once
donner
histor
propre
classe
hommes
##quel
voyage
autour
guerre
enfant
modèle
##orie
origin
marque
garant
##tent
##èmes
vendre
##ouse
parten
##ides
destin
réseau
ancien
##resp
autant
##usse
existe
##cine
##iver
argent
regard
essent
déclar
appare
prépar
chauff
##iser
##alif
plutôt
##médi
##odes
##lant
longue
##rice
##obil
##icie
##part
##orce
##cune
##stra
##oser
petits
##face
valeur
##char
visite
##oyer
risque
signif
parent
taille
##fois
aurait
##rées
##dien
grands
emploi
##tées
spécif
procéd
##rale
client
photos
entraî
choses
études
##sych
##oine
##ates
##oici
##ibli
compar
##ient
complè
##tine
##çois
straté
##orts
##aume
##uels
##auté
dessus
##cipe
##alog
droits
classi
##cier
rendre
commer
##apon
##quée
connex
##èles
Depuis
##stes
##igue
##iner
##neur
auprès
candid
époque
##étés
##oure
##roit
montre
durant
diffic
##prit
collab
aucune
##quis
##onie
extéri
##ince
pièces
serrur
##tern
##ouss
précéd
attend
##orde
milieu
facile
entrée
##lent
##chés
##stru
##téra
##roid
recomm
##ades
sortie
##tice
fabric
employ
##inte
##itez
##ivre
##vres
social
auteur
##TION
départ
##âtre
##veur
##uide
parler
##esse
contac
direct
##tils
termin
détail
##orté
##érif
éviter
Figure
##cole
transf
##uire
lequel
##ènes
celles
##rite
##ootb
##book
précis
jardin
##ètre
succès
##pend
Canada
##ocra
##omme
permis
##crit
qualif
##ieur
confir
chacun
croiss
##ross
double
##fait
##abil
##nces
chemin
esprit
Publié
gauche
##oise
##ynam
##rist
instru
##undi
images
orient
##urer
##time
##ster
volont
##êtes
langue
##eaux
consul
##oncé
Michel
outils
##ules
##émie
##reur
##ives
##èque
calcul
source
dispar
Québec
##qués
numéro
droite
manque
rester
proche
concep
soient
##ater
##umes
design
membre
##ogle
interp
##ical
observ
élèves
##adie
##rons
presse
suivre
arrive
Centre
multip
##arde
##érap
##duit
##less
moyens
##rige
##éral
influe
##otte
publié
située
##main
##mine
##vant
lesque
##ague
répond
##endu
proxim
##cles
##ares
##ilib
##lage
##sine
faites
effets
bureau
laisse
##ilos
##lect
##tend
Maison
dépend
potent
malgré
faible
##rich
caract
séjour
##érée
##êche
##erté
pleine
pierre
##ancé
##oign
##ight
rappel
##ames
conten
salari
##uler
finale
offres
livres
Christ
##onte
réussi
immédi
consac
combat
exerci
##arch
samedi
aspect
##este
moteur
règles
##éder
quelle
marche
Google
##ende
##tels
##bert
##gies
régime
circul
dirige
##lymp
##anne
##otel
suffis
cinéma
course
##çons
##rend
##ttre
danger
##aque
étrang
joueur
chance
église
soleil
villes
##érés
concur
termes
pourra
##aude
mobile
##anie
rendez
tandis
trouvé
##ilan
altern
##onné
##uter
famili
##éros
##nels
entrep
impact
mètres
figure
formes
##être
##iant
défini
##ario
objets
Martin
dessin
offrir
Italie
conser
##mont
juridi
##ores
Découv
décidé
gagner
##user
certif
perman
soulig
légère
lettre
agence
Robert
cartes
##itée
##irer
locaux
police
##atur
avenir
réflex
magnif
##omie
poursu
##deur
bonnes
papier
##çant
##mart
##vage
##ader
exclus
Chaque
##rand
assure
##ulté
respec
réserv
##olas
satisf
couple
dollar
##inon
suffit
##quet
sortir
##cule
##inet
##onge
commis
##illa
##ault
##alen
##égét
##unis
##disp
contrô
forces
renfor
##ingt
chauss
illust
telles
access
##tile
Commun
option
acquis
format
##roph
##ding
##king
##osph
lignes
espèce
##uest
portes
conver
##rine
porter
choisi
voulez
avance
##réal
##rits
##olie
statut
##vité
Intern
penser
espagn
Suisse
perdre
désign
##agog
peuple
apport
limite
##chet
soirée
nouvel
budget
médias
indisp
##angé
Grande
appelé
Guerre
riches
##apes
crédit
devenu
filles
##cter
vision
élimin
phénom
Recher
##sons
oeuvre
ouvrir
chaîne
##heur
manger
##éber
garder
Groupe
signal
syndic
##onal
Russie
##ated
engage
##cent
##oile
##urée
terres
##oriz
entend
volume
##iels
##ômes
##ling
textes
fruits
Claude
Joueur
##udes
puisse
titres
Toutes
##berg
vidéos
##omas
justif
affich
visage
##ésie
privil
moitié
parole
métier
##tian
##oter
##oirs
##osse
##auff
preuve
canadi
##udio
profil
##chée
##rict
complé
##ètes
condam
belles
écoles
humain
##ount
énergé
encour
##ings
##agée
entier
##ourt
locale
écoute
espère
privée
##ound
Inform
##orld
##rise
beauté
absolu
##èche
##cins
acteur
##MENT
dispos
jusqu’
##gues
hypoth
##dent
cheval
étapes
œuvres
config
##rass
servir
sujets
touche
##édie
##hors
compli
lancer
erreur
proven
##rick
##mann
législ
fleurs
statis
discip
##esti
prises
totale
##tise
##mber
Thomas
##liam
Sainte
combin
invent
actuel
##fort
##iale
##ctor
Joseph
baisse
banque
ventes
faudra
france
##ords
adress
##azon
partis
##lien
échapp
##itch
maître
##ogne
stress
##éléb
dehors
défaut
##iend
talent
##ject
ajoute
décide
devait
entrer
écrire
##chez
##ctes
##uclé
entour
##illy
##éroï
##unal
##rome
##liss
##uits
##olat
déplac
##gées
avions
##rimé
climat
##utri
hôtels
animal
décrit
distin
##quie
##ctur
civile
##utés
##ueux
téléph
##bres
Quelle
##irit
##riel
normes
##rets
épouse
correc
négoci
adapté
appari
obtenu
disque
##meub
##vaux
impres
##isée
Malgré
##vidu
##outé
places
##uves
chasse
##gner
cadeau
##allé
tarifs
vaccin
##lois
traité
allons
##chir
portée
Austra
démont
faveur
##olue
arrond
offici
##omét
allait
reçoit
furent
Église
##riez
##cons
agents
##umer
rythme
rappro
Meille
##ries
chaudi
remise
remont
##égal
chargé
##érir
##lité
##irus
diffus
##uste
soumis
arrêté
estime
##oral
séance
##aign
profit
##isez
pensée
##imes
##hone
envers
##ails
##illé
##dici
##anes
Profes
affect
casino
incont
croire
##dits
##pare
adoles
##oton
Source
##iées
examen
##mond
##view
##lige
Utilis
Orient
contes
veille
##êque
##ties
##aies
##ator
hausse
cancer
salles
matchs
vérité
inclus
Daniel
##rime
connue
##roir
##tiss
devoir
Résult
normal
##vées
retard
##chat
Victor
##nant
notion
vivant
comité
patron
prison
transp
réduit
##ulée
revenu
Albert
##aler
inconn
échant
demain
arbres
chaude
##agés
iPhone
Atlant
actifs
parois
Amazon
##ower
judici
caméra
pointe
Israël
##amin
vaisse
attent
##oiff
##onse
couche
##acie
révèle
Faites
bouton
##alon
secret
parall
récomp
spirit
expert
auront
canton
##mant
incroy
##erai
Argent
immeub
donnée
enjeux
Région
montré
##outh
établi
##venu
accélé
##ally
##leur
former
##erte
##aill
allant
##rans
##ield
plaque
##ôles
avocat
##lets
##quin
##alie
enrich
Berlin
sommet
utiles
##heim
studio
##isés
##rest
tâches
##ocie
poudre
présid
mandat
bouche
active
Agence
chante
alcool
##adis
trafic
pilote
modele
tranqu
tenter
##ires
suisse
séries
invite
##tell
Empire
occupe
propor
auxque
visant
terror
##inée
unités
##peur
bateau
tomber
racont
défait
solide
Contac
monter
advers
recouv
pauvre
effort
arrivé
##dium
Comité
vertic
##chon
George
essais
franch
leader
oublie
##erse
douche
##peau
##ford
lumine
bassin
accent
parfum
##ases
Taille
##lish
##veau
tester
Autres
Classe
frères
envoyé
Brésil
décenn
Chauss
report
Nantes
délais
déclen
##tics
emball
changé
##work
centra
record
offert
majeur
laissé
plante
Auteur
auquel
procès
##olid
##œurs
##tage
##comm
champs
aurais
connec
##euse
sentir
fondée
courte
##ware
métrop
tempor
ordonn
modern
##orth
postes
##ache
##ugby
ajouté
marqué
espoir
minute
##mett
réelle
##mage
impose
##arre
circon
vallée
##olis
##anda
Durant
mairie
superf
élevée
appris
exempl
##joux
viande
##èvre
##oble
député
Banque
pertin
##ning
##assé
Colomb
moulin
protoc
signes
répert
billet
##rase
##icat
##atch
classé
##lène
##mans
publie
quitte
appren
grosse
annuel
##dust
trajet
Genève
Nature
Portug
diplom
destru
acheté
##èses
Consul
achats
##iger
vapeur
##ited
##ness
office
précip
##ouer
adulte
##erve
##orge
##agon
##dine
##mise
orches
##dies
Macron
##seud
##vail
menace
##onav
export
assist
protes
##rité
##oyez
##iler
thèmes
imprim
façade
pensez
##sier
##rien
prévue
##ular
##inos
##cial
énorme
chiens
rouges
##wood
Marine
##élib
Julien
##pent
lutter
repose
garage
insuff
hasard
provin
relève
##lève
décret
Nombre
##ulte
intens
pistes
Retour
prince
##cope
Office
dévoil
fortes
Europé
Gouver
Barcel
approf
plaint
##ueur
tourne
amende
étique
sports
##aves
déclin
marine
masque
##orph
##acte
souver
##tons
charme
prénom
##prés
##stac
libres
cultiv
palais
##olet
fusion
sauveg
routes
montée
##ween
placer
assuré
##atie
Améric
québéc
##haus
résist
##ener
repris
Encore
##ison
global
idéale
disent
garçon
Design
explic
soucis
##glom
##guer
souris
##ANCE
##neau
écrite
produc
##vard
ciment
sollic
grille
##ican
##lète
désire
##atin
Madrid
incomp
tonnes
connus
réclam
##dire
Disney
Madame
orange
##load
invité
Indust
motifs
sauver
##ancy
équipé
blancs
annonc
##êter
humour
attrib
vivent
Contin
pertes
##chen
certes
arrête
##sive
devons
Projet
##lies
commen
compét
causes
indemn
forêts
pousse
Marcel
Jeunes
débuts
réform
Master
disant
Vendre
mérite
paraît
desser
##ther
##utée
##romp
##odie
##tige
Jusqu'
phrase
Rennes
traces
##adel
Pascal
Classi
corrig
inflam
Matéri
##ILLE
Bureau
##lits
combus
claire
panier
Vienne
##inés
Petite
interv
privés
évêque
fiable
périph
##ople
bronze
##ître
tenant
Sports
trente
beurre
Gérard
essayé
##tnam
couper
##omes
##stem
##rète
scènes
##anth
##tins
appels
##rovi
urbain
régler
##vain
obstac
Femmes
conviv
mascul
posses
future
fourni
savent
propag
passée
Palais
Jardin
tissus
indice
dégrad
extrém
##ceau
massif
##ommé
casque
##ulés
satell
##aure
##dial
Moscou
##idae
attach
Membre
##ouvé
Sophie
##vies
cadres
bijoux
module
estimé
##veil
Orange
repren
##lore
dédiée
navire
Gilles
colère
filtre
déploy
##aker
couvre
Espace
##oxyd
ballon
amitié
##enda
graves
##ason
étoile
recycl
revoir
##hous
austra
ralent
limité
##lées
stable
##agra
doigts
Voyage
##teau
cercle
saisir
ventre
mousse
impéri
contro
sièges
froide
conclu
évoque
Emploi
poésie
##aste
hockey
##coin
##dict
##hier
relais
cardia
pouces
##eral
évolue
procur
##rane
refuse
agglom
##alth
éloign
trésor
bandes
ennemi
engagé
##ward
prenez
##îner
avenue
Cheval
impéra
romant
futurs
écrits
élevés
provis
differ
inclin
fameux
plages
décomp
##unes
##gène
cuivre
tennis
royale
Langue
endomm
##tein
Action
algéri
##ardi
##dans
miroir
impôts
posséd
##ters
armées
##endo
adopté
basket
pommes
##cast
jambes
sortes
défend
##stre
débats
Compar
##mper
##arko
single
situés
oublié
voudra
doctor
##atic
##alem
##auts
degrés
##vait
découp
Commer
##acts
jusque
assain
##dite
morale
malade
promet
molécu
Prince
vieill
##anou
##IQUE
##arez
résumé
Soleil
venant
intrig
Samedi
romans
##avre
Baptis
Street
manuel
tourné
##vint
albums
ration
##orel
inscri
##çait
Crédit
##inal
sacrif
façons
##urie
phases
aiment
##igny
casser
farine
savons
infant
Jeanne
libert
ordres
##rive
datant
huiles
envoie
##cide
schéma
##mile
##atar
expans
débute
médiév
battre
##burg
##ensé
seules
sombre
méthod
bourse
stabil
oblige
##cept
##arme
jouent
Manuel
tables
aspira
##rose
marins
Ivoire
nommée
Client
Access
##éron
##pper
usages
dirigé
disait
Claire
astron
Canadi
restri
##ilie
##itte
fibres
Presse
issues
promen
##agas
rachat
Dispon
sonore
voient
conjug
gestes
##cure
Équipe
devrez
##xion
Alsace
ménage
Aucune
gendar
Statis
lancée
French
##ball
##late
Virgin
abbaye
##inel
##amed
hautes
##érez
citron
Savoie
##back
courts
##ovie
fleuve
alerte
listes
Arthur
Modèle
appréh
Quatre
##aria
Valent
feront
##nées
hospit
##uent
##amer
francs
géomét
##ardo
verrou
##mées
dépass
révélé
center
##uine
##nier
##ista
perpét
##stal
Saison
essaie
##lera
Esprit
caisse
dégâts
rideau
humeur
Maître
sécher
quitté
boucle
Livres
##anna
Didier
portug
Numéro
##chev
Public
United
League
temple
mourir
aperçu
##anim
venait
Cinéma
##cler
franco
##acer
Donald
trains
explor
Studio
quinze
dormir
styles
##weet
brésil
struct
plonge
Casino
Mobile
Xavier
étudié
##play
##lion
varier
##amel
fermer
météor
lèvres
Moulin
survie
##ilde
Fabric
cannab
suivie
##ough
enchaî
##uant
récent
russes
fidèle
camion
restre
Eglise
Résumé
incorp
Photos
appuie
##atou
envies
##ston
Ancien
réside
rayons
conven
triste
étions
prends
voisin
##aval
décédé
Posted
cigare
##akar
harmon
primor
Réseau
écrans
##arth
##mail
##ouff
##issi
baptis
prière
désert
##IIIe
##gnes
##chan
Guinée
##quip
Cannes
Député
##oung
##ypes
exposé
usines
genres
traits
##ador
##rint
accusé
précon
troupe
##oman
frappe
ultime
##ôtre
##iert
Lettre
magist
coffre
génére
conçue
boulot
lavage
dedans
Compte
cylind
hydrog
humide
Montre
##elez
##ombe
##adre
fluide
rempli
gâteau
obligé
Format
##eron
Certes
##atio
statue
Awards
duquel
surviv
vendus
carton
##orex
##éens
déform
##very
Jérôme
volant
passés
détour
Benoît
##onto
Chauff
meuble
ultéri
cabine
##gers
éclair
##akes
inspir
##erme
angois
Hommes
litres
##auph
##lobe
occupé
Monaco
##dier
##ockt
Égypte
intime
Double
##mpes
amplif
Calais
éterne
Center
Hélène
Venise
engend
interl
manche
##ELLE
ruisse
##well
##abol
##sant
##elin
requis
##lège
jaunes
##phée
livrer
##erre
##ateg
##aret
priori
School
acides
##aris
##ocal
##nter
néglig
signer
volets
souter
Louise
##lian
##uile
##urés
##çage
désesp
##édia
##loge
empire
Associ
Divers
touché
réfrig
déposé
fantas
##raft
étages
Hôtels
##flix
##TEUR
savait
oiseau
blessé
##ghan
##cade
##fred
##ouch
##stan
flotte
interf
hydrau
emblém
soigne
balcon
refusé
témoin
canaux
##rois
##agen
souple
formid
attrac
Roland
##sent
étudie
romain
Enfant
affron
fascin
qualit
amener
promis
exerce
##ayer
Rendez
voyant
musées
##osée
massac
arabes
menées
fermée
##ands
variés
prêtre
fiches
regret
pareil
online
Bourse
incons
Prenez
strict
##isti
mariée
##side
master
résolu
lourds
visuel
rentre
créant
agisse
##anga
Rousse
abrite
rebond
Change
Chacun
fiscal
##anni
##aceu
##ésar
##raux
##ners
courir
aident
Collec
inclut
balade
fausse
stages
##ando
##bach
##ould
##clar
absorb
##érou
##ruis
crimes
##édez
infini
##oney
##osex
relevé
Observ
##rats
##cile
impati
poulet
##QUES
tendre
London
rurale
Marché
tirage
adapte
conçus
paquet
##kina
##cité
##esté
cacher
monast
Vierge
##yons
phosph
##lova
épanou
ferait
Romain
##èler
Galaxy
##omen
podium
orbite
Social
guider
##mina
canapé
réagir
oppose
Museum
Island
debout
légale
##kers
##ocht
instar
retenu
marbre
fermés
##lisé
Avenue
##iges
légiti
attire
opposé
google
##rira
larges
##ella
rattra
noires
jouets
Arnaud
##énie
grandi
rendus
chaise
argile
Samuel
##agré
récits
habite
poster
noctur
placée
##èces
aidera
proble
##mois
exhaus
Suivez
évoqué
annexe
recons
Franck
##adou
commém
##opro
cookie
alarme
Propri
##ring
empris
civils
sévère
##uche
mental
##alet
intéri
orthod
##dule
teneur
charte
ambiti
courbe
##ovis
devint
##wick
##orée
##till
ukrain
métaux
##film
placés
##odge
Territ
chimie
Contre
##fran
atouts
préfet
##anca
cahier
Direct
réunit
expose
##lume
jouant
relief
grains
neutre
##itan
confié
réunis
##oche
Rappel
neutra
alliés
avancé
funéra
symbol
##oler
##ibre
payant
##site
cordes
évolué
##êmes
Equipe
##ural
Interv
##agan
##endi
paille
menuis
crises
##èves
##ogue
Niveau
lourde
##oria
rempla
refuge
Alfred
imposé
Online
serais
guides
##tish
intemp
ensole
##oram
aérien
Global
##ione
##anny
##aton
##gnez
micros
Munich
bouger
##umée
cuisin
débuté
herbes
##ovic
allong
##urez
##oste
répand
drogue
prévus
confie
Écosse
étendu
##cted
##tina
margin
volcan
##geot
Dragon
Chemin
carrés
Parten
Angers
saisie
entité
##hist
concré
Marque
Compos
vagues
##gust
pseudo
##bour
achète
##ynas
Nation
##cuit
##arin
bisous
Temple
gloire
notice
triple
forums
##ENCE
valide
Mettre
##chim
##idon
Vallée
##opie
ventil
formés
boîtes
##gués
savais
épices
latine
##kets
Report
sainte
Edward
basses
system
##phal
##illo
Orches
génial
dépôts
Visite
##tico
##gure
##cala
rendue
violon
revues
indiff
tenues
##osez
iphone
##olée
##uées
robots
Grands
Espagn
##nton
foyers
hésite
rafraî
alphab
verser
métaph
##ados
##ango
##lais
affaib
Autant
Boston
Légion
multic
fortif
##émon
##aron
Straté
##gate
échecs
##uité
cycles
##cium
mettez
##esel
réunir
##tera
carnet
coller
affili
##arel
Carlos
##ract
amuser
trompe
suites
##hard
Déclar
german
##ecue
verrez
onglet
expédi
parait
Racing
XVIIIe
perdue
##lett
Mairie
##èges
System
sugges
racine
taches
##édée
sachez
##dues
##îmes
décors
Arabie
Syndic
##abit
##phém
dissim
vertus
Walter
desque
poèmes
Sylvie
##mblé
##ashi
assass
consci
contam
##isté
##ogen
projec
cibles
##pris
##mons
##asso
goutte
Partie
poussé
crypto
Hotels
pleins
larmes
carbon
gentil
mineur
bouill
tunnel
sexuel
justes
silhou
##onda
épaule
doublé
sauter
Little
pattes
FRANCE
verres
Représ
désinf
chaine
Series
légers
##ipel
Marche
Taylor
urgent
vernis
##acle
Johnny
Pensez
maires
allure
stocks
Manche
indien
##arte
Picard
##kins
hivern
fraude
donnés
##inez
##tape
blanch
##orne
leçons
barres
Golden
Morgan
poches
analog
salons
Œuvres
Garant
##lick
décent
##asis
Nouvel
Marion
##uies
Linked
prolif
imagin
Images
jolies
ongles
Berger
Eugène
##ends
##pins
Maxime
##onna
valoir
Expéri
perles
balles
méconn
organe
résume
chèque
tombée
##iere
goûter
Accomp
auxili
Toulon
assise
salade
##ways
pâtiss
tribun
restes
Castel
suivez
agenda
##AIRE
croise
##nose
ranger
##ruct
Destin
sphère
paraly
brosse
Oxford
latéra
essaye
##uela
manqué
impecc
##mane
Figaro
##guée
câbles
soldat
Cartes
##vise
##oges
mondes
##ouge
##obie
Serbie
August
doutes
##arts
exprim
Gaulle
campus
##ssis
rédigé
Second
##atel
Prague
##tens
saveur
##dité
livret
bouddh
Effect
inquié
gérant
Basket
causer
archev
créent
Egypte
Céline
apparu
##aily
##omer
poivre
Alexis
##ovol
cesser
##inge
##ONNE
revers
réconc
Sortie
Cécile
##wich
nuages
coulis
##érin
viagra
sculpt
Afghan
rouler
Distin
Pièces
##omet
séparé
Ottawa
##tica
##mité
assaut
Droits
##sifs
##irez
##enci
légend
Parall
plaine
##nale
passez
##asie
arrêts
Termin
##mies
licenc
##rake
accrue
mettra
redout
##ults
commod
##vert
Econom
chutes
##pool
##ABLE
##omon
subjec
signée
superp
pompes
brique
interc
brevet
Nicole
autrui
couver
##reux
excent
endorm
faille
Acteur
bloqué
levier
retiré
moelle
Celles
pénale
##apit
Pâques
##ctif
répéti
dirais
chorég
##read
##oyen
Hubert
dédiés
##cose
corpus
##ency
quarts
suppos
formée
abstra
Amiens
Étique
##cker
##arie
perdus
angles
Appare
##ifer
amplit
##avel
##orés
réveil
##èner
Naples
follow
frappé
##outs
##radi
divisé
##lena
##ypse
Libert
planif
Entraî
Besoin
multif
##rano
##ilia
##iane
##rash
vitres
##bons
##mide
Police
roches
ignore
##prud
##IRES
##ritz
##iden
##mens
##appy
##ogie
##rera
centim
billes
##igan
prévoy
Charge
junior
method
animée
##itor
favori
##Book
Devant
Justin
détéri
Silver
##cées
Andrew
##feld
incarn
##mark
muscle
approb
adopte
coupes
##orre
collég
basées
posent
encomb
Champs
Petits
##esth
anneau
dirait
##lons
Altern
Lionel
##rong
Facile
##idal
serons
##fore
résine
sépare
canons
libéré
Chrome
diesel
##ouri
aborde
##vois
Offres
##esis
##list
##fond
nommer
exacte
plates
##ompt
dettes
gardes
Secret
##page
##issa
Transf
décern
##zant
refait
##issé
absent
Sachez
Wilson
Volume
Columb
Outils
Africa
vertes
##aper
Harris
Hautes
##sica
##arly
artéri
##ffes
##ycle
##rang
##îtes
##ESCO
dégage
Jordan
attest
Charte
Accord
voyons
loisir
##cell
##idis
Simple
flèche
Entrée
copier
restée
norvég
Vendée
attiré
##ônes
##itoy
prédic
Franco
tuyaux
visité
déroul
##nets
##ffic
joints
europe
##OTRE
Profil
##aman
marron
##ript
##stad
rectif
lignée
quator
libéra
##ingo
Savoir
avouer
powiat
nostal
##rate
Climat
cambri
##tter
##lock
décont
##quen
Caisse
retomb
##xico
douces
indire
fierté
effici
##dale
##gons
tenait
Certif
activé
élever
ruines
isoler
tantôt
fermes
script
vierge
causés
Marvel
##lica
analys
##star
Connec
##ming
##ëlle
##èdes
prouve
baille
forter
##trer
##essa
Louvre
phares
suivis
Landes
synthé
grotte
pluies
odeurs
##etti
##ffer
##glas
Située
##hire
Health
during
créées
relier
lâcher
confes
coréen
##iaux
plaire
##drez
##émar
fièvre
##ylon
##igné
Points
avérer
Histor
Armand
##amba
##lure
colomb
Search
visent
ambigu
Études
##over
efface
Forces
minier
##émas
inédit
rigide
Instru
Cercle
cousin
Trésor
Resort
##avis
désirs
##orum
Autour
##acht
Beauté
réputé
teinte
Proche
pronos
hameau
##sson
cataly
Miller
##pine
##stom
boules
##acon
dépour
people
UNESCO
Galles
défunt
##aute
reçues
divine
éteint
##dide
irrégu
génère
sûreté
séduit
vraies
genoux
Renaud
##ïdes
##vide
retire
volati
capill
Espèce
passes
##ilée
##ibil
minuit
##breu
gluten
Rapide
belges
##rena
sèches
pérenn
##iron
##olin
##idou
surnom
astuce
##room
sortis
##lieu
Zurich
Bosnie
basque
##olia
Ernest
##lips
chants
Longue
paires
##tère
sprint
rituel
échang
People
##ving
##icon
naître
canada
forcer
##irac
infrar
bruits
Ferdin
Potter
sémant
cirque
fautes
vendue
débord
prêter
Lucien
##Voir
dragon
Traité
Square
arômes
domine
Vosges
Course
posées
##aver
##cycl
##rure
aurons
rachet
##ISON
Vidéos
grippe
bornes
diable
##anas
menant
opérer
##orps
##ulum
Guyane
fondre
Adrien
##ized
bulles
clause
instin
##umés
Gaston
emport
##ablo
Sydney
##atus
anarch
cialis
masses
##otti
remédi
flamme
##teil
terrib
dresse
danser
valent
postal
livrés
fuites
##urch
lampes
affirm
treize
##clus
accuse
madame
natale
rejeté
vignes
##cean
habile
##ober
Impact
marier
devise
##adig
##ouin
cauche
copies
Offici
toiles
cursus
Market
voyait
##ovas
Consid
##ocus
misère
##mest
##tems
##lius
##lign
Single
défilé
sacrée
##holm
##ller
Jacque
##drey
validé
##avie
prenne
##mets
Valley
glisse
facult
chauds
##cass
##SION
disons
buffet
denses
better
##ênes
Expert
abouti
Départ
agrand
allais
##ongo
nettoy
moines
comble
##uils
##olle
Tennis
saumon
primes
##opée
##osés
entame
induit
sodium
évalué
collis
pardon
Régime
##quez
Heures
archiv
Coucou
Anvers
Mettez
##geur
soldes
brûler
saints
##nois
Hitler
Précéd
##alla
géants
Annecy
prouvé
sociét
##adia
credit
anesth
##ulus
coloré
dérive
Frères
bottes
restés
pixels
amazon
éclate
repres
##uset
Budget
aidant
##rone
review
Junior
##irts
Canton
##bury
dévast
congés
Rodrig
##tick
peines
décour
##cord
luttes
propul
confon
number
##awei
Vision
##cies
granit
mépris
achevé
Suivre
##opes
amiral
devais
##ophy
réperc
cellul
##uage
##iera
##atsu
Jamais
##guay
Damien
plugin
##sses
Villes
Gauche
##chel
##etta
escort
oignon
murale
dating
stades
##afil
Agenda
désint
foulée
encycl
impuis
portés
dément
loyers
Simone
Tandis
chalet
##ulli
Steven
##lain
litige
##opol
étroit
##clai
##acée
Modern
cachés
##adal
##uret
initié
défect
donnez
évangé
éprouv
upload
marais
assume
médioc
##tide
Nathan
##cale
allume
abonné
nobles
écarts
##wald
breton
disais
inégal
##vais
Switch
déport
##vens
dosage
détect
animer
répété
guérir
étouff
Import
##olic
généré
##info
aimait
senior
quartz
animés
Annexe
Jersey
motivé
innomb
Spring
##oots
Johann
craint
##dile
ecclés
décoré
Rédigé
##nait
tomate
##ello
poules
Fabien
mariés
ticket
Candid
Howard
précur
##olio
nommés
##sile
Notons
inquie
trader
##rock
affran
situer
Freder
disper
##rief
volley
##alia
nickel
necess
Invent
##acre
Cédric
levure
soigné
##onia
##mund
Toyota
locomo
emmène
housse
inters
##oids
parach
financ
crayon
vivons
lisant
Collab
clarté
multin
Récomp
##rous
##insh
##nais
##ilat
lycées
bloque
fragil
##ilés
Charle
market
excuse
##lete
contex
##date
Housse
chères
##iait
tuiles
clairs
##orio
Plutôt
Passer
engins
##CHAR
Bijoux
transc
Reconn
Active
mélang
Garcia
##tigm
détenu
Séjour
##écéd
rénové
isolée
remède
désolé
##gets
##door
annulé
##last
Soudan
atlant
pulmon
cherch
Audrey
Recomm
##loyd
Invité
Encycl
Battle
##ills
Marina
##izer
repère
isolés
##usée
cachée
cassée
mortes
Ouvert
##ause
##deau
plumes
Philip
fonder
briser
Médias
horlog
pilule
turque
cordon
##inne
rendra
##rion
reflet
guidée
Demain
virage
valise
gammes
Cadeau
byzant
##eder
##bois
##adan
Huawei
##tech
##auty
souten
##ylan
Review
##amen
Gordon
vastes
##eria
maille
abords
menthe
dérivé
Demand
algues
inflig
##beau
croisé
Option
autobi
##tiez
dépose
##oing
Pointe
spécul
Engine
##card
freins
##lots
##oshi
greffe
approp
pertur
##lexe
Spirit
crimin
Dublin
##lave
Nelson
Europa
Parole
##oner
Prépar
##ibus
Calcul
minist
##itra
livrée
States
Fillon
joyeux
vaches
##achi
mènent
ferons
canard
mixtes
##éant
Batman
##cion
aimant
##gnet
danois
sentez
##AGES
##itas
marges
##cing
croyez
mignon
Adidas
##andy
Andrea
achève
##iiii
##veux
octroy
effray
Cancer
##érum
##orra
##ibou
Rwanda
##zzle
##blog
démant
Miguel
douter
##more
violet
Fleurs
##vern
##ppes
blonde
liquid
##elli
##rens
##atra
Matthe
##roll
Indien
tribus
health
##long
Abbaye
##tait
##roie
Buenos
Garden
abordé
Schéma
répète
manoir
##ITES
##orat
##zone
timide
##éran
##fast
fériés
motion
convoi
prieur
Séries
##uary
Conver
##obus
Mexico
Etudes
##azar
mécont
amical
compas
jungle
dominé
plants
Enedis
pilier
préjug
##OUVE
fécond
##erty
Morris
rondes
resser
##anos
region
silice
décryp
plaign
Tarifs
German
##eler
ombres
obscur
fraise
passif
vertéb
chèvre
##wing
Moteur
Benoit
##aner
Energy
##anta
##ourd
Hugues
##arma
copain
##come
copine
##reau
##avas
Donner
encast
piment
venons
exiger
Family
incert
Oliver
subord
escale
##otyp
##havi
inject
Edmond
##èbre
Sicile
alinéa
grasse
prédom
méridi
calmer
cardio
values
plasma
##lait
##ocar
Années
##phon
vienne
##OLOG
Exerci
crèche
menacé
empois
Server
##aska
drones
Essent
averti
cloche
Wilhel
emblée
##aldi
éponge
écoule
icônes
réagit
débits
border
Royale
Parker
Powiat
salope
médico
##jean
Cooper
##lyne
##chin
Rachel
exercé
scores
##nthe
écurie
Papier
fesses
moules
assoup
##diff
Animal
##assa
##bers
dépens
tampon
##oune
strate
Pennsy
forcée
mammif
##chal
##carb
##acha
##lope
infect
défici
métall
##lows
Russes
##ypre
##wart
cabane
marion
timbre
##otée
filets
djihad
Travel
street
##Plus
##mour
venues
##bell
##aing
##etto
Forest
equipe
##onso
##okia
##oker
radios
couler
oscill
poètes
##athe
échoué
plâtre
confin
##oust
Warner
garnis
result
Spider
blogue
recent
supplé
##chot
déchet
##alez
vinyle
Copenh
Airbus
hormis
##amas
##ania
retent
Church
pontif
élites
Viagra
##oder
##ondo
enlevé
Prénom
vocale
##zona
récidi
culmin
parlez
##ryth
##lich
subtil
##œuds
##aven
##ship
##gnon
festiv
Carole
Cookie
##ials
##lins
##licy
slogan
granul
##ANTS
parame
rétros
battus
submer
colons
##ALES
Chaîne
patrie
##mite
custom
amande
Avenir
fixées
foudre
##adio
Carter
##odor
Bassin
Arabes
temper
divise
perçue
##rary
##chis
tirant
buteur
vivait
##jack
testés
Portes
Palace
Chasse
effond
coudre
souche
décida
bougie
##enny
Summer
##lers
Sahara
palier
jouait
mamans
##lice
clique
Nissan
##rign
bambou
##otto
Soirée
Pouvez
guilde
navale
improb
failli
##UITE
glaces
Comics
rompre
##OURS
Affich
Brexit
##mani
##IGNE
redire
Bisous
pureté
danses
incite
Author
Masque
atomes
##erth
##euil
Poitou
Record
##brid
##ANTE
rabais
strong
talons
Entrez
enlève
##rama
aquare
##ever
rocher
##rade
sympas
##untu
##amar
bombes
estamp
Fermer
Finale
microb
verbal
accomm
##roix
##iven
accède
rumeur
##gare
Ouvrir
tumeur
Mitter
Prusse
pulvér
##head
chocol
##look
##ción
Albums
##uyez
Troyes
coûter
modéré
conjon
##odon
Grasse
Meuble
Chirac
Romans
redist
##Tech
banane
débris
chevet
##ucci
##riam
##uyer
Common
##liga
flacon
##IERS
tarder
épargn
##oooo
french
##ctus
Angoul
##oper
pièges
##news
##uzzi
##CHER
dialog
reliés
adorer
Chaise
Étoile
shirts
stands
Meetic
océans
##onté
Amélie
multil
Pleins
repart
auriez
##pres
##fais
##ENTE
Sierra
amenés
enflam
##idés
pentes
plutot
Chance
Québéc
chrome
Bateau
basant
acquit
démons
Bundes
poupée
Campus
##tino
##ired
neuves
déesse
libère
jambon
syrien
déguis
##isph
##jord
mature
##pice
##rium
##ouée
distil
Panama
##arit
séisme
Unique
Indian
gastro
Angela
entamé
vigner
partez
variée
##oués
##ouna
proper
bières
##bant
Chypre
##lied
mesuré
comics
tricot
##idel
savour
##liez
capter
percer
Protoc
amples
##mpor
##Mich
##atem
##yday
lavabo
Allier
recour
équité
##mary
centré
Karine
##cott
hésité
##dorf
enduit
##ogan
##jonc
##tisé
signés
accept
##vine
hébreu
##luer
##èdre
pannes
douane
halluc
photoc
baissé
Aragon
firent
cavité
lancés
##nium
##orez
##clen
rallye
pirate
##ANDE
claque
Combat
allées
##ulez
##appé
search
énoncé
##ined
iTunes
##rial
intrus
##iani
##plan
##rill
pesant
causée
jouera
##timi
##émen
blague
##ishi
Credit
abattu
Trembl
##chid
Breton
ramène
Planet
Sandra
permit
##inae
mienne
actual
Avocat
Hunter
Massif
promul
models
##tini
déplor
##ribe
Sommet
ferais
##agny
##atum
##arrh
Vannes
attray
Donnez
rentré
soeurs
##INES
Mozart
fumées
Girard
##allo
cliché
bagage
Wonder
cibler
Kindle
sucres
Pilote
##vera
##encl
mythes
##gart
meublé
Tahiti
Winter
##cars
durent
milles
##mbab
##dson
Filtre
Moreau
saluer
finira
supers
Trente
##éval
Hassan
immort
crèmes
soyons
Sarthe
##URES
calend
Aperçu
##chio
maitre
ébulli
stéril
##ISSE
nigéri
##erto
pourvu
##pace
Dubois
##kine
Filles
Stanis
réfère
##lule
Bridge
ballet
##akov
##emon
Chargé
prussi
cerner
Emilie
Dessin
##rope
Qualif
##oies
écouté
##itri
##ging
Chante
relati
mouche
##artz
##ENTI
##ichi
tombés
tombes
thèses
Murray
échoue
##rail
clergé
##abre
##ased
Boeing
Garage
invari
savant
ruraux
repéré
penses
Thèmes
##acia
##borg
Plaque
Yougos
bétail
cofond
##rika
Dallas
Verdun
mechan
Notice
camouf
contag
##tint
Walker
espion
vulgar
Friday
mourut
##osis
videos
anéant
démoli
Porter
renvoi
##gang
##chem
Suites
Billet
Arnold
Marais
Dupont
##othy
Mesure
existé
##édés
##rina
reform
Cialis
##self
dermat
Barack
##vues
Gardez
placez
gilets
carbur
Ariane
levant
priver
##atti
##tiés
psycho
##mers
noeuds
villas
yaourt
prêtes
armure
carrée
##ogée
##illi
Austin
Bottes
incarc
##otox
rénale
médium
Julian
surcro
Parfum
Sergio
Merlin
aimons
Saints
manoeu
##mire
datent
##medi
##luie
graine
Durand
##oïde
##LECT
battue
Rocher
##ists
enferm
Terres
random
##ASSE
##iews
boites
captiv
##wear
raisin
égales
aidons
##ival
##oice
##ITRE
parier
dotées
laiton
vitale
cerise
##ussy
Module
Bachel
victor
Wagner
##aser
évitez
décède
Elysée
medium
Taïwan
sachet
##seau
venger
Corine
réanim
aminés
Stefan
Blaise
majest
econom
Loiret
épisté
dignes
Valeur
Statut
Norman
##pour
Peuple
family
##isky
Honoré
sienne
Cheikh
FIGURE
Graham
Player
##ISTE
bonnet
peints
##ègne
chaire
relire
sample
Eiffel
##gins
agneau
coucou
planté
conduc
##down
exclut
##gnac
Rafael
webcam
Colmar
##rame
##guin
Effets
##TIVE
idéaux
reçois
incess
eurent
Ludwig
ressus
##chou
mêlant
restez
Yamaha
##acks
##adir
sourit
ladite
Extéri
tienne
##alin
froids
Carmen
tendue
Queens
##othe
##olib
adidas
##eres
Sèvres
relate
diarrh
##asha
##fric
coupée
bleues
tardif
##aaaa
##harm
détent
##ENNE
##enas
berger
##shop
##ardé
Caméra
ivoire
##laud
congré
Doctor
Parent
gardez
posant
Belles
##atte
redesc
doudou
Bonnet
##zine
##adin
Infant
Procéd
##atta
terrif
Airbnb
confis
##baba
mortel
antiqu
##itud
octroi
unilat
##ders
Xiaomi
Jouets
Raison
prover
entrez
##anoï
##geon
ennuis
##étie
##ICES
Marcus
millés
vaincu
adhère
pleure
frites
##asme
energy
behavi
appuyé
##oide
##ENTS
##bies
nourri
turvoi
wallah
cheumo
genhar
batard
reuché
goléri
goleri
chebou
ienche
ressoi
asmeuk
teucha
rotéca
chemou
chelou
babtou
vénère
iencli
céfran
chéfla
peupon
keubla
feumeu
reusse
fonsdé
deumer
keutru
guedin
reubeu
gueule
scalpa
chanmé
feujui
jusqu´
beuteu
beuher
veugra
keussé
bogoss
reufré
fauché
Cainri
beubon
jeufeu
meugra
##ation
##ction
##ments
##aires
##tique
##tions
##iques
##alité
##ouver
##aient
##ateur
personn
##teurs
##aison
##lique
##érent
##ilité
##ances
##aines
##ables
##ieurs
##uelle
##ature
##antes
##jours
entrepr
##aille
présent
travail
premier
##ouvez
comment
##illes
##ivers
##ident
organis
##ement
##istes
peuvent
princip
##mande
particu
##rique
nouveau
exemple
##ative
service
##sions
qualité
##cteur
##vient
##anger
##iller
##jourd
enfants
pendant
rapport
##oires
permett
trouver
##cture
données
constru
système
##entif
pouvoir
article
dernier
program
prendre
install
compren
souvent
Comment
##illet
souhait
##ierre
##lière
famille
##amais
demande
##istre
##resse
aujourd
##tenir
##ition
société
##ielle
produit
##suite
##gment
##ienne
conseil
##uerre
##rière
##eures
commune
##ières
##ément
respons
culture
surtout
##asion
travers
général
manière
##entes
janvier
##enant
étaient
univers
propose
octobre
##elles
augment
##icile
##mment
##igure
travaux
rencont
##ences
juillet
gestion
##usion
##aître
##ètres
##acité
##mbres
##quent
concern
environ
##nelle
##ision
gratuit
aliment
période
##tient
consomm
origine
ensuite
lorsque
minutes
parfait
clients
semaine
##outer
##ardin
membres
février
##iciel
##phone
##tives
##ibles
##orité
##alent
##ambre
commenc
##ancer
##iance
version
quelque
journée
restaur
process
corresp
##anche
parfois
musique
respect
établis
##rient
domaine
##liers
perform
énergie
##aisse
doivent
financi
##celle
devient
##auche
obtenir
accueil
##onnes
matière
##rence
##orter
##oupes
##agner
cherche
##quant
##cessi
Univers
##indre
Conseil
projets
secteur
##èrent
##gique
##endre
compagn
utilisé
##lèmes
##ignes
anglais
village
##tiers
compris
besoins
##sionn
##iment
cuisine
grandes
identif
analyse
voiture
##ousse
plupart
##âteau
réponse
choisir
plaisir
##ennes
Accueil
individ
couleur
avaient
disposi
intérêt
adresse
excelle
utilise
##ament
édition
moyenne
chambre
##ernet
##illon
confort
tempéra
annonce
terrain
##gence
##avant
immobil
command
contact
acheter
assurer
parents
##venir
contrat
##estiv
sociale
##itter
Afrique
##alisé
devrait
archite
complex
##sembl
##atifs
machine
mesures
##ville
presque
##arité
sociaux
suivant
##quête
##temps
contenu
##rimer
modèles
actions
surface
##naire
##iteur
concent
##onner
municip
réalisé
##ories
changer
soutien
##urant
dessous
joueurs
##lande
devenir
##tière
laisser
##chant
certain
lecture
groupes
##magne
petites
littéra
lumière
entière
réalité
autoris
équipes
message
réseaux
arrivée
##andis
importe
lorsqu'
##urent
journal
##itant
##conde
passage
parties
vitesse
méthode
mission
faisant
cookies
##prise
seconde
dispose
acteurs
maladie
##ruire
##ressi
Jacques
enseign
conserv
démocra
spectac
Charles
##uisse
##credi
puisque
##rance
mariage
##veill
remplac
endroit
support
atteint
##titut
constit
##érant
valeurs
cheveux
risques
pourrez
animaux
##range
##moine
couvert
accessi
appelle
##pital
britann
défense
##limin
##ussie
station
communi
possède
urgence
##tence
naturel
consult
arrière
complet
partage
Bonjour
##bourg
##terie
affaire
continu
##oyage
Lorsque
dossier
##ariat
##ieuse
mémoire
liberté
Aujourd
autonom
hauteur
courant
##ellig
##rages
publics
propres
##forme
instant
contemp
déclaré
chaleur
Windows
##ondre
##oulez
apprent
##seurs
##obile
raisons
Société
réduire
##ister
moderne
extrême
tableau
renouve
##olume
##rasse
##alise
##idité
section
maximum
équilib
##tilis
##anges
ajouter
##assin
##enses
##andes
enquête
Espagne
##crire
Article
favoris
##chent
##itent
absence
élément
##agnos
##intes
##aises
justice
montant
##venue
concept
broyeur
piscine
##rente
effectu
options
appréci
ouvrage
médecin
épisode
serrure
spécial
théâtre
##isant
##ource
##quées
partout
château
##ultés
##glise
##timis
arriver
marques
espèces
dollars
volonté
pouvons
annoncé
Nicolas
fournir
##onnée
##duire
##onses
retrouv
plantes
honneur
compter
sources
conform
durable
proches
échange
artiste
##ortun
niveaux
détails
inscrit
Premier
anciens
composé
Alexand
échelle
pouvait
espaces
célèbre
impossi
diagnos
auteurs
régions
maisons
##onyme
mondial
indique
précise
Londres
mélange
fichier
optimis
##ateau
minimum
##tiens
##issez
Pendant
attaque
hésitez
chanson
experts
Royaume
##asser
magasin
montrer
considé
italien
étoiles
disting
##ATION
Service
##agnes
concert
##terre
Laurent
bientôt
capable
profond
##agers
##raine
##oncer
essayer
entendu
##oulin
##verse
atelier
demandé
réserve
quelqu'
constat
pouvant
##icien
##outes
Personn
lettres
##azine
##résil
revient
passant
faisait
##érale
##isent
##reurs
accéder
recette
ouverte
témoign
pédagog
##tisme
##times
bonheur
envoyer
##illée
##ramme
##icher
perspec
ressent
##dicap
proposé
humaine
##ancée
##oudre
content
artisan
##illez
William
convain
##itime
moments
revenir
patient
contrib
Bernard
interne
mainten
chinois
##adies
marchés
##allée
retourn
##ignon
conduit
Ensuite
##aster
fournit
Culture
##neurs
##cepti
science
langues
mauvais
##iness
##ourir
revenus
institu
logique
veulent
connais
##roits
##veurs
Georges
oublier
simples
##tenus
rejoint
central
capital
recours
locales
réunion
##osité
puisqu'
indiqué
télévis
##aming
centres
##êtres
##alend
##riers
rivière
humains
##avier
comptes
portant
apporte
adultes
fenêtre
heureux
emprunt
##aptis
efforts
compati
Algérie
Twitter
restent
##quipe
hôpital
##asses
reprise
adapter
nourrit
chiffre
obtient
faibles
##tenue
recueil
visiter
##mbler
traiter
##quide
déchets
Richard
théorie
Antoine
passion
arrêter
Chambre
##grédi
transpa
sérieux
##onnés
##aitre
enfance
compéti
blanche
connaît
attribu
limites
##tures
##chées
circuit
##eries
##xique
##usses
moindre
##ution
affiche
##ismes
épreuve
externe
##chage
demeure
##uaire
Android
liquide
légumes
formule
Michael
Olivier
##liste
planète
réalise
douleur
##istan
compréh
##mosph
charges
lecteur
émotion
Journal
retrait
établir
langage
cabinet
pierres
##agram
##ublic
##queur
peintre
classes
##inium
Château
vigueur
offrent
##diens
##rants
chacune
rembour
attente
Nouveau
atmosph
##dique
##ernes
prolong
##agent
métiers
automne
associé
tension
emplois
Patrick
définir
conflit
##enser
solaire
donnent
réforme
implant
Vincent
combien
remarqu
problém
reconnu
quitter
victime
déroule
meubles
termine
##allen
parking
aspects
devenue
Maurice
toiture
##érées
licence
Francis
publiée
Théâtre
vouloir
interro
##crits
voyages
longues
##faits
sympath
##ciers
##illés
globale
##isses
##icité
plateau
variété
charbon
regroup
##mique
mention
donnant
##lerie
##rices
sportif
serveur
##raire
évaluer
déplace
paysage
fiction
##erine
##ésion
mettant
##stant
tourner
fallait
affirme
extrait
##inage
cliquez
hommage
adolesc
limiter
montage
##ottes
appelée
##ouche
Musique
raconte
##itées
reprend
éditeur
##sière
##rains
##itude
##ettes
##éraux
##opath
##èques
Gestion
occuper
troupes
##erver
##amine
erreurs
invités
authent
courage
##orale
collège
##tiles
remplir
##oline
##umeur
##ciens
mettent
Message
##trage
musical
sommeil
étudier
prenant
affront
##monie
banques
médical
##aller
actrice
##ester
Pologne
visites
adaptée
tournée
##igner
simplif
##eroun
moteurs
appeler
amélior
saisons
##lence
positif
##èdent
Nations
traduit
carbone
soldats
rentrée
sourire
##deurs
##iette
mobiles
tournoi
royaume
##marès
##ating
courses
Seconde
cuisson
inverse
descend
toucher
quelles
Tableau
intégré
materne
directe
##ology
rupture
##èvres
feuille
visible
réussir
progrès
cerveau
facteur
superbe
écouter
Normand
##ockey
##urgie
##rolog
voulait
féminin
égalité
opinion
plafond
destiné
offrant
densité
billets
circons
##inter
adjoint
loisirs
salaire
broyage
Général
vendeur
itinéra
optique
##tendu
remerci
terminé
monnaie
retirer
dommage
cadeaux
##estes
##ômage
bureaux
partiel
##autés
camping
##gypte
##orith
sorties
procédé
##onald
séances
anticip
##rench
##ultan
##érité
compose
déclare
##riche
##drait
Acheter
engager
apprend
##lable
siècles
oiseaux
majeure
évoluer
##icale
répondu
Quelles
chances
diplôme
Cliquez
dessins
##riser
##esses
paroles
empêche
prévoit
##cient
million
limitée
équipée
silence
inquiét
Ajouter
députés
##illot
Tunisie
##lisme
astéroï
##tième
évident
##chons
voulais
Mexique
##endie
##abeth
urbaine
influen
facture
##ereur
adaptés
##ilier
##lesse
chômage
couches
##cière
##lette
rentrer
connect
##tible
Contact
finance
immense
poisson
Turquie
essence
guitare
##ueuse
branche
raisonn
normale
##melle
accepte
##itage
convers
##ierry
##érons
##geois
légales
minerai
chevaux
##isées
préfect
Sénégal
session
recense
##lines
maîtres
dépasse
préféré
défaite
##quait
##agées
##iseur
##ingue
ressort
##tenez
dizaine
adopter
Cuisine
bactéri
commiss
##ierge
attendu
##ender
regarde
trading
douceur
secours
fédéral
prépare
##ropri
agences
chirurg
habitat
Commune
rapides
##endar
linguis
Ukraine
imposer
portail
##alien
exercer
préfère
récente
Thierry
##ridge
procure
électro
vieille
##urier
voisins
##cheur
##ifier
portent
disparu
symbole
##drome
##ricol
##uites
##erson
comport
Village
Système
##ience
jardins
passent
assembl
chaînes
gouvern
##sible
forfait
intègre
##arder
graines
interpr
Compagn
détente
milieux
salarié
comprom
pilotes
astuces
Machine
##orial
##cides
mesurer
métrage
attirer
laissez
suivent
chemins
##ogène
avancer
accepté
Angeles
##ommée
##cesse
manquer
Lorsqu'
colonne
perturb
désigne
liaison
graisse
Annexes
##rimés
profils
morceau
##ensif
peuples
violent
crimine
réservé
rendent
Samsung
décider
##oyers
respira
marquée
##oulée
##bonne
magique
##cence
##orama
ferrovi
israéli
pétrole
##uréat
##cules
combats
devront
prévoir
privées
Irlande
pauvres
largeur
publier
##conom
préserv
Archite
galerie
Famille
prétend
##rible
##ctive
roulant
employé
volumes
massage
Anglais
Galerie
Respons
observe
consécu
Express
crédits
##otage
enthous
secrets
leaders
intense
##opsis
YouTube
souffle
##rosse
trouvez
oubliez
inspiré
##cieux
navires
Réunion
pensées
élevage
céleste
comédie
cellule
Exemple
Défense
chargée
profite
Travail
déposer
accords
##manie
fromage
publiés
chauffe
voyager
##domad
éthique
relatif
Justice
Congrès
surpren
##illis
##raphe
modifié
interac
référen
faciles
introdu
obtenus
##estin
forment
##lises
##endes
tailles
sauvage
coucher
faisons
##isode
##oises
infirmi
enlever
Records
##vages
panneau
preuves
hygiène
pousser
imagine
##visor
oreille
partagé
réduite
soutenu
fatigue
##texte
muscles
Gabriel
##atine
##rante
Octobre
garçons
docteur
étrange
typique
légende
express
Rencont
##térie
Princip
##otels
Renault
gardien
appelés
récents
restera
Analyse
##pedia
plaques
horizon
Science
##organ
##otype
##ignée
talents
sachant
définit
##ffici
##aisie
guerres
réparer
##osyst
##inité
citoyen
Réponse
racines
restant
malades
précisé
exprime
marcher
informe
Sarkozy
Atelier
initial
##arque
Excelle
##field
Raymond
ouverts
Janvier
##uster
entrées
Juillet
##zaine
Adresse
##acter
relever
##orent
connait
##right
numéros
Trouvez
ennemis
Chicago
diffusé
nations
actuels
mentale
avancée
remport
##oster
Install
##fique
inconnu
uniques
Orléans
grosses
couvrir
communs
disques
##udios
boutons
##crite
##unior
##outez
aborder
retours
##toire
##aigne
suppose
négatif
étendue
filière
##earch
romaine
Sources
figures
##çants
##tical
##ardez
traités
ampleur
##oyant
Combien
congrès
organes
Couleur
écosyst
pensent
absolue
Étienne
donnera
##onnez
affirmé
édifice
##ageux
marquer
Gratuit
##oléon
majeurs
Blanche
bonjour
Britann
Broyeur
vitrage
abonnés
appuyer
plainte
console
avocats
servent
clôture
clavier
utilité
##ustin
##telle
protège
##inger
Station
##iante
combatt
usagers
Demande
##andre
couples
fiscale
Germain
##celet
excessi
Laisser
Vietnam
anthrop
digital
##éries
##ontan
##velop
##angle
parlent
##lotte
blessés
surpris
prévues
décrire
connues
sortant
##ierie
agressi
voulons
papiers
segment
amateur
##ocèse
retenir
solides
gastron
##arium
##tines
surmont
parcour
##teaux
##tille
##ertes
Parfois
##rimée
##inois
##ignan
joindre
Docteur
##ulant
valable
##itons
sembler
##rents
devriez
ménages
poignée
mineurs
##prits
##tooth
bateaux
refuser
libérer
générer
choisit
##èches
activer
##liser
oeuvres
Mathieu
remonte
##house
trouble
##mbles
Rapport
##euses
boulets
horaire
##venus
##iales
##ients
vulnéra
fidèles
##irent
parquet
##inson
##chron
##cript
apporté
##ufact
spontan
entrain
encadre
Journée
refaire
coopéra
manches
détruit
prendra
rendant
nourrir
refroid
Garonne
accordé
##irant
##éenne
##quier
##prême
##quage
Edition
Antonio
Mohamed
critère
##outch
témoins
##board
Ontario
##ombre
réfléch
paradis
##iture
consent
maillot
préparé
cliquer
##irait
modules
##astre
épargne
##arios
##trait
manager
##nette
filiale
informé
##merie
##rable
between
##mètre
défauts
définie
##quets
##renez
Camille
abandon
##isson
parlant
##court
Enfants
##Press
devenus
##loque
##anner
Utilise
Toronto
menaces
élevées
prouver
notions
##oient
Clément
##ulent
formats
Artisan
##ustes
soirées
Qualité
##olais
##rales
capteur
choisis
##tiste
##luent
observé
colonel
##chait
engagée
scrutin
esprits
réussit
Hongrie
matelas
Trouver
situées
##raits
##lisée
cristal
Surtout
gagnant
antique
Version
engagés
futures
inflamm
accorde
sixième
oxygène
dessert
twitter
établit
Netflix
Command
courtes
Février
masques
##inale
##rètes
dévoile
curieux
##lages
faculté
texture
##neuve
##ussit
horreur
rappelé
inutile
imprimé
##rions
Mission
##emark
Laissez
choisie
diriger
plongée
##aillé
établie
régimes
fournis
Collège
lorsqu’
meurtre
résulte
Philipp
exister
désigné
protégé
drapeau
néglige
Domaine
protest
##tiser
##ciale
##chets
Travaux
signaux
équipés
fortune
rigueur
##table
veiller
offerts
##ançon
correct
##itres
élégant
Zélande
dirigée
passées
indices
##ulées
Digital
Achetez
examens
##leine
révéler
diabète
Norvège
couture
homosex
##versé
souffre
baisser
soigner
##pects
Produit
Etienne
reposer
##ènent
balance
stocker
cinémat
##ineux
classés
##entin
inspire
suggère
##TIONS
Conserv
assurée
##rerie
traject
##quité
élector
caracté
Choisir
##erner
##anson
Johnson
phrases
gravité
##dical
suprême
##athan
ajoutée
ergonom
charger
antenne
églises
servant
##viers
déficit
parrain
pension
mystère
Municip
##oriel
Anthony
##ivern
##éline
College
Données
##lètes
##stres
youtube
saveurs
désagré
planche
tranche
étendre
##isser
##analy
autrich
couteau
virtuel
##ratif
libéral
Burkina
Institu
inclure
##lieue
##iable
##ather
attends
##ander
##venez
##roirs
matrice
exprimé
Premium
##rough
anonyme
vivants
honnête
##diale
Avignon
valider
impacts
calculs
##ights
Support
mettons
espérer
assorti
##chard
grecque
Auguste
##ities
##peaux
Littéra
tomates
sondage
évoquer
##icone
Lettres
Comédie
Society
##encer
##gents
capture
consens
pensais
reprodu
##agère
divorce
##mples
##lions
##light
chargés
autocht
##ensez
récolte
Valérie
diminue
préjudi
hybride
finales
Jackson
##teure
Perform
nombres
##TIQUE
##attle
Formule
confier
Company
##athon
Épisode
fiables
crainte
palette
retenue
##cedes
##ennis
filtres
condamn
requête
##alley
renvoie
Édouard
barrage
Charlie
matches
saurait
relance
précoce
classée
réglage
estimer
##inder
échéant
##aigre
Ajoutez
attache
##ivité
étroite
profité
##iches
Environ
diocèse
##média
glisser
##écile
##aïque
partant
périodi
tempête
pouvais
##nover
robuste
arrivés
##sance
boisson
rejoign
prononc
maîtris
routier
##oubli
désirez
Marguer
transit
investi
décrite
##enter
chapeau
Maisons
windows
English
sincère
variées
Gilbert
spatial
Identif
conclut
##didas
caméras
##échal
suicide
prévent
obtenue
gouttes
réelles
##oques
##astes
séparer
entités
##geant
délégué
##ensés
associe
robinet
##other
fraîche
inoubli
entouré
porteur
assisté
offrons
coloris
Frances
revendi
compact
mensuel
##onces
casinos
##annes
costume
Suivant
Lumière
##aline
distrib
Manager
spectre
rouleau
intérim
matinée
##ambou
vintage
ludique
##onale
##chers
##aissé
assurez
recevez
sentier
Central
Concert
descrip
##pente
##utent
épaules
##techn
Prendre
viendra
dispute
offerte
réhabil
##ommer
Capital
bloquer
suédois
fragile
exposés
annuler
##clerc
attaché
Section
fameuse
femelle
compare
séjours
##onder
Mariage
optimal
connexe
hétérog
##orisé
envoyés
Moselle
Rivière
##oyeur
regards
soumise
opposer
Souvent
Partage
##èbres
##urité
savoirs
arrange
##culer
falloir
tchèque
métabol
débuter
Montage
##vious
vaccins
##orcel
##phine
##aceae
Loisirs
America
emploie
##eball
réussie
cherché
combles
affecté
Stephen
raccour
chanter
##ensée
ramener
posture
sagesse
sortent
rédiger
espoirs
admirer
visuels
Floride
interag
##siers
adoptée
dangers
clichés
Constru
directs
urbains
anxiété
##trice
varient
vitrine
##vance
##stein
exposer
suspend
##point
Communi
bizarre
modeste
##rones
colonie
Mondial
dénonce
tromper
routine
essayez
obtenez
tristes
ajoutez
##ilton
tentent
animale
dépassé
##orian
chaises
assiste
quantit
tiendra
Valence
tactile
touches
Voyages
Obtenez
##ètent
##ionné
diffuse
minière
seniors
exposée
Peugeot
##quons
séduire
repouss
studios
humides
potable
##ceaux
panique
fausses
Athènes
raccord
confond
voisine
Youtube
lourdes
##cuits
ouvrant
boucles
révolte
calcium
discret
Martine
Dernier
défaill
coffret
massive
brigade
détient
##olith
##avage
General
emporte
restait
Dossier
Voiture
##riens
blocage
##urées
nerveux
Bitcoin
blindée
coéquip
estimée
##gènes
##utant
##stems
##miers
statuts
arrêtés
dévoilé
miracle
clandes
repérer
##ailli
Parfait
Cookies
Camping
##randa
##ultes
insiste
Peintre
remplis
auteure
garanti
##attan
courbes
##èvent
textile
rumeurs
Modifié
##tesse
claires
retrans
dignité
estomac
définis
Network
arbitre
épaisse
##ersey
détenus
formant
##apour
##Hotel
##tiend
Quentin
##rines
ouvrier
abonner
Sylvain
##tices
sonores
##ilien
amusant
uniform
réorgan
fournie
dispers
séparés
##ouard
racisme
chaudes
versant
##orant
hésiter
panoram
devoirs
Origine
combler
comparé
collier
marches
##owski
paysans
British
website
Patrice
entrent
vedette
Détails
indirec
vecteur
##iants
Consult
élaboré
coûteux
colline
végétal
grammes
##belle
substra
Conform
##urage
antibio
##senal
rideaux
Présent
##udies
achetez
bagages
échappe
montres
Chinois
notaire
reflète
##homme
châssis
sommets
Chanson
assumer
nuances
portait
collect
Leclerc
##adier
##anais
dérivés
##chain
##niste
Annonce
##roidi
diplômé
camions
impermé
##pping
ouvrent
##zième
Gironde
manteau
##asure
plonger
##ungle
diamant
##érite
Piscine
énormes
affecte
Energie
briques
vivante
Publish
poussée
inciter
Croatie
##ering
##illac
maigrir
passait
bordure
##entre
Franche
Barbara
sexuels
théâtra
prêtres
ajuster
Project
##élect
entoure
casting
##uleux
boîtier
Lambert
##igéri
##aîtra
grandir
##mbour
Semaine
##oxyde
doubles
##lands
pensait
recrute
reliant
découle
contour
sénégal
Finance
Recette
trouvés
Western
pelouse
podcast
marqués
through
Extrait
apports
##agone
##émati
radical
##onges
Ferrari
inviter
calculé
Raphaël
découpe
passera
visages
##riste
entente
Ferrand
##seill
paradox
caution
Academy
délicat
sublime
regardé
coureur
##érone
isolant
exploit
paramét
créatif
##mbert
##agage
terroir
Faculté
aveugle
pensons
combiné
vanille
devrais
##ursus
actives
voulant
##érèse
Limoges
façades
suspect
postale
Pokémon
Bonsoir
partent
couloir
dégager
##lante
frontal
##atite
athlète
Mémoire
Cabinet
suisses
affiché
##ôtres
##oules
étanche
élargir
##orgie
Obtenir
prenons
aboutir
budgets
succède
incarne
occupée
Quelque
##érait
Contenu
Planète
##mette
placard
assurés
monstre
sentent
serpent
inédite
##erait
Habitat
fiscaux
évêques
crochet
##arbon
consoli
chemise
trouvée
démarre
Annuler
##onnet
##views
##adine
##ardes
trophée
Restaur
parlait
Changer
##ressé
écrites
récipro
acquise
envoyée
##ovine
Liberté
premium
battant
##tings
##athie
propice
appétit
peindre
gardant
fitness
control
attaqué
Vatican
couliss
dépense
piliers
Géorgie
lésions
remplie
Program
##ousie
Envoyer
Nigeria
signale
##berry
##copie
dérange
##press
caisses
records
##vette
parfums
##tises
##oplas
##inant
##tigie
croient
weekend
finesse
Poutine
cantons
sombres
Presses
Hôpital
réduits
donnait
perdent
équiper
légères
Classic
engrais
approuv
vidange
##neaux
portion
licenci
##hydra
##eriez
##urity
Pauline
##lysée
cancers
bassins
manuels
secrète
Commiss
##odore
Contrat
tombent
chausse
entrant
coupure
imaginé
inhabit
carross
cession
Édition
Thérèse
Process
##rités
##eront
décorer
civiles
conçues
répéter
Affaire
##erter
##ickel
décline
orienté
gravure
Hérault
Florent
Puisque
##tiver
suscite
##olore
requise
##vente
Anonyme
##aumes
irrépro
##idjan
adressé
séchage
asseoir
tribune
annuels
##aging
##garie
afrique
pirates
##roise
risquer
History
imposée
##ésité
##akers
##vions
départs
procède
Fabrice
touchés
Artiste
##édant
Edouard
binaire
remises
marquis
##icaux
gâteaux
armoire
Petites
Assurez
##stone
##atéri
##quins
##taire
traitée
entends
Options
##craft
concret
horloge
##ilice
bouquet
##wards
combine
##ports
trésors
oignons
maximal
context
platine
Catalog
déconne
adeptes
insérer
diminué
emmener
##raide
baptisé
##ector
étudiés
Surface
évitant
mosquée
##ocide
trajets
baptême
financé
reviend
Animaux
mineure
aimerai
##ulter
réclame
baroque
héroïne
déroulé
frapper
enchant
confère
Méthode
aménagé
vietnam
consist
détourn
impasse
patrons
##illas
bouchon
results
voyance
déposée
##gédie
couvent
Gustave
Augment
booster
##vième
Abraham
Firefox
Circuit
GRATUIT
##olphe
##acien
##gerie
##umage
croiser
signalé
##viève
##under
sortira
ordonné
##ogéné
##risme
planter
inventé
##apest
Reuters
##ingen
vérifié
##acées
Diagnos
Dommage
##gente
marteau
tramway
##opold
potager
quelqu’
rurales
##isons
servira
censure
scanner
émancip
schémas
annexes
prenait
Licence
bourses
effacer
Douglas
résiste
##atisé
résidus
copains
crucial
Lecture
country
##ortez
assises
repères
##icule
##duite
croisés
Concept
##worth
devises
intensi
Abidjan
##wagen
minéral
Essayez
##étrie
##oncés
Islande
Romains
species
##titue
notable
##olles
cascade
bougies
Parking
portées
##ésium
##thers
souches
modifie
Témoign
##aques
##alies
comités
entiers
##tella
hypnose
pasteur
compost
séparée
clocher
##ellés
##ygues
##shire
Impossi
##andro
cercles
##ousin
##élien
galaxie
grandit
parlons
Paradis
appelez
##tenay
obésité
Membres
Passion
Portail
cendres
Hauteur
android
##ierra
product
##ouses
Lorient
suscité
##ocket
résumer
moulins
##ostat
drogues
prudent
##ilipp
avancés
##ignez
placées
##ordre
exécuté
rétract
pencher
vibrant
tutelle
comique
redémar
semelle
pénètre
variant
soudain
##onien
mandats
statues
Secteur
interse
##teuse
Italien
##actif
prévenu
##onent
##érien
##enger
Confort
rayures
##ained
paradig
##iaire
##dière
##acute
fluides
paquets
Stanley
Actrice
homolog
##oussa
puisqu’
##issan
##swick
##tiges
##iscop
évasion
navette
cérémon
##iaque
reviens
##icats
Terrain
pleurer
Essonne
dessine
corromp
chanvre
coussin
Ardèche
minceur
éclaire
apprête
évacuer
Porsche
##iront
Particu
##bihan
toxique
contreb
Chelsea
Tournoi
éponyme
divisée
##leton
Studios
confiée
##grade
##ample
##jihad
gravier
##alons
retenus
cartons
ignorer
Flandre
colorés
faisais
##eling
remplit
quoique
grilles
rythmes
entamer
vaincre
classer
teintes
##uries
défendu
visitez
##cular
pénurie
véranda
ferment
##aïwan
enterré
fantôme
Mercure
##MENTS
##itain
malheur
pleines
balades
renonce
profits
anneaux
méchant
##sives
Control
préhist
##isait
Jupiter
coutume
foncier
limités
figurer
décrits
situent
obligés
##dites
fermées
chasser
##onais
marines
##liens
Bavière
dixième
emprise
relevés
ajoutés
auberge
network
complot
Michèle
délivré
##riere
dénoncé
morales
rénover
Tribune
sanguin
verrons
archive
éprouve
pinceau
##orium
##urale
alertes
##cluse
préavis
torture
##aries
##ignac
dresser
Gallery
intrins
Chantal
alliage
##ether
Grandes
séjourn
##arien
##accio
pointes
##oïdes
vendues
present
##adium
réaffir
prières
demanda
##ortex
Réseaux
glucose
amandes
##oport
étudiée
achetés
époques
##osses
Russell
Jessica
incluse
##lecom
réputée
initier
rappeur
Arrivée
measure
locatif
décerné
Risques
##lisés
##ansas
inspira
##laire
invitée
lancent
Citroën
dédiées
appoint
déploie
ballons
Suzanne
##ocent
##aland
##ensis
##ièmes
Lincoln
##ators
pensant
excuses
torrent
Bouches
malaise
décédée
supprim
appuyez
lanceur
croisée
éloigné
##lodie
Florian
##tieux
éliminé
##anque
viandes
##ronic
flammes
manquez
##clair
fraises
Cologne
Énergie
##orels
##lules
érosion
##oenix
tambour
émerger
touchée
imprime
réunies
tardive
##assés
préface
massifs
##ènera
##usées
##stand
Lauréat
stables
manifes
Soutien
Fashion
##inées
Langues
juniors
élimine
contrer
référer
Sociale
latéral
explore
décisif
déposés
tendent
laïcité
basique
Cahiers
##champ
Recevez
##ompte
conçoit
##orées
##peurs
##ledge
occupés
joueuse
##riels
minutie
spirale
vallées
centrée
jumeaux
lycéens
temples
Maghreb
##évité
##arche
modérée
bitcoin
##arine
grenier
Kennedy
Mélange
retient
##onage
mesurée
Fantasy
affiner
Modèles
Christi
récapit
serment
disputé
arnaque
Métiers
##oncée
vendent
bloquée
##allah
brevets
habiter
Enquête
arrêtée
ancrage
##ython
stricte
adéquat
Plateau
Vintage
##jette
gagnent
rassure
Monique
Yannick
valoris
persécu
Superbe
Bourbon
diffère
opposés
creuser
Pasteur
##inosa
Salomon
analysé
##cades
Séville
##inent
##atuor
##andra
discuté
example
bonbons
Vitesse
députée
suffira
habitué
##ación
##alets
raconté
éternel
conséqu
précède
émettre
parenth
##ropol
Arménie
Baskets
Léonard
poignet
iranien
Philips
apparue
##phées
grimper
suggéré
aboutit
##racle
##quise
Assurer
abordés
##ELLES
Extrême
boitier
lauréat
Masters
envoyez
uploads
batteur
Roberto
pharmac
##ochim
dessiné
Anciens
Fernand
regrett
##erons
présidé
Molière
Projets
Médecin
laissée
éclairé
Bientôt
literie
##olent
déduire
##anine
réactif
provenç
##atory
velours
rituels
antécéd
doubler
Arizona
meeting
##asing
achevée
minimal
exigent
cuisses
Arsenal
scooter
sévères
régular
assujet
##mange
exclure
Crédits
Phoenix
##uxell
laissés
##hélie
##icide
Devenir
conquis
routeur
Leipzig
pallier
calibre
accusés
piloter
Trophée
##stadt
franchi
vérifie
épiscop
répandu
##choir
absurde
mettait
perdues
souples
##Point
##meaux
##orise
Special
offrira
terreur
Wilhelm
ampoule
classif
Légende
renommé
##ophon
empêché
Largeur
climati
portage
##émont
Quimper
Itinéra
expatri
moutons
##ourez
froides
Aurélie
stockés
Sauveur
raisins
Balance
Vilaine
##color
Houston
ordonne
convenu
general
##leroi
##erton
intimes
##coins
##duits
##stall
display
Atlanta
élagage
inertie
suivies
polaire
stopper
tentant
Aveyron
craquer
Cassini
inédits
croyait
croître
Bayonne
encadré
##itait
Matthew
english
berceau
illégal
rebelle
fassent
##iatre
##aïsme
Harvard
Vanessa
adhérer
adverse
##pport
calcule
Episode
déplacé
bascule
##erbro
amicale
Cheveux
##agène
Mélanie
Clinton
Léopold
expédié
Country
triomph
comptez
revivre
Jardins
Massage
##agnac
##estre
Ibrahim
examiné
##force
Abonnez
soulève
plaines
caramel
##endez
servait
##itale
insisté
sauront
changes
##étude
Massach
##assée
rejette
éloigne
##dimen
Alberto
peloton
fatigué
retrace
Réserve
##burgh
##uanie
Éditeur
placent
réguler
survécu
Telecom
##ellow
ineffic
profile
surplus
project
achemin
Thunder
parvenu
compens
fluores
##lavie
périple
clauses
##icium
tiroirs
soucier
échappé
climats
circule
hormone
##rault
aurions
##parez
membran
valises
estimés
contain
Acteurs
prépond
##rassé
poumons
dominic
Collier
metteur
échauff
écraser
esclave
Pascale
capsule
casques
##autes
remèdes
January
civique
visions
diviser
##phtal
##tigny
réflexe
##stock
apaiser
##utées
baskets
renfort
rochers
imparti
romains
charité
fantasy
démarré
retards
écarter
lessive
##érage
verdure
trousse
détruis
Passage
déteste
adhésif
Janeiro
##aking
##actes
élevait
Cherche
rejeter
sentait
##ronne
Bourges
Enfance
rénovée
western
Réforme
October
effects
Systems
pourrai
tumeurs
##ardon
oriente
princes
##plant
leviers
épidémi
autobus
revenue
##ouler
Louvain
préoccu
##lures
studies
systems
refonte
Alberta
idéales
attrait
##titué
pourras
##ental
cessent
##treme
recevra
prénoms
##aquet
Pouvoir
lacunes
##essie
account
reflets
honorer
Neuilly
amiante
battent
carence
Diamond
##lando
##netre
##cepté
Trinité
Presque
Magasin
Herbert
enzymes
Mainten
##nisme
Visitez
dénommé
Deutsch
diction
arrivez
indiens
Connect
aériens
Garnier
ancêtre
##mberg
Bangkok
rendait
##irées
Quelqu'
fumeurs
agrumes
traders
Mayenne
dirigés
##dules
embouch
efforce
perçoit
Corinne
##ollah
##osant
Estonie
donnons
Stewart
chaines
délivre
supposé
meurent
##arius
##ylène
romance
Belfort
isolées
failles
décidée
##elieu
allumer
Moulins
flèches
cahiers
Uruguay
##elins
Archive
Advance
##olite
lithium
concord
mélodie
regorge
Cameron
romanes
##olets
Apprent
hostile
épouser
miroirs
##agues
achever
chevelu
grottes
chèques
##inski
prisons
normand
antagon
##orate
interet
##héran
Corresp
cryptom
##deuse
Roubaix
timbres
Auteurs
Chateau
Picasso
Poisson
paniers
Actions
##anime
##vénie
chapite
colorée
##water
Période
Visites
chariot
##immer
##urait
Bolivie
décidez
Maladie
##neuse
##oundé
##oulou
monture
##tiful
menacée
##oller
annulée
##romes
Appelez
grasses
vampire
##ungen
Couture
roumain
tronçon
déployé
related
toulous
dégradé
##rency
risquez
Automne
##mooth
déplore
motiver
juriste
précédé
Optimis
##ciaux
autisme
##otine
verdict
Ajaccio
emporté
##oshop
trimest
##utter
Tempéra
bruxell
chromos
##quest
ouvrira
dragons
Editeur
pilules
##aring
fondées
brutale
Natural
##cover
##sters
plaçant
Respect
tombeau
Indiana
hémorra
##ommun
opposée
running
deviner
Hermann
##mpson
##acles
dérives
redéfin
##aurus
Vendeur
Seattle
stimule
claquée
Mayotte
##endic
tickets
ordures
Dominic
lavande
maintes
##atier
croyant
Spécial
prédire
passons
cutanée
aisance
piétons
lunaire
##obles
plébisc
foncedé
blédard
trankil
gueudin
cheumou
loucedé
quoiqu´
foncédé
marrant
garetci
crevard
presqu´
lorsqu´
bouffon
cheubou
beuhère
quelqu´
tassepé
miskine
rotteca
chébran
presqu'
reusseu
presqu’
quoiqu'
turevoi
cheulou
puisqu´
quoiqu’
daronne
##ations
##lement
##tement
##tiques
##endant
##nement
fonction
français
##velopp
##ograph
##estion
##ctions
personne
développ
toujours
quelques
##dition
##ateurs
première
##sionne
##amment
##atique
##ration
beaucoup
##ouvent
##ulture
##ologie
nouvelle
produits
##érence
##contre
ensemble
##érieur
histoire
##sement
##itaire
question
possible
##alités
particip
##lément
services
##ention
certains
ailleurs
##anvier
nombreux
##vembre
##tembre
sécurité
##minist
vraiment
##illage
##cembre
novembre
utiliser
décembre
administ
##érique
occasion
externes
##bilité
##aliste
problème
meilleur
##évrier
dernière
##vision
activité
pratique
##tation
##atoire
##atives
pourrait
millions
présente
##gement
##action
##ulaire
commerci
deuxième
nouveaux
création
##quelle
constitu
##rendre
laquelle
intéress
pourquoi
##étique
ministre
solution
national
##cident
contrôle
position
éléments
##termin
François
objectif
présence
articles
##ources
document
scientif
##raient
investis
industri
gratuite
premiers
commande
##uelles
##ection
##titude
##idence
affaires
##asseur
relation
##tition
##itable
détermin
##uation
##ormais
réaliser
internet
efficace
##unicip
Histoire
comporte
connaiss
bénéfici
Français
##issent
##cteurs
compéten
enseigne
Internet
répondre
conseils
##vement
commence
couleurs
publique
##issant
mondiale
générale
semaines
vacances
##charge
certaine
capacité
##raison
décision
##iement
##ension
##ualité
derniers
##quence
##ctures
physique
##ritann
Articles
ancienne
##tivité
##atrice
dimanche
communes
##riques
##ambres
campagne
carrière
explique
résultat
##aliser
##lation
allemand
propriét
commerce
##ailles
##istère
économie
##mettre
quartier
appareil
##ionnat
vendredi
##indows
profiter
matériel
logiciel
parcours
approche
distance
pression
systèmes
##issage
##iction
retrouve
##inaire
##cience
continue
demander
comprend
concerne
##alisme
pourtant
indépend
##rement
chambres
domicile
##tistes
enregist
##ommage
Pourquoi
proposer
Philippe
patients
contexte
##ricité
principe
##alogue
##assage
##alisée
connexes
majorité
Facebook
relative
##olique
##keting
partager
manifest
##nelles
location
Nouvelle
derrière
tendance
Belgique
bâtiment
souhaite
suivante
##resser
logement
prochain
mercredi
concours
##onneur
##orique
##iciels
complète
victoire
##mation
football
familles
##liquez
##oindre
critique
artistes
véhicule
##illons
intellig
utilisés
##istant
agréable
commencé
##illant
##onnées
diverses
protéger
signifie
##inique
contribu
apporter
peinture
province
paiement
##tienne
profonde
méthodes
interpré
recevoir
##seille
attendre
##ataire
##ouleur
quantité
##onique
centrale
##annage
actuelle
utilisée
##dienne
émission
sociétés
identité
capitale
##ologue
souvenir
exercice
Certains
sciences
sociales
##veille
officiel
Montréal
##semble
discours
européen
avantage
modifier
original
consiste
machines
collabor
##alisés
contient
Institut
##inture
garantie
chercher
##iendra
Amérique
##oureux
regarder
longueur
##igneur
domaines
opportun
réponses
présenté
fichiers
##tenant
complexe
démarche
Bretagne
festival
convient
étranger
candidat
critères
##igueur
salariés
##lusion
retraite
scolaire
##ntemps
##licité
aventure
préparer
aéroport
boutique
revanche
Festival
lesquels
écriture
##iciens
accident
apparaît
rappelle
bataille
vérifier
marchand
jeunesse
facteurs
National
passionn
cellules
produire
suivants
##aments
présents
pourront
Bordeaux
batterie
privilég
viennent
terrasse
intérêts
##érapie
ambiance
distribu
##émique
victimes
mentionn
milliers
signific
##ielles
Toulouse
entrepre
recettes
montagne
##iennes
maladies
chapitre
handicap
Première
champion
Quelques
rapports
##dement
##ussion
##ricole
voitures
réalisée
individu
division
déjeuner
##ialité
échanges
feuilles
##adémie
stockage
trouvent
annonces
##ologne
chiffres
organisé
standard
##tières
messages
citoyens
missions
##curité
occident
suscepti
demandes
poursuiv
##aisser
élection
##iverse
##oulant
conduite
violence
##ierres
surprise
##ington
confront
##ellect
mauvaise
secondes
Répondre
Monsieur
employés
éditions
appropri
entendre
##iteurs
matières
médecine
soutenir
aliments
poursuit
gratuits
portable
##rosoft
exemples
##naires
tourisme
naturels
##érapeu
réaction
##atures
attentes
secteurs
ateliers
autorité
épisodes
réussite
seraient
Développ
##itaine
remporte
chocolat
habitude
Pourtant
médecins
##miques
parfaite
espagnol
composée
prennent
inscrire
japonais
##mestre
Provence
##illets
culturel
troubles
Services
fréquent
garantir
reprises
##illers
##aisons
##cevoir
contenus
##tendre
intégrer
auraient
évidence
remettre
effectué
universe
régional
magazine
accepter
humaines
empêcher
installé
##ouvoir
Emmanuel
agricole
écrivain
maîtrise
##lières
dépenses
##ieuses
##tinéra
chansons
##chauff
regroupe
Académie
scénario
ouvrages
ceinture
proposés
##liques
installe
district
contrats
##étaire
semblent
##assade
##mbourg
##istres
diamètre
puissant
résoudre
tribunal
interven
##omique
dialogue
##érable
chantier
religion
Personne
##rières
étudiant
##ardins
Archives
fenêtres
magasins
pouvoirs
primaire
##issait
associés
qualités
##ophone
découvre
##onnier
exprimer
conjoint
dossiers
matériau
maintien
augmente
émotions
préoccup
amoureux
altitude
endroits
versions
conduire
spéciale
rappeler
effectue
renforce
interdit
##ariste
réalisés
Éditions
##itants
lecteurs
mobilité
internau
Sciences
modernes
dommages
analyses
cultures
organise
Frédéric
investir
##ignons
enceinte
existent
montrent
utilisez
bancaire
morceaux
courrier
amateurs
Champion
archives
##urance
artisans
intégral
Californ
##udiant
##onnant
##itions
humanité
villages
##chette
horaires
Beaucoup
clinique
##issons
annuelle
Meilleur
souligne
panneaux
musicale
##érents
confirme
implique
déplacer
internes
faudrait
priorité
défendre
##rénées
thérapeu
consacré
médicale
expliqué
Administ
##erture
applique
interrog
Toujours
pandémie
maximale
chaleure
intitulé
analyser
totalité
différen
sensibil
remporté
observer
##quième
discuter
Pyrénées
procéder
informer
##alence
collecte
extraord
Location
réserver
seigneur
rembours
comparer
monument
attaques
sensible
Dernière
dizaines
Seigneur
paysages
périodes
immeuble
rubrique
algorith
canadien
environs
positive
médaille
particul
Affaires
##onnais
##formes
envisage
##giques
puissent
synthèse
variable
jugement
laissant
poissons
##oriser
Sécurité
##stance
transmis
##ulsion
sportifs
##illère
chanteur
##ensive
prévenir
consulté
sportive
contacts
chapelle
afficher
##commun
##illées
acquérir
richesse
##crimin
##illard
Carrière
apprécié
terrains
Portugal
autonome
##édrale
##outube
républic
Autriche
surfaces
##otique
disposer
##conque
confirmé
incendie
humidité
indiquer
proposée
capables
retrouvé
stations
envelopp
remplacé
Palmarès
journées
atteinte
éliminer
rarement
tableaux
aimerais
Ministre
##rairie
Stéphane
##letter
entraîne
résident
##ernant
associée
Cameroun
attitude
nettoyer
conflits
##ctrice
##astien
successi
origines
Création
anglaise
illustra
énergies
##change
addition
supports
portrait
remarque
Partager
précieux
##raires
musulman
##auvres
business
réchauff
remercie
concerts
terminer
##agiste
douleurs
finances
imaginer
##tenues
cherchez
destinée
tablette
Business
##alette
arrivent
parvenir
préciser
##archie
diversif
##quante
qualifié
épreuves
American
Grenoble
assister
chimique
Fonction
Produits
gourmand
constate
échanger
oreilles
audience
dépasser
Football
adoption
Hollande
diminuer
féminine
##onymes
institut
insuffis
argument
vocation
Occident
inscrits
Allemand
initiale
##érales
##rasser
familial
assassin
auxquels
soutient
Isabelle
empereur
##agerie
contract
harmonie
explorer
##rateur
imprimer
facilité
ambition
##ourner
désigner
##teries
augmenté
##quants
Veuillez
##ateaux
Vendredi
Caroline
réunions
dessinée
parvient
condamné
##itimes
généraux
sexuelle
hospital
##encont
chinoise
adaptées
##cienne
horizont
rapporte
simultan
##ouille
conserve
conforme
localité
lunettes
Ensemble
Baptiste
##umeurs
destinés
hebdomad
sûrement
Dimanche
alliance
##orteur
aérienne
##âteaux
bénéfice
ouvertes
veuillez
##lables
courants
maritime
compteur
##oivent
cliquant
probable
reconnue
voïvodie
journaux
mobilier
##vation
garantit
pourcent
Chapitre
registre
officier
##ernité
##ignant
apparten
échapper
financer
##aissez
provient
Florence
agissait
concepts
provoque
##ranger
lumineux
branches
voudrais
binaires
Profitez
adresses
tournage
Signaler
optimale
Tourisme
finition
##melles
traverse
diffusée
ressorti
inconvén
composés
milliard
boissons
##vergne
##riment
Novembre
##phones
couronne
connecté
calculer
##quette
souligné
##tences
##gences
chaussée
réfugiés
##ortées
##aution
##omètre
médicaux
Économie
##jectif
##iation
métropol
paroisse
Commerce
serrures
##orelle
##intage
comptait
tensions
Benjamin
trouvait
##angers
semblait
incluant
sanction
légitime
##érance
annoncer
pauvreté
attaquer
circuits
effectif
Conseils
escalier
séquence
adhésion
paraître
adresser
récentes
remonter
célèbres
Constant
approxim
rempliss
facebook
##usalem
chrétien
intégrée
##orable
créateur
remplace
##utilis
produite
heureuse
##iettes
vivement
souhaité
masculin
ouvriers
coeffici
épidémie
autorisé
insectes
##ysique
régiment
plombier
Division
Bertrand
salaires
Synopsis
centaine
serveurs
pourriez
instance
retourne
profitez
Lorraine
indésira
Colombie
réserves
Deuxième
favorise
monsieur
spéciaux
##rables
positifs
exécutif
##tilise
##timent
##onnage
calcaire
blanches
constaté
désactiv
africain
recharge
Auvergne
##opping
visibles
##refour
Afficher
passages
hectares
Mercredi
régulier
extraits
##pitaux
##itanie
réservés
héritage
contente
illustre
moyennes
fabriqué
Jeunesse
progress
##onymie
sécurisé
révision
biblioth
agrément
avancées
habitant
##ionner
rotation
syndicat
appuyant
vitamine
##Hôtels
##gation
##aisses
raconter
tournant
cheminée
pourrais
devaient
conclure
##atisme
Fontaine
descente
spatiale
Nathalie
améliore
observée
migrants
Particip
intestin
palestin
existant
témoigne
##amines
cycliste
##isseur
syndrome
relatifs
Alliance
Commande
Magazine
terrible
vitesses
enquêtes
réutilis
##ipédia
polonais
##enseur
fédérale
##prises
acceptez
##obiles
démontre
##ciplin
manières
contenir
diffuser
mutuelle
Concours
variétés
approfon
Clermont
remarqué
musiques
##ignent
policier
##icités
Décembre
##tituer
Nintendo
Question
délicate
Étudiant
##anique
##ropole
acheteur
sections
libertés
incident
##ancier
tiennent
détaillé
attendez
assurant
détruire
électrom
accorder
fabrique
##ricien
équation
##acteur
##tilité
vertical
investig
Monument
minéraux
sauvages
thérapie
Médaille
apprécie
##istent
immédiat
copropri
affirmer
emporter
Napoléon
assurent
cannabis
Utilisez
courante
colonnes
conservé
fixation
Matériel
encontre
procurer
réformes
visuelle
toilette
appliqué
sérieuse
blessure
ajoutant
démarrer
équipage
hôpitaux
corriger
laissent
##idente
linéaire
##arning
##onnent
##crivez
planètes
Danemark
factures
poitrine
##rétion
solaires
revendic
Victoria
Mentions
vieilles
signaler
puissiez
parisien
travaill
scandale
Editions
suspendu
exécuter
résister
##ertain
Economie
disposez
terminée
cohérent
Williams
écologie
précises
détecter
Tribunal
montrant
attribué
référent
lectures
courriel
patience
##verser
##isembl
agissant
##pectre
##rances
##raphie
demandez
##ouvant
immatric
fauteuil
##icales
symboles
musicien
examiner
##ground
plancher
quarante
broyeurs
Chapelle
pilotage
atteints
figurent
fidélité
promesse
renommée
répartis
##ariats
éditeurs
##ombres
apparent
étonnant
##anteau
associer
mélanger
respecte
##oussin
doctorat
##douard
intrigue
formules
lumières
cylindre
coiffure
Finlande
démontré
capteurs
préférés
orienter
francais
certifié
banlieue
Parcours
multipli
Lausanne
invasion
##tibles
ressembl
##rammes
##aniste
fraction
céréales
function
brillant
##chéité
##istéri
Virginie
facilite
##eureux
communal
synchron
Générale
Boutique
rapidité
rassembl
comprise
durables
publiées
dentaire
Finances
constant
concerné
Roumanie
purement
conquête
ressenti
##arités
accueill
partagée
aussitôt
##rienne
##luence
grandeur
aisément
Contrôle
traduire
cuillère
Résultat
##enaire
commandé
porteurs
digitale
##nergie
pompiers
##parent
courtier
célébrer
prononcé
##ticien
uniforme
Vacances
##ignées
##agères
chauffer
consacre
effondre
barrière
poétique
graisses
soulager
végétaux
calories
opinions
##ogènes
reconnus
septième
collègue
##alises
traitant
Scénario
soixante
flexible
élégance
détendre
promette
déguster
réaliste
##rences
planches
cardinal
Jonathan
coupable
majeures
fournies
Logiciel
végétale
procédés
relevant
supporte
##toires
théories
Maritime
##ifique
##cières
mutation
structur
##ueuses
décennie
Bataille
devenant
autorise
vaisseau
sérénité
Valentin
audiovis
exigence
##érieux
inquiète
provoqué
réservée
assiette
Mercedes
protégée
manufact
posséder
vinaigre
##ashion
##ourent
existait
décharge
attentif
vendeurs
négative
négatifs
sentiers
intégrés
souviens
occupent
instants
militant
ruisseau
espérant
athlètes
##istage
terminal
bracelet
déclarer
mondiaux
citation
complets
##athlon
##opédie
Chambres
inscrite
inconnue
regrette
négocier
couvrant
couverts
rajouter
comptent
##oignez
##oriété
validité
protéine
##iterie
rouleaux
intensif
improvis
##yright
enrichir
accordée
soutenue
sessions
invitons
Charente
pantalon
protagon
composer
Communes
##oriale
débutant
synonyme
##uscule
supermar
incluent
éducatif
liquides
##zabeth
interdis
##licopt
manquent
cinquant
Commerci
semestre
##ticité
##ouches
décident
##culine
obstacle
##rasses
rapporté
éventail
minimale
##oudite
mineures
shopping
surement
illustré
apparait
traitées
Research
entraine
protégés
hiérarch
doctrine
vêtement
exclusif
template
survivre
espérons
modifiée
##otypes
académie
##lienne
membrane
attentat
préférée
##orient
##omorph
Centrale
superbes
psychiat
##limard
##loween
trouvant
Laurence
élaborer
Standard
fragment
aviation
##lettes
##azines
approuvé
Comparez
analysis
coureurs
urgences
noblesse
dessiner
extrêmes
entraîné
##rielle
téléchar
obtenues
mémoires
hélicopt
annoncée
estiment
huitième
dénoncer
maturité
##isprud
##rakech
homogène
Bulletin
colonies
urbaines
barbecue
prétexte
biologie
Vladimir
##olaire
parution
Portrait
##viseur
##ouvrir
ajoutent
tranches
Longueur
routière
prélimin
souffrir
franchir
changent
inspirer
##geance
guérison
##versée
inspirée
annuaire
indiqués
Lisbonne
nocturne
contamin
coaching
accroche
##angile
couverte
continué
##itesse
affecter
rentable
##active
littoral
dépenser
rivières
rebelles
définies
dynastie
Parisien
designer
impliqué
sénateur
##orisés
Peinture
marocain
fiscales
colloque
traversé
stimuler
solitude
esclaves
parcelle
##assent
photovol
naviguer
qualifie
Imprimer
extraire
pavillon
vestiges
réglable
patrimon
##ourses
investit
Annuaire
costumes
##insule
intimité
silicone
Pratique
algérien
angoisse
##illent
bombarde
refroidi
renoncer
Aéroport
finalité
feuillet
Matthieu
bulletin
monnaies
trouvera
##oscope
peintres
##diques
Hamilton
##éville
##sibles
Poitiers
Rochelle
Objectif
voudrait
illusion
mythique
##ortier
embauche
Autorité
convainc
recevrez
cohésion
Brigitte
##amorph
réglages
renforcé
équipées
##énager
European
##atican
correcte
##venant
indiquée
imposent
visiteur
décalage
roulants
relancer
Annonces
enchères
Intellig
##heimer
##orisée
arrivant
planning
##ronyme
piscines
Boulogne
justifie
pharmaci
élégante
archipel
Critique
##ousser
reporter
Pakistan
recourir
voyageur
figurant
Ceinture
touchant
Yvelines
affiches
pêcheurs
Recettes
malveill
Réservez
etudiant
opposant
baseball
imposant
escalade
manuelle
variante
mystérie
éclairer
supprimé
rassurer
plateaux
tournois
rétablir
toxiques
indienne
##sières
soumises
##inales
Document
accompli
chargeur
attendue
##ousses
redonner
##lateur
habituel
##queurs
fontaine
Utiliser
consolid
cocktail
italiens
cuisiner
décentra
préférez
Province
réalités
##culent
circuler
##énique
audition
souvient
complété
Besançon
Écrivain
limitées
##inette
Explorer
prolonge
propreté
Giovanni
Remarque
comptant
missionn
surveill
prudence
##uriers
Enregist
appelées
rafraîch
##tresse
Shanghai
interrup
traction
pourvoir
##ocytes
assureur
ancêtres
engagent
Batterie
Montagne
échéance
Syndicat
##allery
Logement
##trages
mariages
risquent
capitaux
révèlent
musicaux
##oncent
##raille
robustes
##atible
Sorbonne
##chable
éventuel
passions
Quartier
Japonais
Républic
regardez
compatri
Augustin
substant
imagerie
faillite
##tember
liaisons
exposées
filières
multiple
charmant
pénétrer
dominant
##adelph
requiert
diplômés
aménagée
Download
sophisti
téléfilm
désastre
##uaires
##veillé
inauguré
tragique
généreux
déménage
appelait
recruter
##érante
natation
Capacité
repartir
inutiles
##arisme
adéquate
##ineuse
héritier
Ancienne
engendre
gigantes
chouette
amélioré
##uniors
diplômes
requises
consomme
prairies
foncière
District
##cieuse
maintenu
pochette
sondages
Dordogne
comédien
classées
attendus
châteaux
paroissi
##dépend
marteaux
##ATIONS
tactique
Istanbul
Mohammed
déroulée
montants
exprimés
prestige
abeilles
compagne
collèges
monstres
pourrons
fragiles
légendes
##rentes
##icatif
lucratif
download
fossiles
##ulteur
découvri
allaient
poussent
Victoire
rechange
croyance
transmet
pétition
fouilles
##resses
déployer
##ctorat
Exemples
##ophile
dévoiler
Juliette
occupant
Machines
innovant
violente
triangle
offertes
gothique
massacre
contacté
éloigner
Derrière
Anderson
Garantie
métrages
learning
Comments
##orment
galeries
cinéaste
##licite
molécule
prostitu
collines
glucides
hauteurs
##aleine
appelant
quatorze
##étisme
prescrit
##luents
##ensées
engagées
libéraux
LinkedIn
Demandez
évidente
évoluent
dérouler
aiguille
voisines
susciter
Activité
pianiste
##ramide
##oriels
Médecine
respecté
Bulgarie
segments
##geoise
libérale
##indres
mentions
hongrois
supposer
##erbaïd
repasser
##alisez
éleveurs
estivale
##linois
ambiante
belgique
##olesté
maréchal
##cherie
devienne
parfaits
craindre
décrites
Varsovie
##usions
##tendue
intenses
##estyle
Solution
relèvent
marathon
restruct
notables
entourée
##itures
marquant
aménager
détresse
moindres
##raines
généalog
carreaux
licences
Vérifiez
Rousseau
##liquer
femelles
Contexte
plaisirs
réveille
cameroun
légèreté
partagés
renvoyer
discrète
interpel
##onance
reproche
horizons
établies
créative
échelles
##contin
minorité
##otechn
Wallonie
##omment
carottes
dentelle
sinistre
admettre
Partagez
##olière
remédier
défaites
facettes
Caraïbes
paisible
combiner
cultiver
Grégoire
pratiqué
##ternel
papillon
imprimés
Hospital
plaintes
Nouveaux
missiles
##utable
Malaisie
contrôlé
Budapest
créatifs
chasseur
Sociétés
plaisant
Regarder
hormones
requêtes
tournées
tournent
observés
mâchoire
antioxyd
Systèmes
Portable
Messages
violents
tragédie
notation
##endeur
##mption
envisagé
illimité
délégués
##avière
commença
Original
##rative
##celles
survenue
##chesse
Michelin
sanguine
concessi
ornement
Mondiale
Jennifer
neuvième
fromages
Bâtiment
égyptien
environn
##illera
reposant
magiques
évoquant
respirer
touchent
cyclisme
biscuits
consoles
réplique
Commence
substrat
Regardez
concrète
créature
probleme
affluent
attribue
acquiert
aquarium
agissent
cristaux
panorama
Palestin
mensonge
##ruguay
##ariens
devenues
conduits
contours
typiques
Marianne
Horaires
Espagnol
ethnique
neurones
Mulhouse
souhaits
roulette
intermin
##ingues
parcouru
couvreur
Localité
agrandir
Patricia
anonymes
refusent
inconnus
délivrer
Pictures
omniprés
##master
faisceau
WhatsApp
Alphonse
modestes
ridicule
aptitude
atypique
Columbia
soutiens
adressée
employée
maitrise
récupéré
écossais
Sandrine
radicale
réclamer
forfaits
##kerque
desquels
essayant
Previous
employer
hybrides
survient
##bourne
ouvrière
aideront
demandée
réalisme
Johannes
détruite
informés
étranges
logiques
##atiser
palmarès
##Script
évoluant
orientée
dressing
##ocrate
imposées
saoudite
habiller
exigeant
vitrerie
##opathe
attacher
statique
##venues
Kinshasa
astrolog
cuisines
détaille
aimerait
##zation
manœuvre
comprimé
disparue
Delphine
acceptée
latérale
tutoriel
disputer
entraide
préparés
##celets
##allois
##ariser
passager
affectés
stockées
criminel
Bouygues
édifices
gagnants
Electric
Régional
comptoir
Couronne
capturer
finement
antennes
moniteur
prématur
médiéval
supervis
arrivera
Morbihan
répandue
épicerie
Campagne
##ranium
Mathilde
semblant
surnommé
##ciales
Picardie
fraîches
Hambourg
Santiago
cabinets
##érants
Couleurs
spacieux
réservez
Nanterre
récolter
habitués
Vraiment
souffert
Ateliers
gameplay
ancestra
fracture
convenir
Mémoires
vignoble
génocide
##covery
plafonds
pistolet
normales
Lumières
prophète
prolongé
séparées
##iments
localisé
Journées
adorable
douzaine
supprime
promener
optiques
manquait
##onomie
Registre
##motion
gardiens
Illinois
triomphe
compacte
##estern
émergent
Problème
prononce
inventer
##éroïde
Derniers
acquises
Voltaire
construc
éphémère
##itales
aperçoit
##enberg
habitats
##riture
##itudes
concrets
##MATION
recouvre
alimenté
##châtel
allusion
remontée
Mountain
possédez
débarque
immunité
##champs
bouclier
limitant
cristall
Antilles
Fernando
préférer
Universe
atténuer
bouillon
marquage
tunisien
Lunettes
récupère
radicaux
touchées
##mirats
calculée
##akespe
##aville
couvrent
argentin
justesse
amovible
Européen
animales
poignées
tatouage
trilogie
##queuse
critiqué
##oriste
maternel
vitalité
pluridis
méritent
##terres
solidité
Cambodge
##odique
violonce
pittores
##cision
Airlines
##difier
retourné
ampoules
venaient
avisVoir
##onçant
poubelle
Salvador
Fribourg
formelle
##ecture
managers
##onnaie
racheter
Giuseppe
exploité
##roïdes
pensions
filiales
##vettes
##ressif
rattaché
armement
##assium
cheville
exploser
attachés
##erence
Michigan
reposent
##isante
nordique
sommaire
##rantes
ralentir
cambriol
entrepôt
monopole
##uleuse
##quance
brancher
résidant
profonds
freinage
oriental
garantis
Michelle
ludiques
interval
lyonnais
chômeurs
patiente
survenir
absorber
choisies
bordeaux
##quoise
Agricole
arrosage
Robinson
Bracelet
colonial
Scientif
encombre
déclarée
##mental
##landes
Software
fabuleux
granulés
invitent
lauréats
thriller
##allage
Apprenez
textiles
répondit
arrivait
arrivées
##veyron
familier
corporel
desserts
Gratuite
Colorado
alphabet
désordre
Principe
négliger
##isants
blindage
mystique
quittent
##aigner
haricots
##cutive
directes
éteindre
##çaient
colorées
virtuels
décisive
étudiées
##lvanie
dentiste
##oriage
émetteur
exprimée
danseurs
Empereur
diamants
attraper
##ièrent
suédoise
remorque
jonction
prévient
routiers
bannière
atomique
érection
##iables
virement
préjugés
inspirés
capsules
bénévole
##idents
couteaux
##tivity
##orting
barrages
##ission
lointain
dénicher
empathie
incarner
évoquent
professe
November
exploite
déposées
opposent
Citation
Lawrence
Calvados
contrast
trahison
formuler
craintes
diffusés
discount
féminins
##pation
##atment
dématéri
Distance
insuline
commenté
##ionnés
persiste
sandwich
comparez
consider
tourment
baignade
conteste
illégale
##olaise
consommé
Officiel
##illots
Réponses
découper
Capitale
##arritz
Marshall
exercent
##ériens
affichés
Courrier
Position
##raphes
courtois
réacteur
communic
déshydra
Matériau
modifiés
##otherm
recevant
coréenne
vitrages
commente
Indépend
immigrés
research
imprimée
immenses
implanté
apportée
accélère
insolite
specific
cérébral
disparus
chargées
postuler
basculer
mystères
unitaire
confiant
facultés
##nettes
attachée
abstrait
crédible
Terrasse
Rivières
##lisées
##aureau
laitiers
sanguins
chauffée
vecteurs
##ticule
incluses
claviers
Entrepre
maquette
cannelle
commémor
##usetts
coutumes
paradoxe
marquées
##tillon
strictes
projeter
##mètres
##écaire
condamne
massages
Security
##telles
##éennes
souscrit
fourrure
##ulence
Beaumont
Béatrice
inédites
antiques
vérifiez
textures
impérial
soucieux
dramatur
##aspora
trouvons
justifié
adjointe
doublure
théorème
##oureur
baguette
syrienne
Chartres
entrevue
Officier
minérale
involont
décroche
Beauvais
pionnier
##orpion
acceptés
galaxies
anonymat
Occasion
handball
comparée
##ompson
envoyant
enseigné
##agogue
coussins
##chimie
Pantalon
##yrouth
Vaucluse
baptisée
Paiement
GRATUITE
pénitent
fissures
soulever
##illade
digestif
##adelle
bretonne
##nalité
Modifier
##ionnée
trouvées
préparée
envoyées
estimant
oublions
Biarritz
mélanges
Physique
Franklin
##ortium
##érente
défenses
##aparte
guerrier
Religion
##mettez
surcroît
retenues
bouchons
consigne
bilingue
Premiers
analyste
Ardennes
couloirs
##verses
désignée
Beyrouth
attirent
Sommaire
semences
broderie
désignés
exerçant
réinvent
Margaret
demeurer
Imaginez
moelleux
apéritif
californ
valables
Lituanie
désireux
oreiller
indispon
adaptent
##vaille
coquille
traitent
Plombier
Thompson
artifice
annoncés
lingerie
##anisme
ténèbres
Creative
agressif
pyramide
prospect
demandés
reproduc
emprunté
disposés
écrivant
##oliday
December
inaccept
Chambéry
bailleur
Préparez
horrible
sourcils
parleurs
sorcière
Artistes
anomalie
rebaptis
infectie
éthiques
mexicain
excédent
banquier
fantômes
Brooklyn
étagères
subsiste
réfléchi
contrefa
prostate
##nesota
programm
drapeaux
laissera
expresse
instinct
débarras
plaindre
Aventure
débattre
placards
Réaliser
résilier
dépanner
##ressez
guitares
affectée
éloignés
Libellés
accroché
permette
Campbell
soutenus
##lysées
prétendu
Publique
félicite
Souvenir
Distribu
Préparer
##actéri
palettes
souriant
software
éligible
Fontenay
débouche
Limousin
building
humilité
converti
##ophage
marqueur
##ampton
abattage
habitent
biblique
##oudrez
Cyclisme
exotique
##oucher
caillera
##alement
également
différent
plusieurs
##ication
##olution
personnes
##érences
##osition
##ération
notamment
##ditions
recherche
##ception
politique
rencontre
représent
##ression
##illeurs
##pendant
formation
président
##oration
##lection
##isation
##abilité
##vention
seulement
septembre
##agement
##mission
nouvelles
##itation
situation
##tection
important
française
programme
##atiques
sélection
résultats
activités
##duction
##ulation
##actéris
intérieur
technique
Naissance
##usement
certaines
nationale
questions
transport
##iennent
processus
##itaires
découvrir
tradition
américain
travaille
##istance
problèmes
##érieure
direction
meilleure
personnel
##nements
transform
Cependant
difficile
##ublique
##charger
permettre
meilleurs
mouvement
référence
recommand
habitants
##ronique
##sements
ouverture
confiance
##uration
##estival
##ational
désormais
troisième
dernières
exception
opération
##ination
structure
attention
solutions
retrouver
##llement
entretien
longtemps
##ouverte
directeur
pratiques
assurance
évolution
##ciences
extérieur
téléphone
quotidien
premières
cependant
améliorer
proximité
puissance
##ootball
contraire
Allemagne
numérique
##ologies
accompagn
relations
véritable
principal
compagnie
##chement
souhaitez
##astique
fournisse
fonctionn
##demment
supérieur
##ocation
classique
découvert
connaître
condition
étudiants
chauffage
##ilosoph
catégorie
industrie
éducation
militaire
livraison
##ibilité
##quences
contacter
effectuer
objectifs
stratégie
caractère
documents
commencer
serrurier
apprendre
fonctions
atteindre
événement
présenter
immédiate
prochaine
##semblée
élections
naissance
##actions
installer
philosoph
davantage
##anmoins
contempor
propriété
continuer
Découvrez
##tements
milliards
excellent
avantages
matériaux
réduction
utilisant
populaire
ministère
permettra
toutefois
Président
appareils
indispens
largement
##onction
##atoires
##othèque
communaut
influence
constitue
promotion
##inement
##ériques
essentiel
##iration
##onsieur
##ualités
trouverez
tellement
réglement
existence
augmenter
autorités
##ataires
##istique
##gements
marketing
Marseille
véhicules
##ordeaux
##cemment
construit
participe
naturelle
dynamique
spectacle
##rétaire
##uxelles
suivantes
procédure
considéra
précédent
fondament
consulter
Toutefois
##inaires
fortement
Bruxelles
multiples
diffusion
##aissent
progressi
##landais
##ulaires
expliquer
renseigne
réception
récemment
##cession
originale
rejoindre
vêtements
##tivités
Plusieurs
Politique
##diction
publiques
résidence
réflexion
##ommande
candidats
sentiment
actualité
##étiques
possibles
considéré
dépannage
Christoph
organisme
forcément
##illages
bâtiments
logiciels
Assemblée
maintenir
##blement
équilibre
développé
intermédi
visiteurs
printemps
##atrième
collectif
juridique
potentiel
sanitaire
utilisées
connexion
plastique
##bilités
nettoyage
organiser
territori
dimension
##culaire
##stances
phénomène
faciliter
transfert
respecter
animation
confident
critiques
capacités
logements
intellect
autonomie
infrastru
remplacer
isolation
individus
voyageurs
nécessité
expertise
lendemain
règlement
proposons
appliquer
renforcer
##érieurs
quatrième
exclusive
##itement
principes
Christian
développe
reprendre
parlement
nécessite
thermique
##iterran
décisions
néanmoins
conserver
rédaction
devraient
exigences
exécution
allemande
extension
financier
merveille
Rencontre
##êtement
##uminium
intention
accueille
précision
Australie
##conomie
Microsoft
lancement
Recherche
commandes
graphique
diversité
mécanique
étrangers
##utation
proposent
Parlement
Guillaume
contenant
centaines
##ruption
Alexandre
fermeture
##ommages
##ionnats
européens
utilisent
continent
bénéficie
physiques
##ussions
##ilation
présentes
Formation
##alisées
publicité
participé
interface
ressemble
agricoles
histoires
fréquence
religieux
émissions
aluminium
fabricant
récupérer
##rations
symptômes
chaudière
frontière
inférieur
##oureuse
intéresse
anciennes
monuments
##èlement
grossesse
familiale
##ènement
travaillé
relatives
##ouleurs
Directeur
##pellier
favoriser
##visions
##idation
Certaines
chronique
clientèle
générales
télévisée
supprimer
signature
justement
Attention
quartiers
Résultats
considère
exercices
##astroph
contrôler
éclairage
italienne
Néanmoins
hypothèse
fondateur
attendant
Fondation
économies
Retrouvez
##cesseur
##ativité
efficaces
nucléaire
organisée
complexes
constitué
tendances
catalogue
Direction
souvenirs
Catherine
similaire
régionale
##ographe
cérémonie
interview
scolaires
Dominique
provenant
autrement
préalable
##veiller
streaming
capitaine
Instagram
entraîner
municipal
##entions
conseille
rencontré
permanent
Transport
connecter
##cidents
##onniers
parallèle
protéines
retourner
réalisées
dangereux
proposées
modalités
##titudes
collègues
constater
Nationale
ambassade
sensation
##ologues
employeur
satisfait
Livraison
titulaire
Normandie
##érateur
apparence
Sélection
Barcelone
compléter
démarches
Programme
assemblée
##oliques
épaisseur
apprécier
##atrices
##ciation
ingénieur
chimiques
présentée
nationaux
constante
intensité
stabilité
commerces
variables
positions
optimiser
préserver
rendement
cinquième
proposant
##asseurs
emballage
opérateur
campagnes
tentative
encourage
montagnes
##rection
pharmacie
fondation
régulière
mécanisme
##jection
trimestre
conseillé
Référence
contribue
distingue
##alestin
compliqué
présentés
réactions
randonnée
alentours
protocole
##alistes
favorable
nutrition
quasiment
affichage
Ministère
##allenge
##issante
discrimin
##pection
réfléchir
musulmans
découvrez
violences
Française
##feuille
##ulteurs
##quement
concernés
orchestre
évènement
olympique
ministres
créations
##obilier
provoquer
pollution
sensibles
bouteille
remarquer
##isement
cimetière
##icielle
aventures
ordinaire
Sébastien
identique
musiciens
##ensions
confirmer
décennies
policiers
commander
instantan
matériels
##ophones
habitudes
Contactez
##lusions
##ections
Bienvenue
##versité
plomberie
rassemble
réservoir
disposent
vainqueur
chanteuse
Actualité
infection
japonaise
##ulateur
comprends
pratiquer
##visible
aériennes
victoires
envisager
pouvaient
mauvaises
touristes
spéciales
champions
théorique
assistant
utilisons
bénéfices
africaine
chrétiens
effectuée
vingtaine
passagers
Bourgogne
contactez
poursuite
garanties
Education
##onnerie
actuelles
espagnole
nettement
gratuites
détaillée
##uations
affronter
comptable
détection
intéressé
introduit
fabriquer
culturels
qualifiés
Septembre
possèdent
consacrée
connaitre
vaisselle
peintures
Compagnie
sportives
cardiaque
expansion
prochains
satisfais
Intérieur
##étaires
résistant
étrangère
génétique
reconnaît
syndicats
Nouvelles
boutiques
installés
chirurgie
franchise
##orption
justifier
attendent
militants
Permalien
démarrage
Christine
demandent
québécois
obtention
dirigeant
##chester
blessures
concevoir
Argentine
##ownload
##alogues
historien
installée
##aissant
carburant
consultez
insertion
accidents
puissante
contraint
partielle
bénévoles
manifeste
consommer
##èvement
##antaine
entourage
##version
Francisco
autrefois
combattre
rangement
##intendo
Consultez
fiabilité
associées
contribué
amoureuse
toilettes
Marketing
virtuelle
citoyenne
##Advisor
##rologie
##ardinal
compromis
approches
chercheur
multitude
bactéries
cherchent
résidents
occasions
Aquitaine
Entretien
princesse
suffisant
centrales
souhaiter
Jérusalem
librement
bienvenue
urbanisme
quantités
##alition
supporter
allemands
compagnon
effectués
Françoise
chantiers
mentionné
remercier
interromp
Assurance
interlocu
cliniques
##cidence
autoroute
##tinence
##autique
##issance
souligner
Charlotte
Éducation
poussière
##tration
destinées
islamique
universel
officiels
##sterdam
bancaires
électeurs
accueilli
sanctions
##station
arguments
explosion
contrôles
satellite
variation
officiers
##oniques
##raction
deviendra
substance
endémique
##lations
Wikipédia
Champions
bienfaits
Amsterdam
appliquée
ressource
régionaux
cohérence
solidaire
africains
WordPress
##agascar
Vainqueur
émergence
##matique
obstacles
##olation
répondent
##ussitôt
Champagne
Troisième
batteries
surprises
extrémité
injection
accélérer
recyclage
doucement
enveloppe
délicieux
abandonné
##équilib
##onnière
traverser
##ularité
maîtriser
Activités
approfond
interroge
trentaine
Pacifique
attaquant
exploiter
molécules
Mouvement
lentement
locataire
terrestre
créateurs
acheteurs
démontrer
organique
puissants
générique
indiquant
adhérents
existants
consacrer
##léments
céramique
##akistan
accomplir
composant
identifié
convaincu
promenade
Téléphone
remporter
apportent
Chevalier
placement
##tension
provinces
##ouement
répondant
faisaient
prévision
originaux
boulevard
baignoire
parcourir
curiosité
Situation
scénarios
##opathie
astéroïde
effectifs
immeubles
enceintes
##rairies
déterminé
organisés
cinquante
détention
##icateur
métropole
approprié
intitulée
partisans
fabriqués
défenseur
médicales
pharmaceu
bourgeois
étiquette
##olition
traversée
exclusion
Bluetooth
##quettes
chevalier
indiquent
paiements
Contacter
standards
passionné
orientale
connectés
sculpture
##struire
different
déroulant
confusion
séminaire
animateur
##pective
affection
Allemands
##rouille
retrouvez
Catégorie
partagent
ensembles
hautement
chauffeur
challenge
sexuelles
##écurité
##omiques
ressentir
empreinte
demandant
primaires
reportage
contraste
coalition
qualifier
priorités
reçoivent
monastère
procureur
étudiante
automatis
distances
lumineuse
démocrate
Madeleine
soumettre
tablettes
locations
Autrement
accroître
##onnaire
##ilières
##resseur
##anciers
Alexander
incidence
poursuivi
##ensible
##émiques
éventuels
portugais
vitamines
inflation
monétaire
fréquente
démission
offensive
##ization
chapitres
Industrie
dépendant
vraisembl
interdite
passeport
alimenter
écrivains
autorisés
descendre
portraits
Meilleure
##pecteur
atteintes
communale
conscient
quinzaine
carrelage
antérieur
séquences
mâchoires
abordable
instances
##Station
faiblesse
portables
périmètre
débutants
Thaïlande
nouveauté
partition
Questions
##donésie
Seulement
composent
valoriser
concentré
disposant
convertir
##ability
invention
semblable
migration
spirituel
attentats
violation
médiation
transvers
Technique
recherché
complètes
librairie
Ouverture
impliqués
regardant
intégrale
fiscalité
notoriété
croyances
isolement
appellent
reconstru
réguliers
électoral
résultant
##ivement
directive
##ovation
paramètre
profondes
##mettent
camarades
##velines
Interview
marchands
christian
chasseurs
croissant
souverain
intégrité
polémique
pressions
hydrogène
promesses
restaurer
bricolage
concentre
cylindres
effective
Institute
modernité
##viation
tolérance
maintient
chaussure
##alisant
rapproche
##iscines
invisible
aléatoire
croisière
pédagogie
tranquill
##tigieux
positives
##ométrie
attendait
fraîcheur
Pinterest
masculine
Hollywood
Continuer
Gallimard
##étrique
consensus
tribunaux
religions
ascenseur
cigarette
Métropole
##ablanca
manuscrit
envergure
musicales
##eration
Désormais
incapable
agression
dépistage
Elizabeth
mortalité
mobiliser
##chettes
##endance
ambitions
Occitanie
ascension
ambitieux
verticale
vaisseaux
Solutions
artisanat
impulsion
apparente
Cambridge
bénéficié
##actique
Indonésie
prolonger
préfèrent
##érentes
##autions
souscrire
##otiques
admission
intégrant
détriment
certitude
Excellent
enseigner
citations
##tisseur
variantes
détermine
cherchant
festivals
Meilleurs
souffrant
sécurisée
Serrurier
##ancourt
dominante
sécuriser
rédacteur
##athèque
souplesse
asiatique
espérance
Relations
qualifiée
dépendent
restreint
Palestine
bénéfique
##ticiens
Philosoph
idéologie
agréables
limitroph
Dépannage
##isateur
Ingénieur
végétales
créatures
sexualité
richesses
brésilien
Règlement
##veilles
##tissent
jurisprud
confronté
possédant
Marrakech
impériale
##ogramme
amplitude
##istante
pertinent
##aliment
autorisée
Pharmacie
polonaise
terrasses
disparaît
Challenge
médailles
anticiper
répertori
attribuer
prononcer
médiévale
Olympique
##onneurs
implément
charpente
construis
maternité
vigilance
##onnaise
##inateur
Antiquité
produites
Découvrir
remarques
mondiales
radiateur
barrières
Collectif
Canadiens
##ionnage
couvercle
##animité
magazines
##iscount
géométrie
Rappelons
suffrages
carrières
Singapour
transféré
musulmane
incidents
mutations
inclusion
consignes
Halloween
immersion
collecter
renforcée
interdire
Assistant
##illères
négatives
préjudice
courantes
fréquents
approcher
élastique
Évolution
déroulent
souffrent
illustrer
sculpteur
Connexion
candidate
incontest
Chauffage
compétent
dynamisme
gentilles
contrepar
irlandais
indemnité
##ordogne
retrouvés
##stanbul
Stratégie
fondement
maîtresse
solitaire
Printemps
Véronique
conformes
concrètes
mentionne
Elisabeth
équitable
compenser
##isseurs
##ocratie
prétendre
diagnosti
demeurent
manipuler
autonomes
##mettant
Commenter
araignées
Vêtements
unanimité
retraites
divisions
Copyright
Élections
ministéri
Structure
prototype
apportant
##issages
impératif
interprét
Inscrivez
concernée
Orchestre
téléspect
sauvetage
##alettes
##gnation
escaliers
coloniale
impliquer
##ophonie
##agramme
Evolution
esclavage
Carrefour
surmonter
Venezuela
Publicité
##ictures
polyester
##angerie
péninsule
retrouvée
indicatif
disciplin
tristesse
casserole
Urbanisme
##ratoire
ressortir
scolarité
Languedoc
versement
##érément
récepteur
prolongée
précisant
##jectifs
définitif
proposera
précieuse
finissent
rappelant
emprunter
Ferdinand
Stéphanie
Apprendre
wikipedia
aéroports
carrefour
Perpignan
##travail
marocaine
réduisant
Consulter
finitions
Librairie
##alisent
##igneurs
##ternité
cassation
convivial
##tissant
théologie
confirmée
##raisons
connectée
abondance
israélien
##timents
déception
distribué
abandonne
déroulera
interdits
percevoir
excessive
lentilles
Animation
Catalogue
remplacée
##aissait
attendais
##arienne
affirment
innovants
voisinage
Friedrich
##amation
augmentée
inspirant
##copique
bienveill
##issants
contenter
Nettoyage
fragments
bataillon
contrôlée
entrepris
équilibré
maritimes
formateur
commenter
explicite
endurance
Promotion
orthodoxe
brillante
enseignes
attribuée
apportées
Européens
Ambassade
champagne
innovante
Geneviève
Francfort
longueurs
opposants
##ilience
##ography
carrément
policière
aiguilles
canadiens
localiser
Personnel
améliorée
protégées
cavalerie
prestigie
accrocher
Calédonie
Opération
affirmant
parcelles
réveiller
Américain
cauchemar
Fabricant
familiaux
sollicité
certifiés
parisiens
##quaient
##énavant
consacrés
apprenant
équations
planifier
confondre
voulaient
Résidence
incompréh
reconnues
##agistes
##ictions
reprenant
Chronique
dictature
dialogues
Catalogne
réparties
##ducteur
chinoises
singulier
délicates
authentif
Rédaction
##rateurs
Tradition
Toponymie
Vancouver
conservés
reviendra
comptabil
culinaire
##érosité
aquatique
assassiné
sacrifice
##venture
détachées
registres
Liverpool
préférées
décrocher
quiconque
##bellion
conduites
autoriser
Streaming
Numérique
Analytics
##orelles
annuelles
grammaire
signifier
judicieux
##ciennes
##rissage
sérieuses
observées
privilège
intégrées
criminels
jardinage
fantaisie
Isolation
témoigner
condamnés
retraités
gravement
créatrice
prenantes
contextes
mannequin
existante
psychique
comporter
cardiovas
profitent
comprimés
minimiser
réalisent
apportera
recouvert
conservée
avènement
océanique
réalisant
botanique
appréciée
##inshasa
collabore
##icienne
parasites
Stockholm
Alexandra
refroidir
expriment
Précédent
influencé
batailles
Brunswick
détaillés
élévation
Supprimer
distincts
rétention
commencez
déclenche
métamorph
Alzheimer
seigneurs
Puissance
incendies
subissent
prospects
Difficile
entourent
coulisses
composées
desservie
détecteur
annoncent
déboucher
Finistère
Élisabeth
décideurs
##sionnel
disciples
Maritimes
chanteurs
arbitrage
##achette
spacieuse
féministe
disposons
occupants
entretenu
Francesco
désinfect
mathémati
attitudes
gendarmes
##osphère
engendrer
précarité
##vidence
débloquer
renouveau
##métique
anomalies
Boulevard
rigoureux
rubriques
character
accordent
Universal
narration
fermement
infirmier
synonymes
typologie
##égovine
féminines
##ophobie
##ancière
affichent
éducative
appliqués
localités
repousser
inquiéter
acceptent
rattraper
comprises
tendresse
##staller
profitant
##lements
corrosion
Rejoignez
Capitaine
dentaires
##aristes
souhaitée
demandons
stagiaire
indigènes
Véritable
suspendre
Avantages
anticorps
magnésium
Représent
composite
##riculum
attributs
pourrions
##lenchon
possédait
##isserie
éternelle
inattendu
demandait
expulsion
magnitude
Personnes
##oussins
kilomètre
fabriquée
Documents
espagnols
intuition
charmante
narrateur
##pendent
sénateurs
comédiens
réconfort
serviette
monarchie
munitions
roulement
confrères
##illants
digestion
soignants
demandeur
floraison
remboursé
regrouper
cuillères
remplacés
vengeance
##érapies
associant
##CHARGER
##ronomie
Princesse
basilique
collision
Militaire
mensuelle
confirmés
attribués
indiquées
dépassent
dépassant
##ineuses
##pentier
recharger
automobil
empêchent
terminale
puissions
Astéroïde
syndicale
quantique
éligibles
électrons
suggèrent
longévité
séjourner
promoteur
gourmands
inconfort
analystes
##ouchage
cyclistes
testament
Dunkerque
messieurs
gingembre
induction
acquéreur
##oriques
attendons
##quantes
découpage
regretter
conjointe
assiettes
identifie
ergonomie
forestier
parentale
entendent
interrogé
suffisent
Classique
##instein
##ondeuse
injustice
nuisibles
agitation
courtiers
oxydation
initiales
latérales
endommagé
##ouville
habituels
congolais
##orateur
progresse
Mélenchon
graphisme
##enaires
Objectifs
##ressive
Cdiscount
cartouche
rébellion
étonnante
rappelons
##érables
figurines
inscrites
##uscules
mobilisés
##parable
##ISATION
dessinées
objective
diplomate
finalités
périhélie
renouvelé
pacifique
maximiser
ignorance
##enstein
Installer
cognitive
Confident
##ovision
tropicale
conquérir
##itables
moyennant
funéraire
communion
prononcée
traumatis
exotiques
polluants
interagir
télescope
terminant
antivirus
diffèrent
transmise
cohérente
nostalgie
acrylique
##édition
inaccessi
Supérieur
hydrocarb
demandées
désaccord
rattachée
contenues
Notamment
rapporter
gourmande
##ctrices
ukrainien
##idences
praticien
##omption
envisagée
Angoulême
Schneider
minorités
##ailable
marqueurs
habitable
aptitudes
##illette
déclarent
obscurité
demeurant
préparent
intègrent
Wikipedia
éducatifs
récipient
splendide
cérébrale
concerner
##titions
##ersonne
continuez
Patronyme
résonance
appréciés
Dernières
modifiant
Randonnée
Diffusion
Commencez
Testament
viendront
fragilité
instaurer
potassium
progressé
désespoir
tentation
entourant
##faction
diagramme
##ticules
séduction
partagées
brasserie
reproduit
courageux
recueilli
écouteurs
confiture
Montreuil
patronyme
Recommand
##agonale
pérennité
##ondance
Populaire
nautiques
échantill
précédant
Charleroi
excursion
##tiendra
##acteurs
nullement
savoureux
shampoing
auditeurs
réédition
resteront
Générales
linéaires
conformer
héritiers
compteurs
militante
déménager
vibration
allergies
légitimes
Polynésie
norvégien
mensonges
spatiales
Finaliste
regroupés
reconnait
Slovaquie
critiquer
finaliste
cocktails
diffusées
alliances
optimiste
abondante
accession
##mitisme
modifiées
déclarant
##issable
Connectez
Typologie
commettre
Propriété
Titulaire
Manhattan
insupport
homologue
##rements
remontent
ethniques
Transfert
##auville
abolition
designers
bracelets
imitation
##otation
##tention
Également
paroisses
September
observant
apprentis
salariale
interpell
illustrée
Transform
Published
hivernale
terminaux
convoyeur
paradigme
Melbourne
attractif
intrusion
bulletins
wordpress
annonçant
anecdotes
plombiers
décrivant
démarquer
préférent
##anderie
##oulette
fréquenté
comparant
cuisinier
assureurs
pratiquée
sympathie
inventeur
Contempor
éditorial
médiateur
inscrivez
Premières
##metures
circulent
##atation
escroquer
##onnette
condamnée
Quatrième
fauteuils
##erville
Homonymie
Nutrition
empêchant
reflètent
magistrat
courriers
Toussaint
identités
honorable
changeant
Monuments
certifiée
##oulière
Vincennes
Récemment
spontanée
##orieuse
Fermeture
districts
maintenue
réalistes
décoratif
papillons
##érienne
réservées
Histoires
perturber
Macédoine
attrayant
audiences
embarquer
émergents
programmé
riverains
entrainer
intensive
Chaussure
complétée
parfaites
inaugurée
Bonaparte
intuitive
Québécois
luxembour
##istants
donneront
Minnesota
crevettes
combinant
cavaliers
généreuse
protected
##letters
connaisse
Réception
Richelieu
##aissance
entreprise
##ographie
##onnement
différents
références
##cription
expérience
production
##ologique
conditions
nombreuses
traitement
maintenant
nécessaire
##issement
##ablement
rapidement
correspond
protection
##tivement
population
##olutions
##ribution
économique
caractéris
##lacement
simplement
techniques
territoire
##ducation
concernant
comprendre
disponible
##ications
administra
politiques
permettant
##ancement
permettent
changement
électrique
supplément
facilement
travailler
communauté
importante
##titution
République
historique
rencontres
##novation
ressources
européenne
Université
uniquement
croissance
Références
collection
université
développer
conception
principale
américaine
concasseur
##ociation
##lication
finalement
importance
exposition
##ositions
immobilier
meilleures
impression
représente
expériment
différence
Biographie
##airement
principaux
découverte
##avantage
ordinateur
personnage
complément
événements
totalement
expression
recherches
participer
engagement
patrimoine
efficacité
##êtements
spécifique
enregistre
professeur
plateforme
programmes
construire
fonctionne
##ématique
restaurant
télévision
révolution
conscience
évaluation
opérations
importants
classement
conseiller
dispositif
##ventions
bénéficier
supérieure
photograph
##itations
magnifique
rencontrer
résistance
pourraient
équipement
commercial
Commission
couverture
génération
Angleterre
définition
financière
##volution
impossible
conférence
opposition
partenaire
mouvements
##agnement
formations
évidemment
paramètres
situations
télécharge
commission
artistique
lesquelles
serrurerie
diagnostic
accessible
structures
déterminer
kilomètres
réparation
##entation
##roniques
clairement
conséquent
##lisation
difficulté
convention
innovation
propriétés
identifier
françaises
initiative
automobile
absolument
apparition
rénovation
secrétaire
décoration
chercheurs
légèrement
##ationale
militaires
traduction
transition
accueillir
catégories
##entement
##tiennent
équivalent
navigation
concurrent
exactement
instrument
profondeur
dirigeants
adaptation
transports
prévention
obligation
réellement
Actualités
olympiques
financiers
chaussures
assistance
dimensions
motivation
populaires
écologique
formulaire
catholique
##paravant
résolution
nourriture
Christophe
occupation
américains
officielle
communiqué
##ulations
classiques
concassage
accompagne
organismes
excellente
prestation
Fédération
industriel
esthétique
recommande
personnels
présentent
numériques
poursuivre
##rasbourg
similaires
Entreprise
navigateur
habitation
naturelles
appartient
discussion
Maintenant
intérieure
différente
##iliation
smartphone
difficiles
Strasbourg
auparavant
démocratie
collective
secondaire
incontourn
médicament
calendrier
culturelle
accompagné
##ressions
architecte
spécialisé
proportion
judiciaire
intervenir
stratégies
recommandé
climatique
étrangères
##onavirus
pleinement
littéraire
Historique
solidarité
##lections
précédente
fabricants
##stration
catastroph
##ootballe
profession
Géographie
compétence
abonnement
contribuer
présentant
comprenant
intervient
entraîneur
Washington
frontières
métallique
nationales
incroyable
atmosphère
deviennent
composants
souhaitent
producteur
Caractéris
considérer
procédures
##fication
management
promouvoir
##istiques
considérée
##abilités
Chaussures
extérieure
expédition
compagnies
##illement
superficie
##ènements
##érations
Révolution
##tisation
enregistré
constituer
construite
Californie
Concasseur
ordonnance
réputation
socialiste
libération
compatible
biologique
Luxembourg
diminution
inférieure
satisfaire
conclusion
##lèvement
enseignant
mécanismes
individuel
##mblement
Atlantique
sanitaires
prochaines
présidente
discipline
sentiments
Production
Concernant
particules
évènements
##culaires
apparaître
extraction
régionales
dramatique
séparation
opérateurs
##quemment
conducteur
soviétique
perfection
##estation
##paration
Communauté
Protection
originaire
commencent
énormément
choisissez
directrice
Collection
Conditions
présidence
rechercher
excellence
religieuse
conformité
intéresser
University
Méditerran
commandant
essentiels
visibilité
itinéraire
suspension
##ducteurs
perception
permanence
Catégories
gouverneur
cathédrale
certificat
spectacles
préfecture
permanente
provisoire
canadienne
témoignage
##landaise
##rètement
##térieurs
enthousias
assurances
maternelle
créativité
adversaire
attraction
juridiques
caractères
simulation
Professeur
##ensation
conversion
estimation
communiste
Classement
Finalement
convaincre
contrainte
nouveautés
##isations
logistique
recherchez
succession
précédents
répertoire
phénomènes
simplicité
symbolique
animations
complexité
variations
ingénieurs
retrouvent
Conférence
Management
préférable
entretenir
Rechercher
possession
continuité
régulation
continuent
quelconque
Télécharge
préférence
Convention
évolutions
interprète
provenance
thématique
Rencontres
Patrimoine
extérieurs
concentrer
graphiques
entretiens
république
potentiels
alternance
représenté
présentées
délégation
connaissez
substances
distinguer
transforme
Immobilier
correction
constituée
considérés
corruption
validation
auxquelles
dépendance
lieutenant
Versailles
chargement
développée
##icielles
encourager
temporaire
prévisions
réflexions
parisienne
imaginaire
circulaire
dépression
##agements
sauvegarde
technicien
concernent
volontaire
souffrance
polyvalent
électorale
##lisabeth
revêtement
accessoire
##ricolage
traditions
chrétienne
actualités
produisent
renseigner
serruriers
Disponible
##oxydable
progresser
projection
maquillage
##iendront
méditerran
économiser
bouteilles
newsletter
mécaniques
publicités
invitation
infanterie
définitive
Choisissez
annulation
chaleureux
musculaire
##ceptions
romantique
Restaurant
##ordement
industries
effectuées
##iblement
##fonction
##culation
tranquille
##olérance
inventaire
nomination
##ignement
##tillerie
fédération
terrorisme
messagerie
véritables
Américains
concernées
collectifs
municipale
##outchouc
surveiller
##jections
##dictions
récompense
astéroïdes
suffisante
##ologiste
organisées
originales
souveraine
abandonner
cellulaire
domination
##abulaire
sensations
dynamiques
supérieurs
Exposition
Européenne
magnétique
évacuation
Madagascar
passionnés
##iendrait
##inations
algorithme
promotions
domestique
exemplaire
confection
##ological
rapprocher
activation
formidable
tentatives
ingénierie
infections
combustion
réductions
Libération
plastiques
chroniques
##interest
applicable
paragraphe
transformé
philosophe
familiales
imprimante
téléphones
développés
inoxydable
interroger
performant
consultant
géographie
indicateur
spécialité
acoustique
Conception
identiques
popularité
caoutchouc
Dimensions
assemblage
médiatique
respectant
##mentaire
experience
activement
Ressources
grandement
ultérieure
Définition
intéressés
privilégié
construits
Manchester
scénariste
intérieurs
méditation
bénéficiez
souhaitons
hypothèses
amendement
inégalités
##cesseurs
proprement
introduire
favorables
fondateurs
##adeloupe
végétation
Secrétaire
existantes
reproduire
employeurs
indication
##rétariat
Marguerite
étanchéité
Transports
Traitement
transferts
répression
absorption
écoulement
##oureuses
reconnaiss
éventuelle
artillerie
##ocations
rassembler
occurrence
thermiques
pertinence
spectateur
souhaitant
##ynamique
résidences
##ralement
Résistance
déterminée
nucléaires
primordial
fourniture
##ongement
rembourser
luminosité
croissante
intentions
assistante
comportant
hiérarchie
Constantin
transporte
impliquant
##ainement
Guadeloupe
écosystème
sélections
fréquentes
processeur
chaudières
durabilité
Villeneuve
adolescent
##éremment
répétition
regroupant
directions
couramment
sécheresse
supporters
initiation
limitation
assassinat
inspection
psychanaly
transférer
##commande
sociologie
##olitique
renouveler
puissances
Conseiller
budgétaire
Martinique
idéalement
académique
compagnons
permettait
successeur
historiens
appliquent
inquiétude
##orations
occidental
identifiés
Population
propagande
influences
fréquences
théoriques
innovantes
détaillées
##ortement
étiquettes
interprété
silhouette
quotidiens
référendum
surprenant
Télévision
##urations
##ymologie
Découverte
aspirateur
recueillir
témoignent
déséquilib
intervalle
antérieure
terroriste
légitimité
directives
localement
reviennent
ajustement
australien
présidents
directeurs
comparatif
multimédia
biographie
visualiser
rencontrés
excellents
relaxation
révélation
mystérieux
allemandes
Casablanca
concession
Innovation
pathologie
conviction
archevêque
incapacité
Décoration
favorisant
locataires
composante
québécoise
sculptures
appropriée
manifester
solliciter
##cessions
confrontés
organiques
augmentent
télécommun
##ommation
Conclusion
règlements
leadership
titulaires
municipaux
##lovaquie
demandeurs
championne
simplifier
imposition
honoraires
discrétion
inspecteur
##versible
dangereuse
extensions
maçonnerie
Couverture
##ettement
infirmière
##moiselle
avantageux
ouvertures
expliquent
silencieux
collectées
##abiliser
athlétisme
pesticides
##utrition
remplaçant
Traduction
subvention
semblerait
semblables
nutriments
terrestres
contradict
compétents
randonnées
##iquement
volontiers
artisanale
satellites
Navigation
précisions
comparable
##issantes
fondations
corporelle
groupement
ordinaires
allocation
##mination
background
impeccable
artérielle
Changement
mentionner
entraînant
complicité
##ersbourg
Philadelph
avancement
protocoles
chirurgien
organisent
légendaire
désactiver
régulières
forteresse
guitariste
impatience
sanctuaire
infraction
démissionn
déclencher
distinctes
douloureux
##visibles
exhaustive
Newsletter
comptables
expliquant
précieuses
influencer
comportent
protecteur
respectifs
##onnaires
##missions
merveilles
connexions
réactivité
appliquées
africaines
émotionnel
pertinente
compliquée
séparément
surprendre
inférieurs
alternatif
commençant
précaution
Calendrier
configurer
brièvement
équilibrée
stagiaires
competence
signifiant
Assistance
enlèvement
multiplier
##onnières
résistants
##tivation
acceptable
infrarouge
agressions
Étiquettes
modération
analytique
percussion
ressembler
entretient
descendant
serviettes
##érapeute
satisfaits
trésorerie
progressif
Techniques
habituelle
plantation
prisonnier
Roussillon
contrôleur
pâtisserie
aspiration
installées
vibrations
livraisons
défenseurs
Occupation
Technology
utilitaire
Expérience
asiatiques
consistant
Comprendre
##uisement
diplomatie
radiateurs
soumission
##ulateurs
produisant
algérienne
poursuites
pertinents
Impossible
traversant
téléphonie
récepteurs
extinction
insécurité
exceptions
##dication
##resseurs
générosité
mentionnés
accusation
cotisation
mythologie
inscrivant
manuscrits
provoquant
##raphique
continuant
distribuer
comprenait
emballages
ressortiss
communique
malheureux
handicapés
remercions
abordables
internaute
matérielle
##allenges
conservées
autrichien
démocrates
alignement
##ériorité
exploitant
Réparation
périphérie
augmentant
auxiliaire
intégrante
adéquation
générateur
puissantes
Automobile
Entraîneur
trouvaient
Communiqué
reprennent
extrémités
conservant
délivrance
animateurs
atteignent
accueillis
dispersion
parallèles
coloration
excitation
temporelle
##arbonate
longuement
interviews
nécessiter
horizontal
transmises
provoquent
##ervation
artificiel
aquatiques
souhaitait
Paramètres
découvrent
##ingembre
présentons
successifs
conduisent
Commercial
respectent
Volkswagen
collaborer
pseudonyme
croisement
commerçant
filtration
combattant
rejoignent
paraissent
favorisent
adaptateur
sémantique
obtiennent
fondements
commodités
effraction
survivants
résistante
conduisant
Magnifique
résilience
Chroniques
présentera
Adaptation
constitués
conviviale
rappellent
Étymologie
rendements
apercevoir
Équipement
Jacqueline
menuiserie
génétiques
législatif
criminelle
Profession
apprenants
interfaces
inscrivent
présentait
faiblesses
débouchage
continents
indemnités
résolument
cosmétique
apprennent
signatures
dorénavant
démolition
fourchette
assemblées
enquêteurs
séminaires
associatif
expiration
provincial
effectuent
rapporteur
installent
Recherches
infirmiers
Rénovation
pratiquant
Événements
pèlerinage
##issaient
économiste
inévitable
ministères
différenci
Territoire
admiration
engouement
Emmanuelle
appropriés
cérémonies
porcelaine
pharmacien
continuera
passionnée
délicieuse
prospérité
cigarettes
avortement
##ographes
##régation
conscients
Meilleures
endommager
Producteur
vainqueurs
passerelle
ancienneté
affrontent
electrique
didactique
vasculaire
praticiens
fondatrice
emprunteur
##grédient
simplifiée
##omatique
##ocalypse
Copenhague
légalement
abandonnée
##isements
Enregistre
permanents
festivités
##clairage
reportages
neutralité
##ticienne
magistrats
téléviseur
rencontrez
interactif
Diagnostic
décoratifs
effectuant
introduite
sénégalais
vulnérable
##ibilités
soulignant
réunissant
Solidarité
##partment
récompensé
Foundation
redoutable
autorisées
consolider
formalités
intéressée
##assement
Plateforme
##tiendrez
écliptique
régulateur
satisfaite
empreintes
périodique
atteignant
contourner
italiennes
téléchargé
JavaScript
forestière
revendique
Travailler
utilisable
protestant
altération
Technicien
espionnage
##ductions
formateurs
Directrice
inondation
traducteur
##seillais
compétente
Championne
##matiques
syndicales
##onctions
Transition
confirment
obtiendrez
renouvelle
découverts
##iendaire
islamistes
Mitterrand
talentueux
orientales
mammifères
indétermin
comédienne
ingrédient
entreprend
##tensiles
##rouiller
##utention
gonflement
compétitif
entraînent
mentionnée
privilèges
##onnexion
Olympiques
promoteurs
desquelles
fabriquées
appliquant
traversent
ébullition
##érateurs
Mauritanie
seigneurie
épuisement
impliquées
mandataire
éditoriale
cartouches
fonctionné
excursions
apprécient
##ionnaire
célébrités
Prévention
socialisme
programmée
Évidemment
##erbrooke
travaillez
culinaires
remportant
planétaire
promenades
distribués
compassion
Développer
rapportent
irrigation
##ogrammes
finlandais
Compatible
##pectives
graphismes
centenaire
qualifiées
programmer
convaincus
retrouvons
bénéfiques
retrouvera
##cassonne
partageant
millénaire
##activité
pratiquent
descriptif
cardiaques
hésitation
indéniable
équitation
concepteur
Formations
permission
hôtellerie
souterrain
astrologie
Présidente
opératoire
déterminés
achèvement
géologique
commençait
sociologue
exactitude
approprier
##ellement
placements
Evidemment
améliorent
brouillard
##orielles
Sherbrooke
agencement
Discussion
assurément
complètent
Initiative
instantané
experiment
Evaluation
éducatives
moustiques
Eurovision
gaspillage
soulignent
coordonner
##ainville
virtuelles
saturation
régression
##Michelin
rhétorique
chevaliers
transporté
améliorant
fraternité
subjective
lumineuses
étudiantes
trouveront
Différents
télévisées
pulmonaire
recouverte
imprimerie
infiniment
systémique
embouchure
conservent
conteneurs
##ostérone
##istantes
germanique
##acieuses
migrations
##éricorde
Cathédrale
glissement
Génération
régularité
réchauffer
singulière
incapables
suggestion
renseignée
associated
capillaire
exclusives
Excellence
##arctique
animatrice
tunisienne
consciente
consacrées
internation
utilisation
##alisation
##uellement
entreprises
différentes
##lièrement
application
information
département
particulier
directement
association
##ologiques
possibilité
disponibles
disposition
responsable
##iellement
température
compétences
commentaire
nécessaires
automatique
utilisateur
réalisation
technologie
appartement
personnages
partenaires
performance
britannique
entièrement
fabrication
électricité
championnat
économiques
difficultés
Association
équipements
##videmment
préparation
##lications
inscription
intéressant
littérature
changements
publication
##veillance
Description
obligatoire
principales
financement
expériences
compétition
##iversaire
importantes
prestations
accessoires
accompagner
institution
##ification
spécifiques
spécialiste
alimentaire
télécharger
historiques
##ématiques
circulation
destination
énergétique
##édération
partenariat
composition
quotidienne
médicaments
fournisseur
agriculture
électriques
indépendant
##tissement
extrêmement
populations
journaliste
proposition
concurrence
déclaration
##orisation
intégration
aménagement
##atisation
territoires
##alendrier
conséquence
##struction
emplacement
##criptions
##grédients
description
personnelle
Télécharger
impressionn
enseignants
confortable
précisément
acquisition
coopération
déplacement
commerciale
restaurants
philosophie
laboratoire
spécialisée
constituent
contraintes
orientation
perspective
maintenance
traitements
réalisateur
recrutement
communiquer
ingrédients
communautés
secondaires
hébergement
Championnat
européennes
fonctionner
dispositifs
alternative
Montpellier
transformer
comparaison
##mentation
observation
##lissement
financières
différences
stratégique
réservation
reconnaître
##partement
producteurs
répartition
instruments
commerciaux
opportunité
industriels
accessibles
obligations
candidature
##othérapie
##issements
progression
##ativement
##onnements
coordonnées
combinaison
essentielle
élaboration
Département
inspiration
conférences
enregistrer
travaillent
représenter
pédagogique
internautes
compositeur
culturelles
normalement
confinement
transmettre
disparition
comprennent
touristique
collections
conseillers
destruction
suppression
plateformes
majoritaire
##rairement
appartenant
générations
discussions
connaissent
spécialisés
interaction
remarquable
Appartement
photographe
coronavirus
expositions
sensibilité
américaines
##roduction
professeurs
fréquemment
exemplaires
initiatives
échantillon
sélectionné
découvertes
témoignages
professionn
sympathique
recensement
indicateurs
susceptible
approvision
instruction
précédentes
universités
explication
fantastique
concurrents
permettront
ordinateurs
législation
climatiques
thématiques
engagements
magnifiques
ferroviaire
participant
strictement
Information
gouvernance
adolescents
constamment
concasseurs
contiennent
techniciens
raisonnable
participent
authentique
spectateurs
distinction
imagination
religieuses
Réalisation
footballeur
négociation
intégralité
pourcentage
immobilière
productions
déploiement
immigration
TripAdvisor
Responsable
occidentale
architectur
francophone
statistique
supérieures
travaillant
##nellement
psychologie
catastrophe
artistiques
implication
universelle
##onciation
vaccination
Démographie
merveilleux
élimination
exploration
immobiliers
transporter
municipales
telecharger
commissaire
préférences
Publication
individuels
débarrasser
néerlandais
commerçants
bénéficient
conclusions
accompagnée
volontaires
##arisation
transaction
prisonniers
Renaissance
franchement
permettrait
indications
Utilisation
apparemment
métalliques
Commentaire
disparaître
intelligent
##énagement
caractérise
champignons
innovations
dégradation
smartphones
appellation
dysfonction
adversaires
extérieures
##formation
propagation
transparent
##valuation
Agriculture
globalement
biologiques
déroulement
disciplines
acceptation
nationalité
##ographies
ventilation
catholiques
##versement
nécessitent
expressions
rayonnement
littéraires
##érisation
proviennent
terroristes
originalité
ambassadeur
Accessoires
attribution
quarantaine
encadrement
##velopment
contribuent
domestiques
##urrection
écologiques
vocabulaire
progressive
conseillons
juridiction
coefficient
conducteurs
architectes
fournissent
##icilement
hydraulique
rencontrent
fonctionnel
enregistrés
composantes
Inscription
accompagnés
Entreprises
probabilité
fondamental
compatibles
éventuelles
applicables
competences
privilégier
respiration
rentabilité
appréhender
représentée
combattants
automobiles
réparations
spirituelle
Application
spécialités
développent
subventions
cosmétiques
##angulaire
Déclaration
considèrent
Littérature
prestataire
recommandée
humanitaire
considérées
Composition
officielles
PlayStation
Afghanistan
cotisations
collectives
attractions
gendarmerie
recommander
compression
flexibilité
républicain
judiciaires
conventions
visiblement
##calauréat
incertitude
synthétique
##ieusement
expérimenté
vétérinaire
intéressent
inondations
immunitaire
célibataire
autochtones
##lacements
évaluations
capitalisme
approbation
législature
hospitalier
dégustation
commissions
Performance
Téléchargez
##aissances
enregistrée
Utilisateur
intercommun
travaillons
trajectoire
##quisition
prestigieux
accueillant
harcèlement
Répartition
Britannique
##restation
pathologies
copropriété
adolescence
suggestions
approfondir
habitations
##lèvements
prélèvement
considérant
exportation
impressions
interpréter
comparateur
représentés
inclinaison
désignation
négligeable
photovoltaï
socialistes
##alisateur
nécessitant
professions
pertinentes
attestation
occidentaux
approfondie
handicapées
récompenses
travailleur
communistes
Préparation
inoubliable
développées
gastronomie
dissolution
orthographe
algorithmes
affirmation
célébration
intérieures
précautions
arrestation
dangereuses
constituant
estimations
accusations
ressemblent
combustible
Coronavirus
##éralement
Philippines
attachement
psychologue
parviennent
Christopher
##ressement
centimètres
prioritaire
compléments
Footballeur
remplissage
vulnérables
traductions
positionner
métabolisme
intervenant
respectueux
électricien
recherchons
déterminant
Corporation
connaissait
itinéraires
sécuritaire
identifiant
territorial
consécutive
gentillesse
connaissais
##dialement
soutiennent
résiliation
élémentaire
connaissons
déformation
Laboratoire
choisissant
compilation
formulation
chaleureuse
interprétée
##strations
transformée
##conomique
Restaurants
descendants
excellentes
poursuivant
##ologistes
exclusivité
minimaliste
généraliste
spécificité
compétitifs
Technologie
construites
Possibilité
citoyenneté
dessinateur
étroitement
##aillement
##erbaïdjan
définitions
performants
fournitures
##technique
communément
conviennent
importation
développeur
coopérative
fournissant
restriction
décorations
motivations
recherchent
projections
proportions
bénéficiant
Pétersbourg
convergence
musculation
israélienne
simulations
personnalis
équivalente
##ationales
limitrophes
corrélation
résidentiel
intempéries
archéologie
allaitement
panoramique
Aménagement
recueillies
successives
Productions
esthétiques
télétravail
Spécialiste
Ingrédients
choisissent
##sionnelle
journalisme
durablement
réclamation
musculaires
découvrirez
rencontrées
facturation
incroyables
Réalisateur
secrétariat
##ouverture
sauvegarder
stimulation
conceptions
originaires
##orcelaine
passionnant
développant
marchandise
##olestérol
##ontologie
enseignante
caractérisé
##tellation
ventilateur
boulangerie
##iguration
antérieures
liquidation
horizontale
agroaliment
supervision
poursuivent
interactive
Fabrication
souffrances
infractions
##oristique
couvertures
conseillère
moléculaire
Herzégovine
multiplient
carrosserie
typiquement
révélations
convictions
inconscient
écosystèmes
restitution
intervenons
cholestérol
performante
inférieures
hélicoptère
électorales
contentieux
retrouverez
morphologie
certificats
désagréable
imperméable
culpabilité
budgétaires
affiliation
temporaires
accueillent
logiquement
résolutions
crédibilité
ouvertement
mystérieuse
##olithique
chaussettes
gigantesque
supermarché
inquiétudes
potentielle
appartenait
Compétition
idéologique
audiovisuel
protections
électromagn
législative
classements
référentiel
development
Azerbaïdjan
abonnements
ergonomique
Enregistrer
formulaires
défaillance
canadiennes
brésilienne
apparitions
Development
##ocratique
résistances
Récompenses
massivement
privilégiée
##ométrique
palestinien
renaissance
diagnostics
##aissement
appropriées
plantations
cheminement
soulagement
pénétration
hétérogènes
TÉLÉCHARGER
##ophysique
navigateurs
distinguent
##akespeare
hydratation
concrétiser
instabilité
recommencer
Occidentale
Shakespeare
concessions
sincèrement
qualitative
endettement
prospection
aspirations
respectives
Telecharger
infirmières
dimensionne
travaillait
dépassement
Journaliste
instantanée
##cissement
affectation
réouverture
échappement
mentionnées
identifiées
bourgeoisie
congélateur
branchement
[...]
